{
  "version": "1.0",
  "truncation": null,
  "padding": null,
  "added_tokens": [
    {
      "id": 0,
      "content": "[UNK]",
      "single_word": false,
      "lstrip": false,
      "rstrip": false,
      "normalized": false,
      "special": true
    }
  ],
  "normalizer": {
    "type": "NFKC"
  },
  "pre_tokenizer": {
    "type": "Metaspace",
    "replacement": "▁",
    "prepend_scheme": "never",
    "split": true
  },
  "post_processor": null,
  "decoder": {
    "type": "Metaspace",
    "replacement": "▁",
    "prepend_scheme": "never",
    "split": true
  },
  "model": {
    "type": "BPE",
    "dropout": null,
    "unk_token": "[UNK]",
    "continuing_subword_prefix": null,
    "end_of_word_suffix": null,
    "fuse_unk": false,
    "byte_fallback": false,
    "ignore_merges": false,
    "vocab": {
      "[UNK]": 0,
      "\n": 1,
      "!": 2,
      "\"": 3,
      "#": 4,
      "$": 5,
      "%": 6,
      "&": 7,
      "'": 8,
      "(": 9,
      ")": 10,
      "*": 11,
      "+": 12,
      ",": 13,
      "-": 14,
      ".": 15,
      "/": 16,
      "0": 17,
      "1": 18,
      "2": 19,
      "3": 20,
      "4": 21,
      "5": 22,
      "6": 23,
      "7": 24,
      "8": 25,
      "9": 26,
      ":": 27,
      ";": 28,
      "<": 29,
      "=": 30,
      ">": 31,
      "?": 32,
      "A": 33,
      "B": 34,
      "C": 35,
      "D": 36,
      "E": 37,
      "F": 38,
      "G": 39,
      "H": 40,
      "I": 41,
      "J": 42,
      "K": 43,
      "L": 44,
      "M": 45,
      "N": 46,
      "O": 47,
      "P": 48,
      "Q": 49,
      "R": 50,
      "S": 51,
      "T": 52,
      "U": 53,
      "V": 54,
      "W": 55,
      "X": 56,
      "Y": 57,
      "Z": 58,
      "[": 59,
      "\\": 60,
      "]": 61,
      "^": 62,
      "_": 63,
      "`": 64,
      "a": 65,
      "b": 66,
      "c": 67,
      "d": 68,
      "e": 69,
      "f": 70,
      "g": 71,
      "h": 72,
      "i": 73,
      "j": 74,
      "k": 75,
      "l": 76,
      "m": 77,
      "n": 78,
      "o": 79,
      "p": 80,
      "q": 81,
      "r": 82,
      "s": 83,
      "t": 84,
      "u": 85,
      "v": 86,
      "w": 87,
      "x": 88,
      "y": 89,
      "z": 90,
      "{": 91,
      "|": 92,
      "}": 93,
      "~": 94,
      "°": 95,
      "·": 96,
      "Ö": 97,
      "á": 98,
      "â": 99,
      "æ": 100,
      "ç": 101,
      "è": 102,
      "é": 103,
      "í": 104,
      "ñ": 105,
      "ö": 106,
      "ü": 107,
      "ā": 108,
      "ī": 109,
      "İ": 110,
      "Ś": 111,
      "ś": 112,
      "ū": 113,
      "ș": 114,
      "ə": 115,
      "ɦ": 116,
      "ɪ": 117,
      "ɾ": 118,
      "ʊ": 119,
      "ʼ": 120,
      "ˈ": 121,
      "ː": 122,
      "ί": 123,
      "α": 124,
      "δ": 125,
      "θ": 126,
      "ν": 127,
      "π": 128,
      "ς": 129,
      "ό": 130,
      "ँ": 131,
      "ं": 132,
      "ः": 133,
      "अ": 134,
      "आ": 135,
      "इ": 136,
      "ई": 137,
      "उ": 138,
      "ऊ": 139,
      "ऋ": 140,
      "ऍ": 141,
      "ए": 142,
      "ऐ": 143,
      "ऑ": 144,
      "ओ": 145,
      "औ": 146,
      "क": 147,
      "ख": 148,
      "ग": 149,
      "घ": 150,
      "ङ": 151,
      "च": 152,
      "छ": 153,
      "ज": 154,
      "झ": 155,
      "ञ": 156,
      "ट": 157,
      "ठ": 158,
      "ड": 159,
      "ढ": 160,
      "ण": 161,
      "त": 162,
      "थ": 163,
      "द": 164,
      "ध": 165,
      "न": 166,
      "ऩ": 167,
      "प": 168,
      "फ": 169,
      "ब": 170,
      "भ": 171,
      "म": 172,
      "य": 173,
      "र": 174,
      "ऱ": 175,
      "ल": 176,
      "ळ": 177,
      "व": 178,
      "श": 179,
      "ष": 180,
      "स": 181,
      "ह": 182,
      "ऻ": 183,
      "़": 184,
      "ऽ": 185,
      "ा": 186,
      "ि": 187,
      "ी": 188,
      "ु": 189,
      "ू": 190,
      "ृ": 191,
      "ॅ": 192,
      "े": 193,
      "ै": 194,
      "ॉ": 195,
      "ॊ": 196,
      "ो": 197,
      "ौ": 198,
      "्": 199,
      "॔": 200,
      "ॠ": 201,
      "।": 202,
      "०": 203,
      "१": 204,
      "२": 205,
      "३": 206,
      "४": 207,
      "५": 208,
      "६": 209,
      "७": 210,
      "८": 211,
      "९": 212,
      "॰": 213,
      "ॲ": 214,
      "ం": 215,
      "ః": 216,
      "అ": 217,
      "ఆ": 218,
      "ఇ": 219,
      "ఈ": 220,
      "ఉ": 221,
      "ఋ": 222,
      "ఎ": 223,
      "ఏ": 224,
      "ఐ": 225,
      "ఒ": 226,
      "ఓ": 227,
      "ఔ": 228,
      "క": 229,
      "ఖ": 230,
      "గ": 231,
      "ఘ": 232,
      "చ": 233,
      "ఛ": 234,
      "జ": 235,
      "ఞ": 236,
      "ట": 237,
      "ఠ": 238,
      "డ": 239,
      "ఢ": 240,
      "ణ": 241,
      "త": 242,
      "థ": 243,
      "ద": 244,
      "ధ": 245,
      "న": 246,
      "ప": 247,
      "ఫ": 248,
      "బ": 249,
      "భ": 250,
      "మ": 251,
      "య": 252,
      "ర": 253,
      "ల": 254,
      "ళ": 255,
      "వ": 256,
      "శ": 257,
      "ష": 258,
      "స": 259,
      "హ": 260,
      "ా": 261,
      "ి": 262,
      "ీ": 263,
      "ు": 264,
      "ూ": 265,
      "ృ": 266,
      "ె": 267,
      "ే": 268,
      "ై": 269,
      "ొ": 270,
      "ో": 271,
      "ౌ": 272,
      "్": 273,
      "ṅ": 274,
      "ṇ": 275,
      "Ṛ": 276,
      "ṣ": 277,
      "ṭ": 278,
      "Ἰ": 279,
      "‌": 280,
      "‍": 281,
      "‎": 282,
      "–": 283,
      "—": 284,
      "‘": 285,
      "’": 286,
      "“": 287,
      "”": 288,
      "†": 289,
      "•": 290,
      "′": 291,
      "‹": 292,
      "›": 293,
      "⁡": 294,
      "₹": 295,
      "↑": 296,
      "−": 297,
      "▁": 298,
      "▲": 299,
      "﻿": 300,
      "wi": 301,
      "ki": 302,
      "wiki": 303,
      "di": 304,
      "dia": 305,
      "or": 306,
      "ht": 307,
      "tp": 308,
      ":/": 309,
      "http": 310,
      "://": 311,
      "](": 312,
      "](http": 313,
      "pe": 314,
      "s://": 315,
      "](https://": 316,
      "g/": 317,
      ".or": 318,
      ".org/": 319,
      "pedia": 320,
      ".wiki": 321,
      ".org/wiki": 322,
      ".org/wiki/": 323,
      ".wikipedia": 324,
      ".wikipedia.org/wiki/": 325,
      "▁[": 326,
      "▁\"": 327,
      "\")": 328,
      "te": 329,
      "in": 330,
      "en": 331,
      "ार": 332,
      "on": 333,
      "्र": 334,
      "an": 335,
      "hi": 336,
      "▁|": 337,
      "ti": 338,
      "In": 339,
      "re": 340,
      "20": 341,
      "्य": 342,
      "▁क": 343,
      "th": 344,
      "al": 345,
      "भार": 346,
      "भारत": 347,
      "ar": 348,
      "India": 349,
      "er": 350,
      "▁स": 351,
      "](https://hi": 352,
      "](https://en": 353,
      "](https://hi.wikipedia.org/wiki/": 354,
      "](https://en.wikipedia.org/wiki/": 355,
      "్ర": 356,
      "ci": 357,
      "](https://te": 358,
      "](https://te.wikipedia.org/wiki/": 359,
      "es": 360,
      "▁प": 361,
      "of": 362,
      "tion": 363,
      "▁-": 364,
      "ార": 365,
      "▁म": 366,
      "](https://m": 367,
      "▁(": 368,
      "रा": 369,
      "te_": 370,
      "ान": 371,
      "र्": 372,
      "#ci": 373,
      "#cite_": 374,
      "the": 375,
      "](https://mr": 376,
      "](https://mr.wikipedia.org/wiki/": 377,
      "om": 378,
      "**": 379,
      "is": 380,
      "and": 381,
      "या": 382,
      "ాల": 383,
      "्त": 384,
      "▁of": 385,
      "▁ह": 386,
      "19": 387,
      "▁the": 388,
      "్య": 389,
      "ri": 390,
      "ou": 391,
      "as": 392,
      "्या": 393,
      "no": 394,
      "▁व": 395,
      "భార": 396,
      "ac": 397,
      "భారత": 398,
      "దే": 399,
      "िक": 400,
      "\\_": 401,
      "▁अ": 402,
      "దేశ": 403,
      "201": 404,
      "స్": 405,
      "le": 406,
      "▁ప": 407,
      "▁आ": 408,
      "ीय": 409,
      "ate": 410,
      "ें": 411,
      "సా": 412,
      "200": 413,
      "ाल": 414,
      "▁India": 415,
      "ర్": 416,
      "](https://en.wikipedia.org/wiki/India": 417,
      "OT": 418,
      "▁के": 419,
      "ेश": 420,
      "న్": 421,
      "oo": 422,
      "ात": 423,
      "lin": 424,
      "ation": 425,
      "ge": 426,
      "-0": 427,
      "ve": 428,
      "-1": 429,
      "li": 430,
      "si": 431,
      "िया": 432,
      "at": 433,
      "▁द": 434,
      "](https://hi.wikipedia.org/wiki/भारत": 435,
      "▁in": 436,
      "ref": 437,
      "ent": 438,
      "▁प्र": 439,
      "ना": 440,
      "▁p": 441,
      "note": 442,
      "am": 443,
      "्ष": 444,
      "▁C": 445,
      "#cite_ref": 446,
      "#cite_note": 447,
      "dit": 448,
      "red": 449,
      "▁ज": 450,
      "ंग": 451,
      "▁and": 452,
      "त्र": 453,
      "\"),": 454,
      "[[": 455,
      "st": 456,
      "भा": 457,
      "లు": 458,
      "▁|\n": 459,
      "▁भारत": 460,
      ".\n": 461,
      "link": 462,
      "#cite_ref-": 463,
      "#cite_note-": 464,
      "id": 465,
      "రా": 466,
      "राज": 467,
      "ला": 468,
      "=1": 469,
      "action": 470,
      "edit": 471,
      "स्": 472,
      "ad": 473,
      "action=": 474,
      "action=edit": 475,
      "▁**": 476,
      "&red": 477,
      "?action=edit": 478,
      "link=1": 479,
      "&redlink=1": 480,
      "?action=edit&redlink=1": 481,
      "భారతదేశ": 482,
      "▁A": 483,
      "com": 484,
      ".శ": 485,
      ".శ.": 486,
      "లో": 487,
      "न्": 488,
      "▁S": 489,
      "▁त": 490,
      "సా.శ.": 491,
      "lo": 492,
      "et": 493,
      "fi": 494,
      "▁न": 495,
      "ास": 496,
      "ष्": 497,
      "we": 498,
      "▁s": 499,
      "▁में": 500,
      "▁ब": 501,
      "ing": 502,
      ").": 503,
      "▁క": 504,
      "ed": 505,
      "um": 506,
      "ww": 507,
      "▁t": 508,
      "▁1": 509,
      "ang": 510,
      "ook": 511,
      "▁c": 512,
      "ai": 513,
      "త్ర": 514,
      "्व": 515,
      "ాలు": 516,
      "ची": 517,
      "ित": 518,
      "రి": 519,
      "ों": 520,
      "▁[↑": 521,
      "ni": 522,
      "క్": 523,
      "00": 524,
      "78": 525,
      "ంద": 526,
      "ory": 527,
      "he": 528,
      "देश": 529,
      "▁b": 530,
      "ని": 531,
      "ur": 532,
      "▁వ": 533,
      "_क": 534,
      "दी": 535,
      "ां": 536,
      "ले": 537,
      "ch": 538,
      "▁P": 539,
      "us": 540,
      "▁m": 541,
      "ల్": 542,
      "▁f": 543,
      "of_": 544,
      "ul": 545,
      ".j": 546,
      "ra": 547,
      "IS": 548,
      "_of_": 549,
      "భారతదేశం": 550,
      "क्ष": 551,
      "ce": 552,
      "षा": 553,
      "·**": 554,
      "▁**·**": 555,
      ")\n": 556,
      "▁का": 557,
      "ons": 558,
      "▁है": 559,
      "ంగ": 560,
      ".jp": 561,
      "ist": 562,
      "FO": 563,
      "▁•": 564,
      "▁స": 565,
      "ter": 566,
      "NOT": 567,
      "वि": 568,
      "OTNOT": 569,
      "ष्ट": 570,
      "FOOTNOT": 571,
      "FOOTNOTE": 572,
      "स्त": 573,
      "21": 574,
      "▁మ": 575,
      "web": 576,
      "ver": 577,
      "BN": 578,
      "ro": 579,
      "978": 580,
      "ISBN": 581,
      "it": 582,
      "▁201": 583,
      "भाषा": 584,
      "राज्य": 585,
      "్రా": 586,
      "age": 587,
      "_स": 588,
      "री": 589,
      "्रे": 590,
      "▁ग": 591,
      "▁a": 592,
      "ీయ": 593,
      "वा": 594,
      "और": 595,
      "ता": 596,
      "),": 597,
      "ండ": 598,
      "tic": 599,
      "chi": 600,
      "▁\"भारत": 601,
      "ली": 602,
      "enti": 603,
      "▁की": 604,
      "▁T": 605,
      "un": 606,
      "ष्ट्र": 607,
      "▁M": 608,
      "▁से": 609,
      "-0)": 610,
      "ती": 611,
      "25": 612,
      "▁श": 613,
      "జ్య": 614,
      "our": 615,
      "▁చ": 616,
      "cial": 617,
      "▁R": 618,
      "हे": 619,
      "मा": 620,
      "प्र": 621,
      "identi": 622,
      "पु": 623,
      "fier": 624,
      "identifier": 625,
      "mp": 626,
      ".g": 627,
      "26": 628,
      "తా": 629,
      "▁और": 630,
      "ము": 631,
      "▁उ": 632,
      "10": 633,
      "నా": 634,
      "me": 635,
      "తి": 636,
      "్ట": 637,
      "ने": 638,
      "de": 639,
      "angu": 640,
      "_(": 641,
      "23": 642,
      "ति": 643,
      "india": 644,
      "identifier)": 645,
      "]](https://en.wikipedia.org/wiki/India": 646,
      "ol": 647,
      "▁*": 648,
      "▁सं": 649,
      "chive": 650,
      "book": 651,
      "సి": 652,
      "ic": 653,
      "▁इ": 654,
      "త్": 655,
      "](https://en.wikipedia.org/wiki/India#cite_ref-": 656,
      "]](https://en.wikipedia.org/wiki/India#cite_note-": 657,
      "\")\n": 658,
      "णी": 659,
      "सा": 660,
      "हि": 661,
      "ateg": 662,
      "▁आहे": 663,
      "▁[म": 664,
      "ategory": 665,
      "था": 666,
      "सं": 667,
      "ag": 668,
      "es/": 669,
      "▁to": 670,
      "ategory:": 671,
      "चि": 672,
      "▁D": 673,
      "▁w": 674,
      ".com": 675,
      "द्र": 676,
      "IT": 677,
      "चे": 678,
      "ss": 679,
      "24": 680,
      "ER": 681,
      "--": 682,
      "▁B": 683,
      "▁---": 684,
      "र्व": 685,
      "▁(సా.శ.": 686,
      "त्त": 687,
      "ment": 688,
      ".com/": 689,
      "EF": 690,
      "యా": 691,
      "ITER": 692,
      "ులు": 693,
      "▁రా": 694,
      "ITEREF": 695,
      "up": 696,
      ".jpg": 697,
      "▁19": 698,
      "ay": 699,
      "ి.": 700,
      "–సా.శ.": 701,
      "](https://mai": 702,
      "▁e": 703,
      "al_": 704,
      "](https://mai.wikipedia.org/wiki/": 705,
      "▁అ": 706,
      "▁वि": 707,
      "books": 708,
      "www": 709,
      "il": 710,
      "](https://mr.wikipedia.org/wiki/भारत": 711,
      ".[[": 712,
      "▁ए": 713,
      "चा": 714,
      "▁.": 715,
      "िल": 716,
      "0%": 717,
      "ty": 718,
      "राष्ट्र": 719,
      "▁ప్ర": 720,
      "का": 721,
      "ిక": 722,
      "▁र": 723,
      "langu": 724,
      "ील": 725,
      "ig": 726,
      "తం": 727,
      "28": 728,
      ".in": 729,
      "www.": 730,
      "##": 731,
      "ंड": 732,
      "▁सा": 733,
      "▁200": 734,
      "▁\"म": 735,
      "ct": 736,
      "च्या": 737,
      "ిన": 738,
      "జ్యం": 739,
      "▁([": 740,
      "50": 741,
      "oun": 742,
      "err": 743,
      "13": 744,
      "▁20": 745,
      "म्": 746,
      "▁./": 747,
      "18": 748,
      "జా": 749,
      "▁को": 750,
      "▁E": 751,
      "▁पर": 752,
      "▁\"S": 753,
      "_S": 754,
      "ly": 755,
      "ంచ": 756,
      "కు": 757,
      "con": 758,
      "du": 759,
      "umb": 760,
      "ld": 761,
      "](https://te.wikipedia.org/wiki/భారతదేశం": 762,
      "cal": 763,
      "कार": 764,
      "ून": 765,
      "error": 766,
      "archive": 767,
      "द्": 768,
      "पा": 769,
      "ను": 770,
      "పూ": 771,
      "#C": 772,
      "sh": 773,
      "मी": 774,
      "मु": 775,
      "▁H": 776,
      "#CITEREF": 777,
      "_India": 778,
      "భా": 779,
      "ourc": 780,
      "Uni": 781,
      "ड़": 782,
      "▁य": 783,
      "pecial": 784,
      "हा": 785,
      "ప్ర": 786,
      "ew": 787,
      "▁G": 788,
      "▁India\")": 789,
      "ద్": 790,
      "ింద": 791,
      "ain": 792,
      "र्म": 793,
      "▁[↑](https://en.wikipedia.org/wiki/India#cite_ref-": 794,
      "op": 795,
      "ेत्र": 796,
      "22": 797,
      "▁ఉ": 798,
      "40": 799,
      "-3": 800,
      "_in": 801,
      "fn": 802,
      "▁भाषा": 803,
      "comm": 804,
      "िय": 805,
      "ం:": 806,
      "ृत": 807,
      "Har": 808,
      "15": 809,
      "▁[\"": 810,
      "pecial:": 811,
      "_म": 812,
      "for": 813,
      "ov": 814,
      "▁N": 815,
      "978-0": 816,
      "▁ఆ": 817,
      "ते": 818,
      "]](https://hi.wikipedia.org/wiki/भारत": 819,
      "ary": 820,
      "E0%": 821,
      "▁h": 822,
      "rit": 823,
      "स्तान": 824,
      "199": 825,
      "▁ल": 826,
      "archive.org/": 827,
      "language": 828,
      "्रेणी": 829,
      "▁ర": 830,
      "ध्य": 831,
      "ources/": 832,
      "श्रेणी": 833,
      "-8": 834,
      "Book": 835,
      "श्रेणी:": 836,
      "మా": 837,
      "▁సా": 838,
      "భారతీయ": 839,
      "_A": 840,
      "▁या": 841,
      "outh": 842,
      "▁१": 843,
      "వా": 844,
      "▁re": 845,
      "4%": 846,
      "Sources/": 847,
      "ry": 848,
      "pecial:Book": 849,
      "pecial:BookSources/": 850,
      "ber": 851,
      "రు": 852,
      "web.": 853,
      "30": 854,
      "](https://web.": 855,
      "्रा": 856,
      "/http": 857,
      "29": 858,
      "rom": 859,
      "▁भ": 860,
      "web/": 861,
      "archive.org/web/": 862,
      "](https://web.archive.org/web/": 863,
      "ab": 864,
      "▁है।": 865,
      "16": 866,
      "कि": 867,
      "श्": 868,
      "The": 869,
      "ng": 870,
      "tu": 871,
      "వి": 872,
      "ష్ట": 873,
      "▁राज्य": 874,
      "ార్": 875,
      "పూ.": 876,
      "ak": 877,
      ".gov": 878,
      "media": 879,
      "E0%A": 880,
      "px": 881,
      "े_": 882,
      "mpl": 883,
      "\").": 884,
      "క్ష": 885,
      "el": 886,
      "▁प्रदेश": 887,
      "ap": 888,
      "commons": 889,
      "స్థ": 890,
      "రిత్ర": 891,
      "978-0-": 892,
      "gi": 893,
      "▁on": 894,
      "ount": 895,
      "ub": 896,
      "_of_India": 897,
      "s/": 898,
      "17": 899,
      "ress": 900,
      "14": 901,
      "se": 902,
      "से": 903,
      "पू": 904,
      ".wikimedia": 905,
      "▁F": 906,
      "న్న": 907,
      "calf": 908,
      "▁p.": 909,
      "%20": 910,
      "धान": 911,
      "▁हो": 912,
      "गर": 913,
      "िण": 914,
      "ational": 915,
      "sia": 916,
      "etcalf": 917,
      "with": 918,
      "load": 919,
      "errors": 920,
      "नी": 921,
      "▁\"स": 922,
      "upload": 923,
      "ir": 924,
      "ोक": 925,
      "ंद": 926,
      "▁or": 927,
      "![": 928,
      "pedia/": 929,
      ".org/wikipedia/": 930,
      "द्ध": 931,
      ".wikimedia.org/wikipedia/": 932,
      "upload.wikimedia.org/wikipedia/": 933,
      "](https://upload.wikimedia.org/wikipedia/": 934,
      "](https://hi.wikipedia.org/wiki/भारत#cite_ref-": 935,
      "]](https://hi.wikipedia.org/wiki/भारत#cite_note-": 936,
      "thumb": 937,
      "णि": 938,
      "commons/": 939,
      "](https://upload.wikimedia.org/wikipedia/commons/": 940,
      "27": 941,
      "मान": 942,
      "▁\"क": 943,
      "thumb/": 944,
      "-4": 945,
      "List": 946,
      "▁g": 947,
      "Harv": 948,
      ".in/": 949,
      "](http://": 950,
      "](https://upload.wikimedia.org/wikipedia/commons/thumb/": 951,
      "_and": 952,
      "क्षिण": 953,
      "px-": 954,
      "ted": 955,
      "_के_": 956,
      "बा": 957,
      "orld": 958,
      "ीय_": 959,
      "शिया": 960,
      "हार": 961,
      "గా": 962,
      "▁कर": 963,
      "est": 964,
      "▁देश": 965,
      "▁ध": 966,
      "▁[S": 967,
      "्षेत्र": 968,
      "▁J": 969,
      "%E0%A": 970,
      "ep": 971,
      "ంట": 972,
      "కి": 973,
      "ish": 974,
      "जा": 975,
      "▁n": 976,
      "\"))": 977,
      "ाली": 978,
      "per": 979,
      "మ్రా": 980,
      "ష్ట్ర": 981,
      "ार्": 982,
      "ort": 983,
      "जी": 984,
      "ంత": 985,
      "▁(identifier)": 986,
      "_(identifier)": 987,
      "▁(identifier)\")": 988,
      "](https://en.wikipedia.org/wiki/India#CITEREF": 989,
      "▁Category:": 990,
      "चित्र": 991,
      "▁[क": 992,
      "▁by": 993,
      "ज़": 994,
      "ोल": 995,
      "▁स्": 996,
      "ast": 997,
      "▁[अ": 998,
      "versi": 999,
      "नु": 1000,
      "పు": 1001,
      "▁L": 1002,
      "▁d": 1003,
      "▁पु": 1004,
      ".p": 1005,
      "▁\"अ": 1006,
      "em": 1007,
      "ंध": 1008,
      "िस": 1009,
      "▁న": 1010,
      "▁[स": 1011,
      "_C": 1012,
      "▁भारतीय": 1013,
      "im": 1014,
      "▁In": 1015,
      "वर्": 1016,
      "మి": 1017,
      "ాన": 1018,
      "47": 1019,
      "CS": 1020,
      "gle": 1021,
      "▁for": 1022,
      "Metcalf": 1023,
      "▁[भारत": 1024,
      "ूची": 1025,
      "పా": 1026,
      "▁O": 1027,
      "▁ఇ": 1028,
      "▁త": 1029,
      "ens": 1030,
      "భాష": 1031,
      "*.": 1032,
      "ीप": 1033,
      "िश": 1034,
      "स्क": 1035,
      "_भाषा": 1036,
      "get": 1037,
      "▁एक": 1038,
      "_P": 1039,
      "har": 1040,
      "मन": 1041,
      "हर": 1042,
      "▁from": 1043,
      "పాల": 1044,
      "లీ": 1045,
      "]](https://en.wikipedia.org/wiki/India#cite_note-FOOTNOTE": 1046,
      "ot": 1047,
      "Category:": 1048,
      ".jpg)": 1049,
      "versity": 1050,
      "▁దేశ": 1051,
      "▁राज": 1052,
      "స్తా": 1053,
      "?id": 1054,
      "ंत्र": 1055,
      "978-1": 1056,
      "%E0%A4%": 1057,
      "सार": 1058,
      "टी": 1059,
      "पर": 1060,
      "వర్": 1061,
      "ాయ": 1062,
      "▁is": 1063,
      "▁[*": 1064,
      "oogle": 1065,
      "न्द": 1066,
      ".jpg/": 1067,
      "eve": 1068,
      "over": 1069,
      "▁[A": 1070,
      "_M": 1071,
      "िर": 1072,
      "▁[ISBN": 1073,
      "▁W": 1074,
      "ther": 1075,
      "▁आहे.": 1076,
      ")[[": 1077,
      "AA": 1078,
      "क्त": 1079,
      "inal": 1080,
      "hin": 1081,
      "conom": 1082,
      "do": 1083,
      "ut": 1084,
      "विश": 1085,
      "▁Indian": 1086,
      "▁ख": 1087,
      "మ్రాజ్యం": 1088,
      "?id=": 1089,
      "-9": 1090,
      ".google": 1091,
      ".com/books": 1092,
      "books.google": 1093,
      "books.google.com/books": 1094,
      "1.": 1095,
      "av": 1096,
      "ंत": 1097,
      "books.google.com/books?id=": 1098,
      "a](https://en.wikipedia.org/wiki/": 1099,
      "ही": 1100,
      "దేశ్": 1101,
      "-2": 1102,
      "p.": 1103,
      "वे": 1104,
      "▁क्षेत्र": 1105,
      "िल्": 1106,
      "og": 1107,
      "ం](https://te.wikipedia.org/wiki/": 1108,
      "▁\"ISBN": 1109,
      "ISBN_(identifier)": 1110,
      "_D": 1111,
      "के": 1112,
      "ensus": 1113,
      "▁be": 1114,
      "श्रेणी:Harv": 1115,
      "_T": 1116,
      "मे": 1117,
      "templ": 1118,
      "हास": 1119,
      "ంబ": 1120,
      "టి": 1121,
      "गु": 1122,
      "त्": 1123,
      "म्रा": 1124,
      "ंग्रे": 1125,
      "▁भाषा\")": 1126,
      "धिक": 1127,
      "थान": 1128,
      "ेला": 1129,
      "ంలో": 1130,
      "▁pp.": 1131,
      "▁हैं": 1132,
      "స్తాన్": 1133,
      "-7": 1134,
      "_प्र": 1135,
      "2.": 1136,
      "aj": 1137,
      "वी": 1138,
      "▁K": 1139,
      "▁[ब": 1140,
      "राष्ट्रीय": 1141,
      "'s": 1142,
      "nd": 1143,
      "ेष": 1144,
      "గు": 1145,
      "డు": 1146,
      "నే": 1147,
      "్చ": 1148,
      "](https://books.google.com/books?id=": 1149,
      "ages": 1150,
      "▁\"C": 1151,
      "▁\"भारतीय": 1152,
      "त्तर": 1153,
      "▁l": 1154,
      "log": 1155,
      "art": 1156,
      "![](https://upload.wikimedia.org/wikipedia/commons/thumb/": 1157,
      "మూ": 1158,
      "▁ना": 1159,
      "్రీ": 1160,
      "జాత": 1161,
      "यु": 1162,
      "▁[C": 1163,
      "▁ने": 1164,
      "लेख": 1165,
      "शास": 1166,
      "లా": 1167,
      "ంగా": 1168,
      "ma": 1169,
      "▁घ": 1170,
      "▁The": 1171,
      "und": 1172,
      "किस्तान": 1173,
      "ख्य": 1174,
      "▁\"ब": 1175,
      "▁[↑](https://hi.wikipedia.org/wiki/भारत#cite_ref-": 1176,
      "णा": 1177,
      "दा": 1178,
      "ोग": 1179,
      "▁प्रा": 1180,
      "ru": 1181,
      "డ్": 1182,
      "ిల్": 1183,
      "▁జ": 1184,
      "tein": 1185,
      "▁मु": 1186,
      "PA": 1187,
      "ow": 1188,
      "pg": 1189,
      "▁–": 1190,
      "ong": 1191,
      "s](https://en.wikipedia.org/wiki/": 1192,
      "धार": 1193,
      "▁च": 1194,
      "arget": 1195,
      "](https://web.archive.org/web/201": 1196,
      "ib": 1197,
      "s,": 1198,
      "ata": 1199,
      "चीन": 1200,
      "లి": 1201,
      "▁Uni": 1202,
      "्यां": 1203,
      "స్త్ర": 1204,
      "opul": 1205,
      "_in_India": 1206,
      "ance": 1207,
      "▁th": 1208,
      "▁orig": 1209,
      "_1": 1210,
      "रु": 1211,
      "ం\")": 1212,
      "కా": 1213,
      "ణా": 1214,
      "దక్ష": 1215,
      "ధిక": 1216,
      "▁ప్రా": 1217,
      "-10": 1218,
      "▁వి": 1219,
      "సియా": 1220,
      "జాతీయ": 1221,
      "▁de": 1222,
      "दक्षिण": 1223,
      "_N": 1224,
      "▁अभ": 1225,
      "les": 1226,
      "की": 1227,
      "▁&": 1228,
      "ans": 1229,
      "2011": 1230,
      "▁సం": 1231,
      "▁చరిత్ర": 1232,
      "▁no": 1233,
      "न्दी": 1234,
      "्वीप": 1235,
      "tern": 1236,
      "48": 1237,
      "ज्": 1238,
      "म्राज": 1239,
      "35": 1240,
      "ूल": 1241,
      "](S": 1242,
      "ana": 1243,
      "nic": 1244,
      "%2": 1245,
      "డి": 1246,
      "ाना": 1247,
      "▁वर्": 1248,
      "▁original": 1249,
      "36": 1250,
      "▁\"M": 1251,
      "ys": 1252,
      "र्थ": 1253,
      "-5": 1254,
      "gh": 1255,
      "थि": 1256,
      "ोर": 1257,
      "ाने": 1258,
      "जन": 1259,
      "ంధ": 1260,
      "స్త": 1261,
      "_की": 1262,
      "▁రాజ్యం": 1263,
      ".jpg)\n": 1264,
      "▁సామ్రాజ్యం": 1265,
      "వర్గ": 1266,
      "opulation": 1267,
      "దక్షి": 1268,
      "htm": 1269,
      "/http://": 1270,
      "&pg": 1271,
      "▁हि": 1272,
      "ेंद्र": 1273,
      "&pg=": 1274,
      "ंब": 1275,
      "तम": 1276,
      "దీ": 1277,
      "▁ति": 1278,
      "umm": 1279,
      "ండి": 1280,
      "వర్గం:": 1281,
      "▁as": 1282,
      "▁st": 1283,
      "▁[M": 1284,
      "artic": 1285,
      "▁जात": 1286,
      "ates": 1287,
      "](Special:BookSources/": 1288,
      "45": 1289,
      "्रि": 1290,
      "▁नि": 1291,
      "60": 1292,
      "ction": 1293,
      "ia": 1294,
      "land": 1295,
      "od": 1296,
      "తర": 1297,
      "వం": 1298,
      "▁బ": 1299,
      "रकार": 1300,
      "ातील": 1301,
      "नुसार": 1302,
      "▁[↑](https://en.wikipedia.org/wiki/India#cite_ref-FOOTNOTE": 1303,
      "7.": 1304,
      "ud": 1305,
      "क्": 1306,
      "titu": 1307,
      "▁अस": 1308,
      "lic": 1309,
      "▁*[": 1310,
      "38": 1311,
      "ట్": 1312,
      "ది": 1313,
      "ిత": 1314,
      "70": 1315,
      "▁\"B": 1316,
      "ries": 1317,
      "&pg=PA": 1318,
      "gion": 1319,
      "द्य": 1320,
      "ence": 1321,
      "Indian": 1322,
      "विशेष": 1323,
      "_చ": 1324,
      "▁[B": 1325,
      "▁\"మ": 1326,
      "िका": 1327,
      "ింది.": 1328,
      "os": 1329,
      "ue": 1330,
      "न\")": 1331,
      "▁language": 1332,
      "CS1": 1333,
      "_G": 1334,
      "▁२": 1335,
      "2006": 1336,
      "india.gov": 1337,
      "▁ఎ": 1338,
      "▁[మ": 1339,
      "stan": 1340,
      "ity": 1341,
      "▁(సా.శ.పూ.": 1342,
      "▁I": 1343,
      "ore": 1344,
      "all": 1345,
      "▁आहेत": 1346,
      "िल्ली": 1347,
      "म्राज्य": 1348,
      "au": 1349,
      "indu": 1350,
      "](https://hi.wikipedia.org/wiki/अ": 1351,
      "overn": 1352,
      "_b": 1353,
      "](https://en.wikipedia.org/wiki/S": 1354,
      "ाला": 1355,
      "▁जन": 1356,
      "-6": 1357,
      "count": 1358,
      "ధ్య": 1359,
      "▁గ": 1360,
      "▁శ": 1361,
      "ori": 1362,
      "](https://hi.wikipedia.org/wiki/म": 1363,
      "](https://en.wikipedia.org/wiki/ISBN_(identifier)": 1364,
      "ంద్ర": 1365,
      "▁\"Special:BookSources/": 1366,
      "पाकिस्तान": 1367,
      "पूर्व": 1368,
      "▁[ISBN](https://en.wikipedia.org/wiki/ISBN_(identifier)": 1369,
      "विशेष:": 1370,
      ")\")": 1371,
      "3.": 1372,
      "ल्": 1373,
      "ke": 1374,
      "रे": 1375,
      "वं": 1376,
      "िग": 1377,
      "▁झ": 1378,
      "हारा": 1379,
      "6.": 1380,
      "]](https://mr.wikipedia.org/wiki/भारत": 1381,
      "▁\"P": 1382,
      "स्ट": 1383,
      "250": 1384,
      "39": 1385,
      "df": 1386,
      "गण": 1387,
      "ైన": 1388,
      "](https://te.wikipedia.org/wiki/మ": 1389,
      "2018": 1390,
      "▁పే": 1391,
      "▁Press": 1392,
      "xt": 1393,
      "▁with": 1394,
      "श्चि": 1395,
      "Stein": 1396,
      "_p": 1397,
      "कर": 1398,
      "्रो": 1399,
      "▁बा": 1400,
      "-t": 1401,
      "other": 1402,
      "हु": 1403,
      "etri": 1404,
      "्रिट": 1405,
      "11": 1406,
      "4.": 1407,
      "ట్ట": 1408,
      "హింద": 1409,
      "▁భారతదేశం": 1410,
      "▁\"A": 1411,
      "▁पा": 1412,
      "ంగ్": 1413,
      "istory": 1414,
      "ద్ధ": 1415,
      "ज्ञ": 1416,
      "जरा": 1417,
      "▁वा": 1418,
      "/https://": 1419,
      "*](https://books.google.com/books?id=": 1420,
      "च्": 1421,
      "नि": 1422,
      "▁ट": 1423,
      "▁di": 1424,
      "्री": 1425,
      "चित्र:": 1426,
      "49": 1427,
      "_भारत": 1428,
      "ll": 1429,
      "](https://www.": 1430,
      "](https://en.wikipedia.org/wiki/C": 1431,
      "▁तथा": 1432,
      "_R": 1433,
      "पं": 1434,
      "रब": 1435,
      "िळ": 1436,
      "ించ": 1437,
      "▁ఒ": 1438,
      "▁భాష": 1439,
      "▁[క": 1440,
      "his": 1441,
      "ాల్": 1442,
      "▁Asia": 1443,
      "aint": 1444,
      "▁धर्म": 1445,
      "eved": 1446,
      "120": 1447,
      "4)": 1448,
      "_B": 1449,
      "ate_": 1450,
      "ile": 1451,
      "▁भा": 1452,
      "tim": 1453,
      "ingh": 1454,
      "जाब": 1455,
      "▁तिथि": 1456,
      "overnment": 1457,
      "ear": 1458,
      "न्त": 1459,
      "▁Retri": 1460,
      "%2C": 1461,
      "▁Retrieved": 1462,
      "त्य": 1463,
      "शी": 1464,
      "onstitu": 1465,
      "90": 1466,
      "]](https://te.wikipedia.org/wiki/భారతదేశం": 1467,
      "चल": 1468,
      "रू": 1469,
      "చ్చ": 1470,
      "జీ": 1471,
      "ేంద్ర": 1472,
      "▁\"క": 1473,
      "▁हे": 1474,
      "तिहास": 1475,
      "▁१९": 1476,
      "dge": 1477,
      "ff": 1478,
      "पी": 1479,
      "सी": 1480,
      "▁पुरा": 1481,
      "5.": 1482,
      "_s": 1483,
      "rchive": 1484,
      "ढ़": 1485,
      "ations": 1486,
      "000": 1487,
      "▁are": 1488,
      "](https://mr.wikipedia.org/wiki/भारत#cite_ref-": 1489,
      "_प्रदेश": 1490,
      "]](https://mr.wikipedia.org/wiki/भारत#cite_note-": 1491,
      "46": 1492,
      "▁University": 1493,
      "1)": 1494,
      "sv": 1495,
      "मार": 1496,
      "త్య": 1497,
      "బ్": 1498,
      "మీ": 1499,
      "](https://te.wikipedia.org/wiki/ద": 1500,
      "▁पू": 1501,
      "్యా": 1502,
      "-1)": 1503,
      "రాష్ట్ర": 1504,
      "म्ब": 1505,
      "▁./వర్గం:": 1506,
      "▁तिथि:": 1507,
      "3)": 1508,
      "मू": 1509,
      "](https://mr.wikipedia.org/wiki/म": 1510,
      "पुर": 1511,
      "77": 1512,
      "PD": 1513,
      "vi": 1514,
      "ैद": 1515,
      "ame": 1516,
      "स्थान": 1517,
      "rchived": 1518,
      "_m": 1519,
      "ah": 1520,
      "mber": 1521,
      "प्त": 1522,
      "लोक": 1523,
      "सि": 1524,
      "▁[2": 1525,
      "▁सरकार": 1526,
      "sher": 1527,
      ".pdf": 1528,
      "ummit": 1529,
      "_न": 1530,
      "o-": 1531,
      "oli": 1532,
      "ure": 1533,
      "ख्या": 1534,
      "धी": 1535,
      "ంక": 1536,
      "ప్": 1537,
      "యు": 1538,
      "▁\"आ": 1539,
      "▁\"इ": 1540,
      "▁मान": 1541,
      "omm": 1542,
      "ंगाल": 1543,
      "తంత్ర": 1544,
      "](https://te.wikipedia.org/wiki/భారతదేశం#cite_ref-": 1545,
      "▁अभिग": 1546,
      "దక్షిణ": 1547,
      "पंजाब": 1548,
      "]](https://te.wikipedia.org/wiki/భారతదేశం#cite_note-": 1549,
      "▁अभिगमन": 1550,
      "▁[P": 1551,
      "▁\"T": 1552,
      "](https://en.wikipedia.org/wiki/M": 1553,
      "ash": 1554,
      "हिन्दी": 1555,
      "ks": 1556,
      "▁[उ": 1557,
      "ali": 1558,
      "ism": 1559,
      "amb": 1560,
      "हाराष्ट्र": 1561,
      "्रोत": 1562,
      ".pdf)": 1563,
      "den": 1564,
      "तात": 1565,
      "द्वीप": 1566,
      "सभ": 1567,
      "▁[D": 1568,
      "ont": 1569,
      "▁स्व": 1570,
      "%E0%A4%B": 1571,
      "्रिटिश": 1572,
      "_స": 1573,
      "cl": 1574,
      "తము": 1575,
      "వే": 1576,
      "ష్": 1577,
      "ాన్": 1578,
      "▁\"List": 1579,
      "స్క": 1580,
      "ficial": 1581,
      "ాలు,": 1582,
      "tics": 1583,
      "ध्ये": 1584,
      "▁हैं।": 1585,
      "ిల్లీ": 1586,
      "वर": 1587,
      "ank": 1588,
      "2009": 1589,
      "स्था": 1590,
      "▁2011": 1591,
      "माण": 1592,
      "ust": 1593,
      "ाच्या": 1594,
      "▁an": 1595,
      "▁[1": 1596,
      "](https://hi.wikipedia.org/wiki/क": 1597,
      "▁मो": 1598,
      "न्न": 1599,
      "_E": 1600,
      "डिया": 1601,
      "हित": 1602,
      "ैन": 1603,
      "\"))\n": 1604,
      "56": 1605,
      "cy": 1606,
      "జి": 1607,
      "ధాన": 1608,
      "బె": 1609,
      "▁\"उ": 1610,
      "ారు": 1611,
      "▁కా": 1612,
      "ంది.": 1613,
      "स्तक": 1614,
      "पुस्तक": 1615,
      "▁రాజ": 1616,
      "###": 1617,
      "विशेष:पुस्तक": 1618,
      "्रोत/": 1619,
      "ण्": 1620,
      "माल": 1621,
      "▁\"G": 1622,
      "\").\n": 1623,
      "2004": 1624,
      "▁उप": 1625,
      "html": 1626,
      "_आ": 1627,
      "a\")": 1628,
      "new": 1629,
      "▁was": 1630,
      "ज़ी": 1631,
      "s.": 1632,
      "ूर": 1633,
      "▁\"E": 1634,
      "eral": 1635,
      "List_of_": 1636,
      "शासित": 1637,
      "[![](https://upload.wikimedia.org/wikipedia/commons/thumb/": 1638,
      "ृष्": 1639,
      "దు": 1640,
      "మ్": 1641,
      "శ్": 1642,
      "▁3": 1643,
      "](https://te.wikipedia.org/wiki/క": 1644,
      "్యవ": 1645,
      "▁आणि": 1646,
      "ंगा": 1647,
      "_చరిత్ర": 1648,
      "PDF": 1649,
      "2)": 1650,
      "8.": 1651,
      "▁\"D": 1652,
      "▁सूची": 1653,
      "lop": 1654,
      "ब्": 1655,
      "ani": 1656,
      "▁सु": 1657,
      "](https://en.wikipedia.org/wiki/B": 1658,
      "_का": 1659,
      "▁2007": 1660,
      "AJ": 1661,
      "lish": 1662,
      "rad": 1663,
      "ठा": 1664,
      "वन": 1665,
      "ated": 1666,
      "▁**[": 1667,
      "▁2014": 1668,
      "conomic": 1669,
      "BAJ": 1670,
      "QBAJ": 1671,
      "_క": 1672,
      "ठी": 1673,
      "ल्या": 1674,
      "ఢిల్లీ": 1675,
      "పంచ": 1676,
      "▁V": 1677,
      "▁फ": 1678,
      "](https://en.wikipedia.org/wiki/P": 1679,
      "ారి": 1680,
      "▁मेला": 1681,
      "hel": 1682,
      "మూస": 1683,
      "\"](https://web.archive.org/web/201": 1684,
      "पट": 1685,
      "ari": 1686,
      "▁(PDF": 1687,
      "िक्ष": 1688,
      "80": 1689,
      "fe": 1690,
      "iki": 1691,
      "वार": 1692,
      "सद": 1693,
      "▁[G": 1694,
      "▁[इ": 1695,
      "ern": 1696,
      "ublic": 1697,
      "ati": 1698,
      "वरी": 1699,
      "▁it": 1700,
      "sion": 1701,
      "▁199": 1702,
      "వు": 1703,
      "▁7": 1704,
      "▁\"భారతీయ": 1705,
      "esh": 1706,
      "▁हु": 1707,
      "स्व": 1708,
      "_में": 1709,
      "43": 1710,
      "DP": 1711,
      "ec": 1712,
      "▁कि": 1713,
      "ture": 1714,
      "978-0-19": 1715,
      "](http://www.": 1716,
      "वर्ग": 1717,
      "गुजरा": 1718,
      ".nic": 1719,
      "census": 1720,
      "oc": 1721,
      "लि": 1722,
      "▁\"ज": 1723,
      "ard": 1724,
      "▁गण": 1725,
      "1998": 1726,
      "AAQBAJ": 1727,
      "ंग्रेज़ी": 1728,
      "लेखित": 1729,
      "-p": 1730,
      "ult": 1731,
      "_सूची": 1732,
      "▁संस्क": 1733,
      "▁[भारतीय": 1734,
      "7)": 1735,
      "9.": 1736,
      "व्य": 1737,
      "జన": 1738,
      "టు": 1739,
      "టె": 1740,
      "▁\"N": 1741,
      "\")*": 1742,
      "ange": 1743,
      "196": 1744,
      "िया\")": 1745,
      "▁చె": 1746,
      "నాయ": 1747,
      "–సా.శ.పూ.": 1748,
      "ृत्य": 1749,
      "▁ఆర్": 1750,
      "పాలిత": 1751,
      "స్త్రం:": 1752,
      "▁ప్రాంత": 1753,
      "250px-": 1754,
      "ేంద్రపాలిత": 1755,
      "](https://te.wikipedia.org/wiki/దస్త్రం:": 1756,
      "5)": 1757,
      "aki": 1758,
      "ef": 1759,
      "ers": 1760,
      "\\_S": 1761,
      "▁whi": 1762,
      "PP": 1763,
      "ove": 1764,
      "धर्म": 1765,
      "\")**": 1766,
      "indi": 1767,
      "nolog": 1768,
      "ेट": 1769,
      "ine": 1770,
      "als": 1771,
      "2010": 1772,
      "sian": 1773,
      "▁भारतात": 1774,
      "_सं": 1775,
      "▁इस": 1776,
      "▁यु": 1777,
      "ंदिर": 1778,
      "ण्ड": 1779,
      "_ప": 1780,
      "rou": 1781,
      "ఖ్య": 1782,
      "గో": 1783,
      "తో": 1784,
      "బి": 1785,
      "హి": 1786,
      "eng": 1787,
      "▁सम": 1788,
      "ach": 1789,
      "▁अधिक": 1790,
      "साँ": 1791,
      "▁ex": 1792,
      "चा:": 1793,
      "▁साम्राज्य": 1794,
      "ford": 1795,
      "▁प्रदेश\")": 1796,
      "MetcalfMetcalf": 1797,
      "template": 1798,
      "స్కృ": 1799,
      "ire": 1800,
      "port": 1801,
      "▁[N": 1802,
      "ess": 1803,
      "ational_": 1804,
      "ंग्": 1805,
      "▁भी": 1806,
      "श्मी": 1807,
      "_अ": 1808,
      "gen": 1809,
      "man": 1810,
      "uni": 1811,
      "ties": 1812,
      "](https://hi.wikipedia.org/wiki/भारत_में": 1813,
      "वर्ग:": 1814,
      "33": 1815,
      "RI": 1816,
      "ven": 1817,
      "ोन": 1818,
      "\\_errors": 1819,
      "help": 1820,
      "12": 1821,
      "ral": 1822,
      "xford": 1823,
      "दे": 1824,
      "पश्चि": 1825,
      "भू": 1826,
      "హా": 1827,
      "ి.\n": 1828,
      "▁ను": 1829,
      "▁జాతీయ": 1830,
      "aint:": 1831,
      "్యవస్థ": 1832,
      "..": 1833,
      "bot": 1834,
      "एस": 1835,
      "तु": 1836,
      "uc": 1837,
      "दि": 1838,
      "▁at": 1839,
      "▁[ज": 1840,
      "ric": 1841,
      "्यात": 1842,
      "युक्त": 1843,
      "times": 1844,
      ".sv": 1845,
      "डी": 1846,
      "ौद्ध": 1847,
      "▁4": 1848,
      "▁r": 1849,
      "▁[सं": 1850,
      "res": 1851,
      "onstitution": 1852,
      "empl": 1853,
      "ob": 1854,
      "००": 1855,
      "డా": 1856,
      "దా": 1857,
      "బడ": 1858,
      "మే": 1859,
      "రణ": 1860,
      "▁లో": 1861,
      "▁[E": 1862,
      "arch": 1863,
      "ase": 1864,
      "न्द्र": 1865,
      "▁కూ": 1866,
      "▁[↑](https://mr.wikipedia.org/wiki/भारत#cite_ref-": 1867,
      "विधान": 1868,
      "▁రాష్ట్ర": 1869,
      "%20%20": 1870,
      "_and_": 1871,
      "కిస్తాన్": 1872,
      "ंतर": 1873,
      "▁చరిత్ర\")": 1874,
      "albot": 1875,
      "▁./श्रेणी:": 1876,
      "vis": 1877,
      "ूच": 1878,
      "](https://en.wikipedia.org/wiki/D": 1879,
      "riti": 1880,
      "ों_की": 1881,
      "▁शास": 1882,
      "_and_S": 1883,
      "59": 1884,
      "दिल्ली": 1885,
      "पाल": 1886,
      "ळे": 1887,
      "ding": 1888,
      "▁सि": 1889,
      "](https://mr.wikipedia.org/wiki/क": 1890,
      "तील": 1891,
      "languages": 1892,
      "978-0-5": 1893,
      ".jpg/250px-": 1894,
      "conomy": 1895,
      "ansk": 1896,
      "▁आहेत.": 1897,
      "▁पूर्व": 1898,
      "6)": 1899,
      "Asher": 1900,
      "▁ఈ": 1901,
      "▁భారత": 1902,
      "hist": 1903,
      "](https://hi.wikipedia.org/wiki/स": 1904,
      "ack": 1905,
      "](https://hi.wikipedia.org/wiki/भारतीय_": 1906,
      "▁तक": 1907,
      "త్రి": 1908,
      "ాలు](https://te.wikipedia.org/wiki/": 1909,
      "ंडिया": 1910,
      "▁वर्ष": 1911,
      "/c": 1912,
      "ath": 1913,
      "ीत": 1914,
      "▁errors": 1915,
      "ord": 1916,
      "\\_and": 1917,
      "▁विश": 1918,
      "▁([help": 1919,
      "cont": 1920,
      "lopment": 1921,
      "anskrit": 1922,
      "▁errors\"))\n": 1923,
      "ंप": 1924,
      "गो": 1925,
      "▁8": 1926,
      "](https://hi.wikipedia.org/wiki/ब": 1927,
      "नाड": 1928,
      "rap": 1929,
      "▁भू": 1930,
      "india.gov.in/": 1931,
      ".nic.in/": 1932,
      ",_": 1933,
      "ex": 1934,
      "to": 1935,
      "बंध": 1936,
      "▁te": 1937,
      "▁we": 1938,
      "▁[आ": 1939,
      "inist": 1940,
      "ark": 1941,
      "ाले": 1942,
      "▁दि": 1943,
      "▁दे": 1944,
      "▁दक्षिण": 1945,
      "10.": 1946,
      "▁[Archived": 1947,
      "AAQBAJ&pg=PA": 1948,
      "▁which": 1949,
      "-m": 1950,
      "IN": 1951,
      "tle": 1952,
      "म\")": 1953,
      "తు": 1954,
      "పతి": 1955,
      "▁ని": 1956,
      "▁राष्ट्र": 1957,
      "▁స్థ": 1958,
      "▁[అ": 1959,
      "▁[ప": 1960,
      "▁[the": 1961,
      "▁\"R": 1962,
      "▁\"భారతదేశం": 1963,
      "్రి": 1964,
      "ర్వ": 1965,
      "న్ని": 1966,
      "age/": 1967,
      "मुख": 1968,
      "మిళ": 1969,
      "వంశ": 1970,
      "ज्ञान": 1971,
      "57": 1972,
      "Singh": 1973,
      "_templ": 1974,
      "hy": 1975,
      "n_": 1976,
      "मध्ये": 1977,
      "▁error": 1978,
      "▁template": 1979,
      "pend": 1980,
      "▁[न": 1981,
      "](https://en.wikipedia.org/wiki/E": 1982,
      "](https://mr.wikipedia.org/wiki/स": 1983,
      "no-t": 1984,
      "act": 1985,
      "\\_no-t": 1986,
      "▁Sfn": 1987,
      "▁target": 1988,
      "ांची": 1989,
      "territ": 1990,
      "fn_templ": 1991,
      "fn\\_no-t": 1992,
      "arget\\_errors": 1993,
      "ate_errors": 1994,
      "\\_Sfn\\_no-t": 1995,
      "_and_Sfn_templ": 1996,
      "\\_and\\_Sfn\\_no-t": 1997,
      "▁error:": 1998,
      "▁target:": 1999,
      "arget\\_errors\n": 2000,
      "_and_Sfn_template_errors": 2001,
      "\\_and\\_Sfn\\_no-target\\_errors\n": 2002,
      "-b": 2003,
      "ओं": 2004,
      "ागर": 2005,
      "▁5": 2006,
      "ten": 2007,
      "्रम": 2008,
      "ridge": 2009,
      "▁South": 2010,
      "▁18": 2011,
      "United": 2012,
      "]](https://hi.wikipedia.org/wiki/भारत#cite_note-FOOTNOTE": 2013,
      "edi": 2014,
      "▁li": 2015,
      "](https://en.wikipedia.org/wiki/T": 2016,
      "र्भ": 2017,
      "ome": 2018,
      "ril": 2019,
      "▁CITEREF": 2020,
      "क्षेत्र": 2021,
      "elhi": 2022,
      "8)": 2023,
      "_మ": 2024,
      "_देश": 2025,
      "_భాష": 2026,
      "ha": 2027,
      "sland": 2028,
      "ug": 2029,
      "टक": 2030,
      "ఫ్": 2031,
      "▁U": 2032,
      "▁స్": 2033,
      "▁26": 2034,
      "▁[బ": 2035,
      "▁[స": 2036,
      "▁\"అ": 2037,
      "ree": 2038,
      "▁किया": 2039,
      "▁आधार": 2040,
      "న్నాయ": 2041,
      "▁pro": 2042,
      "▁కాల": 2043,
      "ాలు\")": 2044,
      "हिन्द": 2045,
      "ులు](https://te.wikipedia.org/wiki/": 2046,
      "▁ये": 2047,
      "तेल": 2048,
      "▁has": 2049,
      "▁రై": 2050,
      "_के_राज्य": 2051,
      ".jpg)](https://te.wikipedia.org/wiki/దస్త్రం:": 2052,
      "Stein1998": 2053,
      "హిందూ": 2054,
      "RICS": 2055,
      "Singh2009": 2056,
      "74": 2057,
      "mb": 2058,
      "world": 2059,
      "रो": 2060,
      "▁[R": 2061,
      "end": 2062,
      "ant": 2063,
      "air": 2064,
      "▁Re": 2065,
      "पुरा": 2066,
      "](https://web.archive.org/web/20": 2067,
      "_by": 2068,
      "Edit": 2069,
      "Page/": 2070,
      "_F": 2071,
      "लय": 2072,
      "dition": 2073,
      "▁[T": 2074,
      "▁count": 2075,
      "ांत": 2076,
      "▁History": 2077,
      "EditPage/": 2078,
      "0.": 2079,
      "ms": 2080,
      "mund": 2081,
      "जात": 2082,
      "णे": 2083,
      "▁राष्ट्रीय": 2084,
      "ass": 2085,
      "▁विक": 2086,
      "2003": 2087,
      "2005": 2088,
      "ligion": 2089,
      "▁बहु": 2090,
      "स्कृत": 2091,
      "matics": 2092,
      "▁that": 2093,
      "othermund": 2094,
      "▁सूची\")": 2095,
      "▁संस्कृ": 2096,
      "ritish": 2097,
      "Wiki": 2098,
      "_d": 2099,
      "co": 2100,
      "ost": 2101,
      "ఆసియా": 2102,
      "ద్ర": 2103,
      "భూ": 2104,
      "మె": 2105,
      "య్య": 2106,
      "ర్య": 2107,
      "▁ల": 2108,
      "▁\"ప": 2109,
      "▁\"బ": 2110,
      "▁\"స": 2111,
      "ind": 2112,
      "▁India's": 2113,
      "sic": 2114,
      "▁[↑](https://te.wikipedia.org/wiki/భారతదేశం#cite_ref-": 2115,
      "ulke": 2116,
      "ulture": 2117,
      "త్త": 2118,
      "▁అధిక": 2119,
      "▁ప్రదేశ్": 2120,
      "ప్రదేశ్": 2121,
      "▁खाना": 2122,
      "articles": 2123,
      "ile:": 2124,
      "▁నుండి": 2125,
      "ों_की_सूची": 2126,
      "/p": 2127,
      "तंत्र": 2128,
      "वस्था": 2129,
      "ूप": 2130,
      "▁[K": 2131,
      "▁सब": 2132,
      "▁sfn": 2133,
      "ury": 2134,
      "विध": 2135,
      "mpire": 2136,
      "▁[मूल": 2137,
      "-g": 2138,
      "ght": 2139,
      "par": 2140,
      "गातील": 2141,
      "्ह": 2142,
      "ारा": 2143,
      "hit": 2144,
      "ous": 2145,
      "▁गया": 2146,
      "▁राज्यों": 2147,
      "चित्रपट": 2148,
      "ambridge": 2149,
      "\"\n": 2150,
      "kh": 2151,
      "mer": 2152,
      "national": 2153,
      "qu": 2154,
      "wn": 2155,
      "खंड": 2156,
      "▁2": 2157,
      "▁\"The": 2158,
      "ारी": 2159,
      "▁सर्व": 2160,
      "▁हा": 2161,
      "▁ही": 2162,
      "▁अने": 2163,
      "ames": 2164,
      "▁उत्": 2165,
      "▁इतिहास": 2166,
      "हाय": 2167,
      "/http://www.": 2168,
      "akistan": 2169,
      "MetcalfMetcalf2006": 2170,
      "▁अनेक": 2171,
      "1,": 2172,
      "75": 2173,
      "_language": 2174,
      "kno": 2175,
      "ణి": 2176,
      "తమిళ": 2177,
      "మైన": 2178,
      "హార": 2179,
      "ోర్": 2180,
      "▁fi": 2181,
      "orth": 2182,
      "▁\"ఇ": 2183,
      "▁\"భారత": 2184,
      "](https://te.wikipedia.org/wiki/బ": 2185,
      "्याया": 2186,
      "entre": 2187,
      "▁మొ": 2188,
      "▁शिक्ष": 2189,
      "నాగ": 2190,
      "త్తర": 2191,
      "ులు\")": 2192,
      "ियों": 2193,
      "శ్మీ": 2194,
      "మూస:": 2195,
      "श्मीर": 2196,
      "visi": 2197,
      "डा": 2198,
      "्यान": 2199,
      "aste": 2200,
      "\\_with": 2201,
      "2007": 2202,
      "राजस्थान": 2203,
      "illi": 2204,
      "kshit": 2205,
      "-s": 2206,
      "330": 2207,
      "World": 2208,
      "oh": 2209,
      "rary": 2210,
      "गा": 2211,
      "▁ऑ": 2212,
      "▁थ": 2213,
      "▁25": 2214,
      "▁\"In": 2215,
      "▁केंद्र": 2216,
      "](https://hi.wikipedia.org/wiki/चित्र:": 2217,
      "](https://en.wikipedia.org/wiki/A": 2218,
      "▁मे": 2219,
      "क्षा": 2220,
      "▁लि": 2221,
      "ंबई": 2222,
      "▁पुरालेखित": 2223,
      "▁सबसे": 2224,
      "▁पुरालेखित।": 2225,
      "34": 2226,
      "87": 2227,
      "▁ड": 2228,
      "▁\"H": 2229,
      "▁\"न": 2230,
      "▁\"सं": 2231,
      "](https://en.wikipedia.org/wiki/N": 2232,
      "1947": 2233,
      "ood": 2234,
      "▁रो": 2235,
      "▁2019": 2236,
      "120px-": 2237,
      "File:": 2238,
      "IA": 2239,
      "जय": 2240,
      "१९": 2241,
      "శా": 2242,
      "ైనా": 2243,
      "▁[ఇ": 2244,
      "▁[978-1": 2245,
      "▁\"జ": 2246,
      "](https://te.wikipedia.org/wiki/ఇ": 2247,
      "](https://te.wikipedia.org/wiki/స": 2248,
      "ission": 2249,
      "భారత_": 2250,
      "िक्": 2251,
      "amil": 2252,
      "▁Comm": 2253,
      "రాజ": 2254,
      "లో](https://te.wikipedia.org/wiki/": 2255,
      "▁नदी": 2256,
      "రిజ": 2257,
      "క్కు": 2258,
      "ండ్": 2259,
      "क्ति": 2260,
      "ograp": 2261,
      "तात.": 2262,
      "ृष्ठ": 2263,
      "roup": 2264,
      "స్కృతి": 2265,
      "978-0-521": 2266,
      "1/": 2267,
      "hp": 2268,
      "na": 2269,
      "▁pe": 2270,
      "▁le": 2271,
      "▁संग": 2272,
      "पुरी": 2273,
      "▁2021": 2274,
      "▁लोक": 2275,
      "outh_A": 2276,
      "▁स्था": 2277,
      "yson": 2278,
      "तमिल": 2279,
      "▁its": 2280,
      "\\_with\\_": 2281,
      "05": 2282,
      "data": 2283,
      "ङ्": 2284,
      "।[[": 2285,
      "▁ओ": 2286,
      "▁कार": 2287,
      "भारतीय": 2288,
      "ियाँ": 2289,
      "evelopment": 2290,
      "▁नाम": 2291,
      "/https://www.": 2292,
      "▁विश्व": 2293,
      "RC": 2294,
      "_पर": 2295,
      "aw": 2296,
      "oi": 2297,
      "ope": 2298,
      "pril": 2299,
      "ram": 2300,
      "न्य": 2301,
      "रत": 2302,
      "ini": 2303,
      "](https://mr.wikipedia.org/wiki/अ": 2304,
      "](https://mr.wikipedia.org/wiki/आ": 2305,
      "िकी": 2306,
      "▁St": 2307,
      "▁काळ": 2308,
      "▁संघ": 2309,
      "ते.": 2310,
      "तमिळ": 2311,
      "▁बाद": 2312,
      "च्च": 2313,
      "emplate": 2314,
      "Dw": 2315,
      "_ब": 2316,
      "ोब": 2317,
      "ం?action=edit&redlink=1": 2318,
      "చే": 2319,
      "బా": 2320,
      "](File:": 2321,
      "▁[H": 2322,
      "▁[జ": 2323,
      "inent": 2324,
      "arg": 2325,
      "▁मंदिर": 2326,
      "▁పా": 2327,
      "ाता": 2328,
      "](https://hi.wikipedia.org/wiki/भारत#CITEREF": 2329,
      "लादेश": 2330,
      "▁వా": 2331,
      "ండు": 2332,
      "▁చూ": 2333,
      "త్వ": 2334,
      "▁साथ": 2335,
      "▁Hindu": 2336,
      "ప్రధాన": 2337,
      "▁है।\n": 2338,
      "▁తే": 2339,
      "पे": 2340,
      "श्र": 2341,
      "ority": 2342,
      "▁[![](https://upload.wikimedia.org/wikipedia/commons/thumb/": 2343,
      "▁\"K": 2344,
      "](https://en.wikipedia.org/wiki/G": 2345,
      "2014": 2346,
      "_सा": 2347,
      "india/": 2348,
      "▁भाग": 2349,
      ".svg": 2350,
      "▁स्थाप": 2351,
      "8/": 2352,
      "rof": 2353,
      "val": 2354,
      "ळी": 2355,
      "सम": 2356,
      "स\")": 2357,
      "▁था": 2358,
      "▁\"श्रेणी:Harv": 2359,
      "](https://hi.wikipedia.org/wiki/श्रेणी:Harv": 2360,
      "](https://en.wikipedia.org/wiki/R": 2361,
      "▁आशिया": 2362,
      "#cite_ref-1": 2363,
      "#cite_note-1": 2364,
      "▁जिस": 2365,
      "▁15": 2366,
      "](https://en.wikipedia.org/wiki/India#cite_ref-FOOTNOTE": 2367,
      "म्मू": 2368,
      "▁./श्रेणी:Harv": 2369,
      "odern": 2370,
      "पूर्वी": 2371,
      "पश्चिम": 2372,
      "▁([help](https://hi.wikipedia.org/wiki/श्रेणी:Harv": 2373,
      "_and_Sfn_template_errors?action=edit&redlink=1": 2374,
      "▁./श्रेणी:Harv\\_and\\_Sfn\\_no-target\\_errors\n": 2375,
      "▁([help](https://hi.wikipedia.org/wiki/श्रेणी:Harv_and_Sfn_template_errors?action=edit&redlink=1": 2376,
      "9)": 2377,
      "cre": 2378,
      "s\")": 2379,
      "गोल": 2380,
      "▁languages": 2381,
      "▁[L": 2382,
      "▁[![": 2383,
      "▁\"Indian": 2384,
      "tive": 2385,
      "alay": 2386,
      "cies": 2387,
      "▁par": 2388,
      "▁ते": 2389,
      "▁17": 2390,
      "une": 2391,
      "संख्या": 2392,
      "do-": 2393,
      "ashm": 2394,
      "मालय": 2395,
      "_సా": 2396,
      "ave": 2397,
      "ece": 2398,
      "sp": 2399,
      "usic": 2400,
      "तर": 2401,
      "िन": 2402,
      "ంప": 2403,
      "కో": 2404,
      "గణ": 2405,
      "దిన": 2406,
      "నై": 2407,
      "రీ": 2408,
      "▁\"చ": 2409,
      "in-": 2410,
      "any": 2411,
      "](https://hi.wikipedia.org/wiki/उ": 2412,
      "](https://te.wikipedia.org/wiki/జ": 2413,
      "ారం": 2414,
      "नाथ": 2415,
      "त्रि": 2416,
      "▁క్రీ": 2417,
      "▁cont": 2418,
      "క్‌": 2419,
      "నికి": 2420,
      "ల్ల": 2421,
      "ంగీ": 2422,
      "▁సి": 2423,
      "నాభా": 2424,
      "▁विविध": 2425,
      "జాబి": 2426,
      "▁स्थान": 2427,
      "द्योग": 2428,
      "▁శా": 2429,
      "▁భాష\")": 2430,
      "బెంగ": 2431,
      "జాబితా": 2432,
      "\"](https://www.": 2433,
      "65": 2434,
      "_the": 2435,
      "ीस": 2436,
      "▁चित्रपट": 2437,
      "ined": 2438,
      "](https://mr.wikipedia.org/wiki/इ": 2439,
      "](https://mr.wikipedia.org/wiki/ब": 2440,
      "lection": 2441,
      "ater": 2442,
      "ेश्व": 2443,
      "▁जु": 2444,
      "▁भारताच्या": 2445,
      "uring": 2446,
      "▁रूप": 2447,
      "ign": 2448,
      "▁होता": 2449,
      "article": 2450,
      "ेश्वर": 2451,
      ".;": 2452,
      "2-": 2453,
      "Oxford": 2454,
      "गढ़": 2455,
      "फ़": 2456,
      "thnolog": 2457,
      "ान\")": 2458,
      "omb": 2459,
      "isation": 2460,
      "2008": 2461,
      "▁sub": 2462,
      "मुद्र": 2463,
      "▁यह": 2464,
      "बाद": 2465,
      ".php": 2466,
      "countries": 2467,
      "inistry": 2468,
      "thnologue": 2469,
      ".html": 2470,
      "2_": 2471,
      "51": 2472,
      "a,": 2473,
      "a/": 2474,
      "कल": 2475,
      "ृष्ट": 2476,
      "▁ad": 2477,
      "▁[ग": 2478,
      "▁\"ग": 2479,
      "on-": 2480,
      "्यट": 2481,
      "र्ना": 2482,
      "urope": 2483,
      "usin": 2484,
      ".jpg/120px-": 2485,
      "doi": 2486,
      "▁मुख्य": 2487,
      "auth": 2488,
      "country": 2489,
      "र्नाटक": 2490,
      "Rothermund": 2491,
      "_और": 2492,
      "les/": 2493,
      "ves": 2494,
      "खा": 2495,
      "में": 2496,
      "सभा": 2497,
      "ाक": 2498,
      "చల్": 2499,
      "యన్": 2500,
      "షు": 2501,
      "ూర్": 2502,
      "▁[చ": 2503,
      "▁[భారత": 2504,
      "▁[భారతీయ": 2505,
      "alth": 2506,
      "](https://te.wikipedia.org/wiki/ప": 2507,
      "](https://te.wikipedia.org/wiki/భారతీయ": 2508,
      "ార్ట": 2509,
      "](https://mr.wikipedia.org/wiki/ज": 2510,
      "](https://mr.wikipedia.org/wiki/चित्र:": 2511,
      "ాలయ": 2512,
      "line": 2513,
      "](https://hi.wikipedia.org/wiki/भारत_के_": 2514,
      "नाग": 2515,
      "▁Ch": 2516,
      "క్క": 2517,
      "▁వ్యవస్థ": 2518,
      "▁ము": 2519,
      "ండో": 2520,
      "ourt": 2521,
      "ముంబ": 2522,
      "▁उत्तर": 2523,
      "dex": 2524,
      "సిన": 2525,
      "त्तरा": 2526,
      "ినల్": 2527,
      "ద్ద": 2528,
      "▁ఉన్న": 2529,
      "▁ఉన్నాయ": 2530,
      "పాకిస్తాన్": 2531,
      "ంధీ": 2532,
      "▁ఒక": 2533,
      "▁ఒరిజ": 2534,
      "गुजरात": 2535,
      "continent": 2536,
      "వంశం": 2537,
      "▁countries": 2538,
      "▁తేదీ": 2539,
      "ార్టీ": 2540,
      "▁ఒరిజినల్": 2541,
      "-language": 2542,
      "71": 2543,
      "C&pg=PA": 2544,
      "Kulke": 2545,
      "_प": 2546,
      "fficial": 2547,
      "mar": 2548,
      "पति": 2549,
      "ेक": 2550,
      "▁6": 2551,
      "\"):": 2552,
      "्त्र": 2553,
      "ace": 2554,
      "▁April": 2555,
      "mple": 2556,
      "हासागर": 2557,
      "▁प्राचीन": 2558,
      "ower": 2559,
      "india.gov.in": 2560,
      "हित्य": 2561,
      "radesh": 2562,
      "330px-": 2563,
      "121": 2564,
      "NG": 2565,
      "_L": 2566,
      "_at": 2567,
      "sc": 2568,
      "एं": 2569,
      "दू": 2570,
      "बर": 2571,
      "ोर्": 2572,
      "](https://en.wikipedia.org/wiki/List_of_": 2573,
      "▁वे": 2574,
      "▁अर्थ": 2575,
      "ling": 2576,
      "uman": 2577,
      "nglish": 2578,
      "AARC": 2579,
      "▁were": 2580,
      ",000": 2581,
      "-20": 2582,
      "Talbot": 2583,
      "_H": 2584,
      "odi": 2585,
      "ran": 2586,
      "ंदी": 2587,
      "भी": 2588,
      "▁24": 2589,
      "▁कु": 2590,
      "ament": 2591,
      "▁cent": 2592,
      "▁Pro": 2593,
      "मुळे": 2594,
      "पूर": 2595,
      "ंत्री": 2596,
      "वर्ग:CS1": 2597,
      "AsherTalbot": 2598,
      "▁रोजी": 2599,
      "KulkeRothermund": 2600,
      "73": 2601,
      "ces": 2602,
      "eb": 2603,
      "टे": 2604,
      "त्या": 2605,
      "द्या": 2606,
      "शि": 2607,
      "జ్": 2608,
      "వరి": 2609,
      "శ్చ": 2610,
      "ిన్న": 2611,
      "ెల": 2612,
      "▁[In": 2613,
      "▁\"L": 2614,
      "▁\"భారతదేశ": 2615,
      "▁\"विशेष:पुस्तक": 2616,
      "hic": 2617,
      "▁स्रोत/": 2618,
      "](https://hi.wikipedia.org/wiki/ISBN_(identifier)": 2619,
      "](https://hi.wikipedia.org/wiki/विशेष:पुस्तक": 2620,
      "్రె": 2621,
      "-11": 2622,
      "लाई": 2623,
      "स्ला": 2624,
      "▁se": 2625,
      "▁बन": 2626,
      "▁10": 2627,
      "ాలు\n": 2628,
      "నిస్తాన్": 2629,
      "▁మధ్య": 2630,
      "_स्रोत/": 2631,
      "anguage": 2632,
      "](https://te.wikipedia.org/wiki/భారతదేశంలో": 2633,
      "స్థాన్": 2634,
      "_के_आ": 2635,
      "imes": 2636,
      "▁[ISBN](https://hi.wikipedia.org/wiki/ISBN_(identifier)": 2637,
      "▁పేజీ": 2638,
      "మ్మూ": 2639,
      "व्यवस्था": 2640,
      "साँचा:": 2641,
      "▁\"భారతదేశంలో": 2642,
      "▁చూసిన": 2643,
      "▁తేదీ:": 2644,
      "శ్చి": 2645,
      "](https://hi.wikipedia.org/wiki/विशेष:पुस्तक_स्रोत/": 2646,
      "▁పేజీని": 2647,
      "_3": 2648,
      "_4": 2649,
      "_ए": 2650,
      "rg": 2651,
      "आई": 2652,
      "धु": 2653,
      "▁v": 2654,
      "▁ई": 2655,
      "▁[t": 2656,
      "्यता": 2657,
      "▁व्य": 2658,
      "भाग": 2659,
      "▁2016": 2660,
      "tical": 2661,
      "माज": 2662,
      "▁संविधान": 2663,
      "hat": 2664,
      "धील": 2665,
      "वस": 2666,
      "वै": 2667,
      "विक": 2668,
      "ाची": 2669,
      "ोड़": 2670,
      "rib": 2671,
      "▁अप": 2672,
      "▁दिल्ली": 2673,
      "ail": 2674,
      "▁[↑](https://hi.wikipedia.org/wiki/भारत": 2675,
      "uly": 2676,
      "▁है,": 2677,
      "ters": 2678,
      "ical": 2679,
      "मुख्य": 2680,
      "▁स्थ": 2681,
      "yste": 2682,
      "र्थिक": 2683,
      "क्स": 2684,
      "Stein2010": 2685,
      "news/": 2686,
      "▁(PDF)": 2687,
      "▁युद्ध": 2688,
      "ूचना": 2689,
      "नाडू": 2690,
      "श्रील": 2691,
      "Ar": 2692,
      "ris": 2693,
      "दार": 2694,
      "ल\")": 2695,
      "ौर": 2696,
      "–1": 2697,
      "▁ri": 2698,
      "▁ला": 2699,
      "▁लेख": 2700,
      "▁[[": 2701,
      "▁[प": 2702,
      "on_": 2703,
      "](https://en.wikipedia.org/wiki/H": 2704,
      "▁अनुसार": 2705,
      "▁त्या": 2706,
      "formatics": 2707,
      "udd": 2708,
      "▁2014.\n": 2709,
      "▁गणराज्य": 2710,
      "history": 2711,
      "▁Commission": 2712,
      "/A": 2713,
      "5%": 2714,
      "जि": 2715,
      "न](https://hi.wikipedia.org/wiki/": 2716,
      "షన్": 2717,
      "హ్": 2718,
      "ెలు": 2719,
      "▁9": 2720,
      "▁si": 2721,
      "](https://te.wikipedia.org/wiki/అ": 2722,
      "▁प्रकार": 2723,
      "▁An": 2724,
      "▁नृत्य": 2725,
      "▁न्याया": 2726,
      "రియా": 2727,
      "▁మార్": 2728,
      "ताज": 2729,
      "नेमा": 2730,
      "ప్రపంచ": 2731,
      "_मेला": 2732,
      "berg": 2733,
      "▁\"सि": 2734,
      "▁[सि": 2735,
      ".jpg)](File:": 2736,
      "मेर": 2737,
      "ongress": 2738,
      "धार_पर": 2739,
      "ibrary": 2740,
      "▁సంస్కృతి": 2741,
      "దీవ": 2742,
      "ories": 2743,
      "ffair": 2744,
      "_के_आधार_पर": 2745,
      "_के_आधार_पर_भारत": 2746,
      "National_": 2747,
      "hen": 2748,
      "ili": 2749,
      "pur": 2750,
      "मि": 2751,
      "ेर": 2752,
      "▁[W": 2753,
      "▁\"F": 2754,
      "er,": 2755,
      "ese": 2756,
      "omp": 2757,
      "▁जो": 2758,
      "▁con": 2759,
      "dust": 2760,
      "ड़ी": 2761,
      ".jpg/330px-": 2762,
      "विश्व": 2763,
      "च्छ": 2764,
      "▁समय": 2765,
      "तमिळनाडू": 2766,
      "%28": 2767,
      "/0": 2768,
      "Vi": 2769,
      "_धर्म": 2770,
      "a.gov": 2771,
      "pib": 2772,
      "wart": 2773,
      "yn": 2774,
      "zberg": 2775,
      "दल": 2776,
      "।\n": 2777,
      "▁territ": 2778,
      "rec": 2779,
      "▁मा": 2780,
      "▁मार्": 2781,
      "▁अग": 2782,
      "▁pl": 2783,
      "स्थ": 2784,
      "ing\\_": 2785,
      "दीव": 2786,
      "chwart": 2787,
      "▁2010": 2788,
      "▁गे": 2789,
      "▁World": 2790,
      "▁पुरालेखित।.": 2791,
      "DwAAQBAJ&pg=PA": 2792,
      "▁जुलाई": 2793,
      "_के_आधार_पर_भारत_के_राज्य": 2794,
      "chwartzberg": 2795,
      ".\"\n": 2796,
      "las": 2797,
      "ंका": 2798,
      "ओड": 2799,
      "दु": 2800,
      "नगर": 2801,
      "▁ले": 2802,
      "▁\"प": 2803,
      "eneral": 2804,
      "](https://en.wikipedia.org/wiki/In": 2805,
      "cient": 2806,
      "र्ण": 2807,
      "-17": 2808,
      "aman": 2809,
      "▁Asian": 2810,
      "▁16": 2811,
      "00)": 2812,
      "_क्षेत्र": 2813,
      "ांक": 2814,
      "▁Population": 2815,
      "▁एशिया": 2816,
      "%E0%A4%A": 2817,
      "ashmir": 2818,
      "-d": 2819,
      "_వ": 2820,
      "_Uni": 2821,
      "ho": 2822,
      "ikshit": 2823,
      "डो": 2824,
      "ेत": 2825,
      "ం\"),": 2826,
      "ంత్రి": 2827,
      "ఆఫ్": 2828,
      "కత": 2829,
      "కై": 2830,
      "క్య": 2831,
      "దాయ": 2832,
      "రే": 2833,
      "లంక": 2834,
      "వీ": 2835,
      "శ్రీ": 2836,
      "షి": 2837,
      "సు": 2838,
      "▁ఏ": 2839,
      "▁22": 2840,
      "ork": 2841,
      "▁[సి": 2842,
      "](https://te.wikipedia.org/wiki/చ": 2843,
      "राठी": 2844,
      "▁हवा": 2845,
      "▁असे": 2846,
      "స్సా": 2847,
      "▁పరి": 2848,
      "▁పార్టీ": 2849,
      "న్‌": 2850,
      "न्स": 2851,
      "ासून": 2852,
      "▁కు": 2853,
      "▁this": 2854,
      "▁వచ్చ": 2855,
      "▁काही": 2856,
      "वाद": 2857,
      "ముద్ర": 2858,
      "230": 2859,
      "ctor": 2860,
      "▁En": 2861,
      "ople": 2862,
      "बांग्": 2863,
      "గాంధీ": 2864,
      "▁देशों": 2865,
      "िशा": 2866,
      "-2)": 2867,
      "నేపాల": 2868,
      "▁[↑](https://hi.wikipedia.org/wiki/भारत#cite_ref-FOOTNOTE": 2869,
      "▁not": 2870,
      "▁పేరు": 2871,
      "హిందీ": 2872,
      "▁చెయ్య": 2873,
      "ोनेश": 2874,
      "▁కూడా": 2875,
      "▁संस्कृती": 2876,
      "ంగీతం": 2877,
      "ముంబై": 2878,
      "శ్చిమ": 2879,
      "▁మార్గ": 2880,
      "▁చెయ్యబడ": 2881,
      "\"](https://": 2882,
      "2-0)": 2883,
      "7/": 2884,
      "_%28": 2885,
      "pt": 2886,
      "uis": 2887,
      "टा": 2888,
      "िहार": 2889,
      "▁\"ह": 2890,
      "off": 2891,
      "190": 2892,
      "▁अरब": 2893,
      "lear": 2894,
      "lim": 2895,
      "ats": 2896,
      "ature": 2897,
      "▁संसद": 2898,
      "पाद": 2899,
      "वेब": 2900,
      "ंग्रेजी": 2901,
      "ैदिक": 2902,
      "uclear": 2903,
      "▁[Archived](https://web.archive.org/web/20": 2904,
      "Comb": 2905,
      "_इ": 2906,
      "_उ": 2907,
      "pa": 2908,
      "ta": 2909,
      "uj": 2910,
      "टि": 2911,
      "ोह": 2912,
      "▁21": 2913,
      "▁[F": 2914,
      "▁\"ल": 2915,
      "inis": 2916,
      "time": 2917,
      "▁India,": 2918,
      "ligi": 2919,
      "▁द्वीप": 2920,
      "ंग्र": 2921,
      "▁तट": 2922,
      "loc": 2923,
      "हिमा": 2924,
      "▁एवं": 2925,
      "-107": 2926,
      "Combined": 2927,
      "-india": 2928,
      "-in-": 2929,
      "100": 2930,
      "58": 2931,
      "athe": 2932,
      "cat": 2933,
      "oci": 2934,
      "olog": 2935,
      "पात": 2936,
      "मधील": 2937,
      "ाचे": 2938,
      "०१": 2939,
      "▁com": 2940,
      "▁पद": 2941,
      "▁मूल": 2942,
      "ley": 2943,
      "ved": 2944,
      "▁जा": 2945,
      "](https://mai.wikipedia.org/wiki/भारत": 2946,
      "हाद्वीप": 2947,
      "▁(PDF).": 2948,
      "्यानमार": 2949,
      "ystem": 2950,
      "श्रीलंका": 2951,
      "Template": 2952,
      "_W": 2953,
      "fter": 2954,
      "iv": 2955,
      "lang": 2956,
      "lag": 2957,
      "ne": 2958,
      "ution": 2959,
      "van": 2960,
      "year": 2961,
      "निक": 2962,
      "वली": 2963,
      "గర": 2964,
      "టక": 2965,
      "టా": 2966,
      "దార": 2967,
      "నీ": 2968,
      "రో": 2969,
      "సభ": 2970,
      "ెద్ద": 2971,
      "▁३": 2972,
      "▁un": 2973,
      "▁\"సి": 2974,
      "ारिक": 2975,
      "India_": 2976,
      "](https://te.wikipedia.org/wiki/భారత_": 2977,
      "1950": 2978,
      "led": 2979,
      "▁పు": 2980,
      "▁आक": 2981,
      "▁India:": 2982,
      "రాజ్య": 2983,
      "▁तर": 2984,
      "▁కేంద్రపాలిత": 2985,
      "urr": 2986,
      "▁maint:": 2987,
      "▁మా": 2988,
      "▁చే": 2989,
      "प्रधान": 2990,
      "ము\")": 2991,
      "depend": 2992,
      "త్స": 2993,
      "▁రాజ్య": 2994,
      "▁2024": 2995,
      "▁ఉంది.": 2996,
      "ritan": 2997,
      "-80": 2998,
      "వాతంత్ర": 2999,
      "▁June": 3000,
      "peration": 3001,
      "ार्थ": 3002,
      "▁దేశాల": 3003,
      "లాదేశ్": 3004,
      "ternational": 3005,
      "స్తు": 3006,
      "▁సామ్రాజ్యం](https://te.wikipedia.org/wiki/": 3007,
      "ంగ్లాదేశ్": 3008,
      "▁భాషలు": 3009,
      "_नदी": 3010,
      "ారు.": 3011,
      "_ప్రా": 3012,
      "్రిటి": 3013,
      "▁विकास": 3014,
      "▁అధికార": 3015,
      "illion": 3016,
      "ూర్పు": 3017,
      "కైవు": 3018,
      "-l": 3019,
      "gar": 3020,
      "डे": 3021,
      "रि": 3022,
      "५०": 3023,
      "erv": 3024,
      "▁(201": 3025,
      "▁अन्य": 3026,
      "ed.": 3027,
      "ument": 3028,
      "radition": 3029,
      "ound": 3030,
      "umbai": 3031,
      "▁New": 3032,
      "rits": 3033,
      "▁July": 3034,
      "_साम्राज्य": 3035,
      "53": 3036,
      "69": 3037,
      "_20": 3038,
      "emple": 3039,
      "je": 3040,
      "ocial": 3041,
      "ober": 3042,
      "rst": 3043,
      "uk": 3044,
      "एँ": 3045,
      "ख्": 3046,
      "गत": 3047,
      "पती": 3048,
      "भु": 3049,
      "ऱ्या": 3050,
      "वेश": 3051,
      "ैक": 3052,
      "ोष": 3053,
      "▁[e": 3054,
      "▁[च": 3055,
      "\")*.": 3056,
      "ince": 3057,
      "ofindia": 3058,
      "out": 3059,
      "▁प्रमुख": 3060,
      "ade": 3061,
      "ांधी": 3062,
      "ले.": 3063,
      "▁सेना": 3064,
      "▁इंडिया": 3065,
      "▁Empire": 3066,
      "ड़ा": 3067,
      "▁राज्ये": 3068,
      "eport": 3069,
      ".jpg)](https://hi.wikipedia.org/wiki/चित्र:": 3070,
      "▁निर्": 3071,
      "म्बर": 3072,
      "Dyson": 3073,
      "are": 3074,
      "ts": 3075,
      "ugh": 3076,
      "द्व": 3077,
      "पृष्ठ": 3078,
      "रण": 3079,
      "हरी": 3080,
      "िस्तान": 3081,
      "्स": 3082,
      "४७": 3083,
      "▁[v": 3084,
      "▁पर्व": 3085,
      "र्दू": 3086,
      "▁वार": 3087,
      "▁जय": 3088,
      "▁Act": 3089,
      "▁Aug": 3090,
      "▁बंगाल": 3091,
      "▁ब्रिटिश": 3092,
      "▁ch": 3093,
      "चेरी": 3094,
      "▁2023": 3095,
      "▁होती": 3096,
      "iron": 3097,
      "▁government": 3098,
      "versity_P": 3099,
      "वंश": 3100,
      "▁Asia\")": 3101,
      "्यटन": 3102,
      "▁August": 3103,
      ").\n": 3104,
      "68": 3105,
      "_राज": 3106,
      "bi": 3107,
      "dus": 3108,
      "how": 3109,
      "tar": 3110,
      "zed": 3111,
      "छत्त": 3112,
      "ంజా": 3113,
      "గి": 3114,
      "టీ": 3115,
      "టాన్": 3116,
      "మంత్రి": 3117,
      "లను": 3118,
      "వె": 3119,
      "వరణ": 3120,
      "హదార": 3121,
      "ూచ": 3122,
      "▁హ": 3123,
      "▁భారతదేశ": 3124,
      "▁28": 3125,
      "▁\"सा": 3126,
      "tember": 3127,
      "anu": 3128,
      "్రమ": 3129,
      "▁पार्": 3130,
      "▁व्या": 3131,
      "\\_देश": 3132,
      "▁अनु": 3133,
      "భారతదేశ_": 3134,
      "▁కొ": 3135,
      "▁వ్యా": 3136,
      "▁Pl": 3137,
      "▁మత": 3138,
      "▁మతము": 3139,
      "తావరణ": 3140,
      "నాడు": 3141,
      "संख्य": 3142,
      "▁1950": 3143,
      "ill": 3144,
      "▁साहित्य": 3145,
      "▁./Category:": 3146,
      "▁have": 3147,
      "eptember": 3148,
      "▁ఇతర": 3149,
      "ాయి": 3150,
      "ణాసియా": 3151,
      "](Special:BookSources/978-1": 3152,
      "▁Island": 3153,
      "▁\"Special:BookSources/978-1": 3154,
      "▁धर्म\")": 3155,
      "censusindia.gov.in/": 3156,
      "టెడ్": 3157,
      "▁ఆర్కైవు": 3158,
      "▁రైలు": 3159,
      "భూటాన్": 3160,
      "known": 3161,
      "_సామ్రాజ్యం": 3162,
      "ecember": 3163,
      "వాతంత్ర్య": 3164,
      "छत्तीस": 3165,
      "2/": 3166,
      "CN": 3167,
      "NC": 3168,
      "St": 3169,
      "_घ": 3170,
      "back": 3171,
      "f/": 3172,
      "oy": 3173,
      "ote": 3174,
      "viron": 3175,
      "धि": 3176,
      "मह": 3177,
      "योग": 3178,
      "रवरी": 3179,
      "▁[ह": 3180,
      "▁[दक्षिण": 3181,
      "▁\"दक्षिण": 3182,
      "one": 3183,
      "Informatics": 3184,
      "arat": 3185,
      "▁सद": 3186,
      "cience": 3187,
      "▁पश्चि": 3188,
      "▁मिळ": 3189,
      "▁म्ह": 3190,
      "entral": 3191,
      "▁Cambridge": 3192,
      "ांच्या": 3193,
      "210": 3194,
      "तिश": 3195,
      "राष्ट्रपति": 3196,
      "ंडोनेश": 3197,
      "▁2009": 3198,
      "1994": 3199,
      "akh": 3200,
      "epublic": 3201,
      "ंध्र": 3202,
      "ogni": 3203,
      "▁झाले": 3204,
      "गणना": 3205,
      "978-0-19-8": 3206,
      "देव": 3207,
      "ographic": 3208,
      "त्रिपुरा": 3209,
      "vironment": 3210,
      "▁म्हण": 3211,
      "\".": 3212,
      "%29": 3213,
      ".as": 3214,
      "37": 3215,
      "4-7": 3216,
      "CO": 3217,
      "_c": 3218,
      "_f": 3219,
      "hm": 3220,
      "han": 3221,
      "pp": 3222,
      "tal": 3223,
      "ग्": 3224,
      "तन्त": 3225,
      "मंत्री": 3226,
      "महाद्वीप": 3227,
      "वास": 3228,
      "▁ऊ": 3229,
      "▁us": 3230,
      "▁क्र": 3231,
      "estern": 3232,
      "2001": 3233,
      "liament": 3234,
      "sid": 3235,
      "](https://hi.wikipedia.org/wiki/भारत_की": 3236,
      "नाम": 3237,
      "▁population": 3238,
      "low": 3239,
      "▁Pradesh": 3240,
      "term": 3241,
      "row": 3242,
      "ctober": 3243,
      "duc": 3244,
      "▁region": 3245,
      "able": 3246,
      "ालीन": 3247,
      "_Centre": 3248,
      "▁October": 3249,
      "▁हिन्दी": 3250,
      "▁जाता": 3251,
      "udden": 3252,
      "तंत्रता": 3253,
      "▁ऑफ": 3254,
      "ffairs": 3255,
      "langoff": 3256,
      "ritannic": 3257,
      "Dyson2018": 3258,
      "censusindia.gov.in/2011": 3259,
      "तन्त्र": 3260,
      "-c": 3261,
      "/auth": 3262,
      "124": 3263,
      "79": 3264,
      "94": 3265,
      "dom": 3266,
      "लाल": 3267,
      "ीन": 3268,
      "▁27": 3269,
      "king": 3270,
      "▁[3": 3271,
      "र्जा": 3272,
      "ालय": 3273,
      "▁Census": 3274,
      "▁1.": 3275,
      "here": 3276,
      "▁Development": 3277,
      "▁\"South": 3278,
      "isher": 3279,
      "▁[*A": 3280,
      "ummit\")": 3281,
      "%E0%A4%BE": 3282,
      "times.com/": 3283,
      "usiness": 3284,
      "-re": 3285,
      "98": 3286,
      "oor": 3287,
      "खन": 3288,
      "झार": 3289,
      "ण्यात": 3290,
      "लम": 3291,
      "ल](https://hi.wikipedia.org/wiki/": 3292,
      "लया": 3293,
      "ంశ": 3294,
      "ఆర్": 3295,
      "ఉత్తర": 3296,
      "ఒడి": 3297,
      "కీయ": 3298,
      "గలు": 3299,
      "చు": 3300,
      "జరా": 3301,
      "తూర్పు": 3302,
      "ది.": 3303,
      "భు": 3304,
      "మన్": 3305,
      "యి": 3306,
      "లస": 3307,
      "ీన": 3308,
      "ేక": 3309,
      "▁'": 3310,
      "▁छ": 3311,
      "▁డ": 3312,
      "▁uni": 3313,
      "▁జాబితా": 3314,
      "▁[J": 3315,
      "▁[భారతదేశ": 3316,
      "▁[पाकिस्तान": 3317,
      "▁\"J": 3318,
      "▁\"पाकिस्तान": 3319,
      "▁\"पंजाब": 3320,
      "\").[[": 3321,
      "religion": 3322,
      "ally": 3323,
      "ानु": 3324,
      "र्क": 3325,
      "▁their": 3326,
      "▁పట్ట": 3327,
      "2000": 3328,
      "ातंत्र": 3329,
      "lig": 3330,
      "▁दो": 3331,
      "▁द्व": 3332,
      "▁दिस": 3333,
      "](https://hi.wikipedia.org/wiki/भारत_का": 3334,
      "▁प्रजात": 3335,
      "▁**జాతీయ": 3336,
      "▁Ass": 3337,
      "నిక": 3338,
      "ంగ్రె": 3339,
      "▁సభ": 3340,
      "विज्ञान": 3341,
      "▁गु": 3342,
      "26)": 3343,
      "తాబ్": 3344,
      "olper": 3345,
      "हिमालय": 3346,
      "▁ప్రపంచ": 3347,
      "▁ప్రభు": 3348,
      "sha": 3349,
      "ड़े": 3350,
      "▁ఆసియా": 3351,
      "]](https://hi.wikipedia.org/wiki/भारत#cite_note-1": 3352,
      "▁यादी": 3353,
      "మ్రాజ్య": 3354,
      "ंधू": 3355,
      "doc": 3356,
      "▁खास": 3357,
      "గుజరా": 3358,
      "शास्त्र": 3359,
      "▁సామ్రాజ్యం\")": 3360,
      "▁language\")": 3361,
      "xtra": 3362,
      "▁टक्": 3363,
      "%2C_": 3364,
      "త్యేక": 3365,
      "రాష్ట్రపతి": 3366,
      "ప్ప": 3367,
      "▁కాశ్మీ": 3368,
      "▁రాజవంశం": 3369,
      "शासित_प्रदेश": 3370,
      "गुजराती": 3371,
      "▁చెంద": 3372,
      "▁ఆర్ధిక": 3373,
      "also": 3374,
      "▁స్థాన": 3375,
      "actbook": 3376,
      "▁येथ": 3377,
      "Wikipedia": 3378,
      "తమిళనాడు": 3379,
      "▁शिक्षण": 3380,
      "▁थी": 3381,
      "outh_Asia": 3382,
      "ప్రధానమంత్రి": 3383,
      "గణతంత్ర": 3384,
      "▁క్రీడ": 3385,
      "▁ఉన్నాయి.": 3386,
      "▁[↑](https://hi.wikipedia.org/wiki/भारत#cite_ref-1": 3387,
      "dustry": 3388,
      "ఆఫ్ఘ": 3389,
      "శ్రీలంక": 3390,
      "షియా": 3391,
      "▁हवामान": 3392,
      "న్‌ఫ": 3393,
      "నేపాల్": 3394,
      "▁प्रजाती": 3395,
      "తాబ్ద": 3396,
      "olpert": 3397,
      ".india": 3398,
      "76": 3399,
      "_19": 3400,
      "bly": 3401,
      "d/": 3402,
      "jab": 3403,
      "oast": 3404,
      "ron": 3405,
      "ंह": 3406,
      "तिक": 3407,
      "तां": 3408,
      "रक्ष": 3409,
      "ोच्च": 3410,
      "▁$": 3411,
      "▁k": 3412,
      "▁ar": 3413,
      "▁23": 3414,
      "▁per": 3415,
      "▁year": 3416,
      "kim": 3417,
      "▁[I": 3418,
      "index": 3419,
      "ond": 3420,
      "▁सी": 3421,
      "life": 3422,
      "site": 3423,
      "▁into": 3424,
      "नाव": 3425,
      "▁2017": 3426,
      "प्रा": 3427,
      "▁December": 3428,
      "ayan": 3429,
      "▁2020": 3430,
      "▁National": 3431,
      "embly": 3432,
      "▁घा": 3433,
      "णाचल": 3434,
      "रुणाचल": 3435,
      "▁state": 3436,
      "view": 3437,
      "engal": 3438,
      "ंग्ल": 3439,
      "vision": 3440,
      "argest": 3441,
      "uropean": 3442,
      "AsherTalbot2008": 3443,
      "Informatics_Centre": 3444,
      ".f": 3445,
      "uri": 3446,
      "नत": 3447,
      "मर": 3448,
      "ुंबई": 3449,
      "▁।": 3450,
      "encies": 3451,
      "](https://hi.wikipedia.org/wiki/सं": 3452,
      "](https://en.wikipedia.org/wiki/K": 3453,
      "▁पठ": 3454,
      "▁पह": 3455,
      "▁मध्य": 3456,
      "▁महासागर": 3457,
      "acy": 3458,
      "ालदीव": 3459,
      "▁प्रमाण": 3460,
      "▁Chin": 3461,
      "adu": 3462,
      "▁Se": 3463,
      "anges": 3464,
      "▁Metcalf": 3465,
      "▁world": 3466,
      "ayback": 3467,
      "सेना": 3468,
      "▁during": 3469,
      "imf": 3470,
      "▁चु": 3471,
      "_summit": 3472,
      "मूह": 3473,
      "▁हुई": 3474,
      "▁साम्राज्य\")": 3475,
      "▁शासन": 3476,
      "rofile": 3477,
      "recogni": 3478,
      "ओडिशा": 3479,
      "हिमाचल": 3480,
      "*,": 3481,
      ".b": 3482,
      "110": 3483,
      "127": 3484,
      "4/": 3485,
      "500": 3486,
      "85": 3487,
      "c=": 3488,
      "gy": 3489,
      "rm": 3490,
      "son": 3491,
      "काल": 3492,
      "गान": 3493,
      "तो": 3494,
      "फल": 3495,
      "ळ\")": 3496,
      "वड": 3497,
      "ाम": 3498,
      "ाचा": 3499,
      "▁४": 3500,
      "▁al": 3501,
      "▁es": 3502,
      "▁0.": 3503,
      "▁also": 3504,
      "▁[ल": 3505,
      "▁[पंजाब": 3506,
      "▁[हिन्दी": 3507,
      "\")[[": 3508,
      "र्ज": 3509,
      "outle": 3510,
      "▁आज": 3511,
      "-06": 3512,
      "▁प्रत्य": 3513,
      "▁जून": 3514,
      "ंगलादेश": 3515,
      "▁Archived": 3516,
      "▁September": 3517,
      "▁तसे": 3518,
      "▁1,": 3519,
      "क्षद्वीप": 3520,
      "rop": 3521,
      "वादी": 3522,
      "ली.": 3523,
      "▁शु": 3524,
      "23)": 3525,
      "](https://mr.wikipedia.org/wiki/भारतीय_": 3526,
      "▁यां": 3527,
      "णिपुरी": 3528,
      "harat": 3529,
      "▁क्षेत्र\")": 3530,
      "▁been": 3531,
      "▁Press\").": 3532,
      "करण": 3533,
      "्रीका": 3534,
      "ैदान": 3535,
      "तेलु": 3536,
      "हाय्य": 3537,
      "▁first": 3538,
      ".indiatimes.com/": 3539,
      "recognized": 3540,
      "outledge": 3541,
      "▁तसेच": 3542,
      "-19": 3543,
      "-40": 3544,
      "7,": 3545,
      "72": 3546,
      "JP": 3547,
      "Pages": 3548,
      "_ప్రదేశ్": 3549,
      "aper": 3550,
      "ls": 3551,
      "ंद्र": 3552,
      "कालीन": 3553,
      "खाना": 3554,
      "गढ": 3555,
      "गू": 3556,
      "ध्या": 3557,
      "प्": 3558,
      "ం,": 3559,
      "ఉప": 3560,
      "కొ": 3561,
      "జె": 3562,
      "ఢ్": 3563,
      "నాల": 3564,
      "లే": 3565,
      "ళు": 3566,
      "ౌద్ధ": 3567,
      "▁५": 3568,
      "▁wi": 3569,
      "▁en": 3570,
      "▁భా": 3571,
      "wing": 3572,
      "▁[వి": 3573,
      "▁\"च": 3574,
      "India)": 3575,
      "▁सभ": 3576,
      "▁सर्": 3577,
      "](https://en.wikipedia.org/wiki/J": 3578,
      "](https://en.wikipedia.org/wiki/L": 3579,
      "▁(20": 3580,
      "र्ष": 3581,
      "ాలీ": 3582,
      "्ता": 3583,
      "▁official": 3584,
      "ర్చ": 3585,
      "ర్\")": 3586,
      "ात्": 3587,
      "▁दर": 3588,
      "▁दिया": 3589,
      "न्ह": 3590,
      "▁Sh": 3591,
      "lob": 3592,
      "etwe": 3593,
      "files/": 3594,
      "▁बढ़": 3595,
      "ాలు?action=edit&redlink=1": 3596,
      "ural": 3597,
      "chnolog": 3598,
      "विष": 3599,
      "▁ag": 3600,
      "▁Th": 3601,
      "unjab": 3602,
      "24)": 3603,
      "–సా.శ.13": 3604,
      "–సా.శ.18": 3605,
      "al_in": 3606,
      "▁అత్య": 3607,
      "ight": 3608,
      "▁2006": 3609,
      "▁\"मध्य": 3610,
      "▁English": 3611,
      "▁ఆధ": 3612,
      "మాఖ్య": 3613,
      "వాణా": 3614,
      "apit": 3615,
      "ంటి": 3616,
      "▁national": 3617,
      "ortal": 3618,
      ".png": 3619,
      "▁దేశం": 3620,
      "hindi": 3621,
      "▁प्राप्त": 3622,
      "డ్డ": 3623,
      "▁జనాభా": 3624,
      "దక్షిణాసియా": 3625,
      "▁గల": 3626,
      "▁భారతదేశంలో": 3627,
      "ంగ్లీ": 3628,
      "యునై": 3629,
      "ష్ణ": 3630,
      "_చరిత్ర?action=edit&redlink=1": 3631,
      "ब्दी": 3632,
      "▁हुआ": 3633,
      "▁రాష్ట్రాలు,": 3634,
      "%20%20%20%20": 3635,
      "tent": 3636,
      "_మతము": 3637,
      "articleshow": 3638,
      "▁మొద": 3639,
      "▁लिए": 3640,
      "द्योगिकी": 3641,
      "▁subcontinent": 3642,
      "▁अर्थव्यवस्था": 3643,
      "National_Informatics_Centre": 3644,
      "▁చెయ్యబడింది.": 3645,
      "▁comp": 3646,
      "etween": 3647,
      "యునైటెడ్": 3648,
      "articleshow/": 3649,
      "-f": 3650,
      "4–": 3651,
      "cms": 3652,
      "ges": 3653,
      "ंती": 3654,
      "बी": 3655,
      "भि": 3656,
      "ors": 3657,
      "anisation": 3658,
      "ering": 3659,
      "▁सभा": 3660,
      "rim": 3661,
      "sical": 3662,
      "▁Constitution": 3663,
      "▁system": 3664,
      "▁2012": 3665,
      "%E0%A5%": 3666,
      "▁form": 3667,
      "hism": 3668,
      "cyc": 3669,
      "List_of_countries": 3670,
      "10.10": 3671,
      "भीम": 3672,
      "inister": 3673,
      "anuary": 3674,
      "-of": 3675,
      "-le": 3676,
      "1-0)": 3677,
      "89": 3678,
      "CE": 3679,
      "IM": 3680,
      "UN": 3681,
      "_श": 3682,
      "_या": 3683,
      "dle": 3684,
      "iver": 3685,
      "mu": 3686,
      "m.nic.in/": 3687,
      "ned": 3688,
      "ncl": 3689,
      "ok": 3690,
      "por": 3691,
      "rd": 3692,
      "ya": 3693,
      "क्र": 3694,
      "दर्भ": 3695,
      "फ्र": 3696,
      "वान": 3697,
      "ाप": 3698,
      "ूटी": 3699,
      "२६": 3700,
      "▁[ओ": 3701,
      "▁\"O": 3702,
      "▁\"W": 3703,
      "text": 3704,
      "▁सैन": 3705,
      "eser": 3706,
      "राण": 3707,
      "](https://mr.wikipedia.org/wiki/उ": 3708,
      "िकोब": 3709,
      "▁आर्थिक": 3710,
      "▁India\"),": 3711,
      "ष्ण": 3712,
      "angl": 3713,
      "ross": 3714,
      "▁2018": 3715,
      "साय": 3716,
      "▁2004": 3717,
      "▁कोर": 3718,
      "-81": 3719,
      "पूर्ण": 3720,
      "▁[Stein": 3721,
      "▁January": 3722,
      "ember": 3723,
      "हरिया": 3724,
      ".jpg)](https://mr.wikipedia.org/wiki/चित्र:": 3725,
      "_Temple": 3726,
      "माणु": 3727,
      "▁फ़": 3728,
      "तेलंग": 3729,
      "▁खाना\")": 3730,
      "▁अगस्त": 3731,
      "ंग्रजी": 3732,
      "संख्ये": 3733,
      "ritannica": 3734,
      "censusindia.gov.in/2011census": 3735,
      "झारखंड": 3736,
      "▁दिसम्बर": 3737,
      "▁टक्के": 3738,
      "्ता:": 3739,
      "_यादी": 3740,
      "nclm.nic.in/": 3741,
      "िकोबार": 3742,
      ".n": 3743,
      ":[": 3744,
      "II": 3745,
      "Island": 3746,
      "eh": 3747,
      "ik": 3748,
      "rish": 3749,
      "t-": 3750,
      "ute": 3751,
      "तन": 3752,
      "पान": 3753,
      "भो": 3754,
      "हरा": 3755,
      "ेड": 3756,
      "▁ac": 3757,
      "ara": 3758,
      "eration": 3759,
      "ouse": 3760,
      "ama": 3761,
      "amp": 3762,
      "्षिक": 3763,
      "▁जल": 3764,
      "iddle": 3765,
      "come": 3766,
      "▁cons": 3767,
      "▁but": 3768,
      "cha": 3769,
      "ताब्दी": 3770,
      "anguages": 3771,
      "old": 3772,
      "▁Hindi": 3773,
      "_Indian": 3774,
      "▁[\"C": 3775,
      "1996": 3776,
      "avid": 3777,
      "▁bec": 3778,
      "%2F": 3779,
      "gency": 3780,
      "▁नदी\")": 3781,
      "doi.org/": 3782,
      "▁Commissioner": 3783,
      "_University_P": 3784,
      "uistic": 3785,
      "▁\"पाकिस्तान\")": 3786,
      "_University_Press": 3787,
      "6/": 3788,
      "86": 3789,
      ":EditPage/": 3790,
      "LA": 3791,
      "_O": 3792,
      "_న": 3793,
      "c/c": 3794,
      "एशिया": 3795,
      "शन": 3796,
      "ैंड": 3797,
      "ॉल": 3798,
      "ఖండ": 3799,
      "గం": 3800,
      "టిక": 3801,
      "డే": 3802,
      "ద్య": 3803,
      "మార్": 3804,
      "మాలయ": 3805,
      "లలో": 3806,
      "లకు": 3807,
      "ళ్": 3808,
      "వ](https://te.wikipedia.org/wiki/": 3809,
      "ానికి": 3810,
      "ాళు": 3811,
      "ీర్": 3812,
      "▁భ": 3813,
      "▁ru": 3814,
      "▁యు": 3815,
      "▁\"ओ": 3816,
      "▁\"వి": 3817,
      "ारे": 3818,
      "▁क्रम": 3819,
      "](https://en.wikipedia.org/wiki/F": 3820,
      "omen": 3821,
      "andhi": 3822,
      "ాలో": 3823,
      "\\_us": 3824,
      "స్వ": 3825,
      "స్లా": 3826,
      "▁పాల": 3827,
      "న్\")": 3828,
      "-15": 3829,
      "▁जी": 3830,
      "▁కార": 3831,
      "▁కలి": 3832,
      "▁13": 3833,
      "ित्त": 3834,
      "రిహ": 3835,
      "రికత": 3836,
      "క్నాల": 3837,
      "ంది.\n": 3838,
      "▁between": 3839,
      "నిమా": 3840,
      "▁most": 3841,
      "raven": 3842,
      "_of_the": 3843,
      "onso": 3844,
      "▁సంగీతం": 3845,
      "▁చి": 3846,
      "▁संबंध": 3847,
      "▁[मध्य": 3848,
      "ులు\"),": 3849,
      "▁అయ": 3850,
      "▁ప్రధాన": 3851,
      "umber": 3852,
      "ప్రదాయ": 3853,
      "ప్రత్యేక": 3854,
      "ద్వీ": 3855,
      "▁ఉప": 3856,
      "▁రె": 3857,
      "▁For": 3858,
      "న్నడ": 3859,
      "धानी": 3860,
      "ంటు": 3861,
      "▁దేశంలో": 3862,
      "a](https://en.wikipedia.org/wiki/S": 3863,
      "हीं": 3864,
      "కాశ్మీ": 3865,
      "_New": 3866,
      "ంధు": 3867,
      "వర్గం:Harv": 3868,
      "▁जाते": 3869,
      "ద్ధం": 3870,
      "ద్ధి": 3871,
      "ాల్దీవ": 3872,
      "చ్చే": 3873,
      "దక్షిణ_": 3874,
      "▁కాంగ్రె": 3875,
      "\"](https://web.archive.org/web/20160": 3876,
      "టెక్నాల": 3877,
      "▁ప్రాంతాలు": 3878,
      "ేంద్రపాలిత_ప్రా": 3879,
      "హిమాలయ": 3880,
      "arch_": 3881,
      "▁లే": 3882,
      "త్తరా": 3883,
      "నాగరికత": 3884,
      "visions": 3885,
      "క్కువ": 3886,
      "crease": 3887,
      "క్‌సభ": 3888,
      "▁శాస్త్ర": 3889,
      "▁स्थित": 3890,
      "ెలుగు": 3891,
      "ताजमह": 3892,
      "▁मार्च": 3893,
      "▁వచ్చింది.": 3894,
      "वेबैक": 3895,
      "Template:": 3896,
      "ानुसार": 3897,
      "▁द्वारा": 3898,
      "ర్చ:": 3899,
      "chnology": 3900,
      "National_Informatics_Centre2005": 3901,
      "▁फ़रवरी": 3902,
      ":EditPage/మూస:": 3903,
      "ాళుక్య": 3904,
      "ప్రత్యేక:EditPage/మూస:": 3905,
      "టెక్నాలజీ": 3906,
      ".स": 3907,
      "1–": 3908,
      "129": 3909,
      "63": 3910,
      "BC": 3911,
      "Hindi": 3912,
      "Taj": 3913,
      "_राज्य": 3914,
      "ies": 3915,
      "pr": 3916,
      "rans": 3917,
      "ymb": 3918,
      "जास": 3919,
      "ण्या": 3920,
      "शक": 3921,
      "ैल": 3922,
      "▁30": 3923,
      "▁other": 3924,
      "▁[19": 3925,
      "▁[ने": 3926,
      "▁\"I": 3927,
      "▁\"ने": 3928,
      "▁\"हिन्दी": 3929,
      "▁(1,": 3930,
      "](https://mr.wikipedia.org/wiki/ग": 3931,
      "achin": 3932,
      "▁India.": 3933,
      "▁केले": 3934,
      "ool": 3935,
      "-14": 3936,
      "िया](https://mai.wikipedia.org/wiki/": 3937,
      "url": 3938,
      "ticles": 3939,
      "▁Times": 3940,
      "▁Min": 3941,
      "प्रदेश": 3942,
      "▁इतर": 3943,
      "▁आहे.\n": 3944,
      "▁आहे.[[": 3945,
      "त्ताक": 3946,
      "▁196": 3947,
      "▁2003": 3948,
      "▁\"महाराष्ट्र": 3949,
      "▁Nations": 3950,
      "ake": 3951,
      ".gov.in/": 3952,
      "▁देश\")": 3953,
      "▁Language": 3954,
      "ंग्रेस": 3955,
      "धिकारिक": 3956,
      "▁नाव": 3957,
      "्यांची": 3958,
      "ल्प": 3959,
      "वंट": 3960,
      "▁झाला": 3961,
      "904-7": 3962,
      "पीठ": 3963,
      "▁मोठ": 3964,
      "ovement": 3965,
      "हिन्दू": 3966,
      "978-0-521-80": 3967,
      "-language\\_": 3968,
      "ोर्ड": 3969,
      "KulkeRothermund2004": 3970,
      "ातंत्र्य": 3971,
      ".स.": 3972,
      "जासत्ताक": 3973,
      "978-0-521-80904-7": 3974,
      "-78": 3975,
      "01": 3976,
      "83": 3977,
      ":CS1": 3978,
      "=`": 3979,
      "Asia": 3980,
      "_13": 3981,
      "`|": 3982,
      "e/": 3983,
      "fric": 3984,
      "gni": 3985,
      "ंक": 3986,
      "खण्ड": 3987,
      "घालय": 3988,
      "ौद्योगिकी": 3989,
      "▁Y": 3990,
      "▁comm": 3991,
      "](https://hi.wikipedia.org/wiki/इ": 3992,
      "](https://hi.wikipedia.org/wiki/न": 3993,
      "](https://hi.wikipedia.org/wiki/प": 3994,
      "theast": 3995,
      "▁वृ": 3996,
      "ेंज": 3997,
      "ियां": 3998,
      "▁दोन": 3999,
      "](https://hi.wikipedia.org/wiki/भारतीय": 4000,
      "fic": 4001,
      "edu": 4002,
      "_के": 4003,
      "ांति": 4004,
      "▁more": 4005,
      "▁2013": 4006,
      "वाधिक": 4007,
      "▁Talbot": 4008,
      "▁May": 4009,
      "▁*The": 4010,
      "Harle": 4011,
      "ublish": 4012,
      "](https://hi.wikipedia.org/wiki/भारत#cite_ref-FOOTNOTE": 4013,
      "harma": 4014,
      "गुप्त": 4015,
      "▁हैं,": 4016,
      "रेल": 4017,
      "clu": 4018,
      "▁उपमहाद्वीप": 4019,
      "▁इसके": 4020,
      "पालिका": 4021,
      "▁सिनेमा": 4022,
      "िक्कि": 4023,
      "sident": 4024,
      "\\_using\\_": 4025,
      "118": 4026,
      "2,": 4027,
      "93": 4028,
      "EO": 4029,
      "En": 4030,
      "IB": 4031,
      "WEO": 4032,
      "_K": 4033,
      "_re": 4034,
      "eg": 4035,
      "oth": 4036,
      "tary": 4037,
      "ttar": 4038,
      "wal": 4039,
      "टान": 4040,
      "दरा": 4041,
      "ोस": 4042,
      "▁/": 4043,
      "▁time": 4044,
      "ped": 4045,
      "▁[Indian": 4046,
      "▁कम": 4047,
      "▁काल": 4048,
      "ar,": 4049,
      "▁समुद्र": 4050,
      "▁पक्ष": 4051,
      "▁(*": 4052,
      "asi": 4053,
      "\\_articles": 4054,
      "▁आप": 4055,
      "▁India\")\n": 4056,
      "](https://en.wikipedia.org/wiki/Indian": 4057,
      "▁Congress": 4058,
      "ास्त": 4059,
      "▁Pe": 4060,
      "cean": 4061,
      "21)": 4062,
      "25)": 4063,
      "▁शहर": 4064,
      "▁Di": 4065,
      "▁East": 4066,
      "ources": 4067,
      "162": 4068,
      "▁(identifier)\"):[": 4069,
      "▁[*India": 4070,
      "_Mah": 4071,
      "िरपे": 4072,
      "under": 4073,
      "-to-": 4074,
      "_भारतीय_": 4075,
      "▁\"उत्तर": 4076,
      "▁3,": 4077,
      "▁[Archived](https://web.archive.org/web/201": 4078,
      "parame": 4079,
      ".html)": 4080,
      "▁century": 4081,
      "विकि": 4082,
      "Articles": 4083,
      "▁लेख:": 4084,
      "▁territories": 4085,
      "ology": 4086,
      "▁प्रत्येक": 4087,
      "िरपेक्ष": 4088,
      ",NG": 4089,
      "-21": 4090,
      "-26": 4091,
      ".పూ.": 4092,
      "119": 4093,
      "88": 4094,
      ";\n": 4095,
      "ID": 4096,
      "PC": 4097,
      "TR": 4098,
      "UCN": 4099,
      "_J": 4100,
      "adi": 4101,
      "ffi": 4102,
      "gram": 4103,
      "nai": 4104,
      "uch": 4105,
      "va": 4106,
      "जान": 4107,
      "पद": 4108,
      "पया": 4109,
      "मिक": 4110,
      "मृत": 4111,
      "लु": 4112,
      "शा": 4113,
      "शोक": 4114,
      "ाय": 4115,
      "िझ": 4116,
      "िज़": 4117,
      "ैथि": 4118,
      "१८": 4119,
      "ంతం": 4120,
      "ఆగ": 4121,
      "కళ": 4122,
      "ఖండ్": 4123,
      "గ్": 4124,
      "గిన": 4125,
      "గఢ్": 4126,
      "జో": 4127,
      "ట్ర": 4128,
      "తెలుగు": 4129,
      "ద్రా": 4130,
      "పద": 4131,
      "భి": 4132,
      "యో": 4133,
      "లక్ష": 4134,
      "వర": 4135,
      "శో": 4136,
      "షా": 4137,
      "హు": 4138,
      "హార్": 4139,
      "హాయ": 4140,
      "ాష్ట్ర": 4141,
      "ీక": 4142,
      "ీహార్": 4143,
      "ుల": 4144,
      "ుల్": 4145,
      "ోల్": 4146,
      "ోత్స": 4147,
      "ౌర్య": 4148,
      "▁—": 4149,
      "▁रा": 4150,
      "▁29": 4151,
      "▁over": 4152,
      "▁2.": 4153,
      "▁all": 4154,
      "▁[హ": 4155,
      "▁[978-0-": 4156,
      "▁[Metcalf": 4157,
      "▁[पुरा": 4158,
      "▁\"[": 4159,
      "▁\"హ": 4160,
      "▁\"बा": 4161,
      "▁\"ఢిల్లీ": 4162,
      "2023": 4163,
      "▁किल्": 4164,
      "alley": 4165,
      "▁स्त": 4166,
      "్రూ": 4167,
      "city": 4168,
      "](https://te.wikipedia.org/wiki/సి": 4169,
      "tionary": 4170,
      "▁मध्ये": 4171,
      "](https://mr.wikipedia.org/wiki/न": 4172,
      "iss": 4173,
      "issi": 4174,
      "ాలా": 4175,
      "ాలలో": 4176,
      "్యం": 4177,
      "\\_अ": 4178,
      "2016": 4179,
      "ర్ణా": 4180,
      "ర్మే": 4181,
      "▁प्रे": 4182,
      "▁part": 4183,
      "లోక్‌సభ": 4184,
      "▁Schwartzberg": 4185,
      "▁spe": 4186,
      "्वे": 4187,
      "▁వంశ": 4188,
      "ांचा": 4189,
      "▁music": 4190,
      "rol": 4191,
      "978-81": 4192,
      "▁2015": 4193,
      "_सि": 4194,
      "▁ab": 4195,
      "▁after": 4196,
      "ండర్": 4197,
      "▁शै": 4198,
      "india-g": 4199,
      "olk": 4200,
      "త్మా": 4201,
      "साठी": 4202,
      "▁[महाराष्ट्र": 4203,
      "संदर्भ": 4204,
      ".com/news/": 4205,
      "▁అతి": 4206,
      "](https://mr.wikipedia.org/wiki/भारत#": 4207,
      "िलि": 4208,
      "ికి": 4209,
      "28)": 4210,
      "ूनि": 4211,
      "ద్దు": 4212,
      "िये": 4213,
      "▁రహదార": 4214,
      "మాచల్": 4215,
      "▁సామ్రాజ్య": 4216,
      "రువా": 4217,
      "రుణా": 4218,
      "న్నో": 4219,
      "▁होते.": 4220,
      "▁dance": 4221,
      "మిజో": 4222,
      "▁ఇది": 4223,
      "ीपी": 4224,
      "वीं": 4225,
      "▁జరి": 4226,
      "्यांच्या": 4227,
      "-108": 4228,
      "▁విస్త": 4229,
      "▁२०१": 4230,
      "▁శతాబ్ద": 4231,
      "orities": 4232,
      "▁झाली": 4233,
      "ట్టు": 4234,
      "earch": 4235,
      "onstituent": 4236,
      "రాష్ట్రాలు,": 4237,
      "వేద": 4238,
      "▁2011.\n": 4239,
      "▁రాజకీయ": 4240,
      "ूरो": 4241,
      "rade": 4242,
      "PPP": 4243,
      "_संघ": 4244,
      "హిమాచల్": 4245,
      "साँचा": 4246,
      "హాత్మా": 4247,
      "rick": 4248,
      "▁ప్రదేశ్\")": 4249,
      "▁उत्पाद": 4250,
      "హారాష్ట్ర": 4251,
      "శాస్త్ర": 4252,
      "िक्की": 4253,
      "రాజస్థాన్": 4254,
      "▁వాతావరణ": 4255,
      "దినోత్స": 4256,
      "బెంగాలీ": 4257,
      "▁होता.": 4258,
      "యన్మార్": 4259,
      "नागाल": 4260,
      "▁ముఖ్య": 4261,
      "स्लामी": 4262,
      "ौर्य": 4263,
      "▁न्यायालय": 4264,
      "hennai": 4265,
      "ompany": 4266,
      "बांग्ला": 4267,
      "ంజాబ్": 4268,
      "▁వ్యాస": 4269,
      "978-0-19-88": 4270,
      "గుజరాత్": 4271,
      "ఆఫ్ఘనిస్తాన్": 4272,
      "న్‌ఫర్మే": 4273,
      ".fr": 4274,
      "IMF": 4275,
      "हरियाणा": 4276,
      "संख्येनुसार": 4277,
      "వ](https://te.wikipedia.org/wiki/List_of_countries": 4278,
      "రిహద్దు": 4279,
      "చ్చేరి": 4280,
      "ymbol": 4281,
      "gramme": 4282,
      "ैथिली": 4283,
      "▁[पुरालेखित": 4284,
      "ర్ణాటక": 4285,
      "రుణాచల్": 4286,
      "న్‌ఫర్మేషన్": 4287,
      "*)": 4288,
      "Con": 4289,
      "Fisher": 4290,
      "_In": 4291,
      "ban": 4292,
      "each": 4293,
      "ft": 4294,
      "lam": 4295,
      "oin": 4296,
      "ose": 4297,
      "olic": 4298,
      "pl": 4299,
      "ration": 4300,
      "ट्": 4301,
      "पि": 4302,
      "र\")": 4303,
      "रक्षा": 4304,
      "लेश": 4305,
      "pect": 4306,
      "](https://doi.org/": 4307,
      "▁[ड": 4308,
      "\");": 4309,
      "ones": 4310,
      "ann": 4311,
      "▁सह": 4312,
      "▁महा": 4313,
      "andard": 4314,
      "ased": 4315,
      "lem": 4316,
      "lib": 4317,
      "▁दु": 4318,
      "eds.": 4319,
      "▁14": 4320,
      "▁March": 4321,
      "▁शताब्दी": 4322,
      "identifiers": 4323,
      "▁उदा": 4324,
      "▁उद्य": 4325,
      "olden": 4326,
      "▁who": 4327,
      "▁1947": 4328,
      "ilk": 4329,
      "▁रहा": 4330,
      "cture": 4331,
      "▁परि": 4332,
      "ियन": 4333,
      "form": 4334,
      "▁१२": 4335,
      "ार्क": 4336,
      "▁Official": 4337,
      "%E0%A4%9": 4338,
      "मेव": 4339,
      "▁Press.": 4340,
      "_pro": 4341,
      "न्तर": 4342,
      "त्यमेव": 4343,
      "▁[Dikshit": 4344,
      "ublication": 4345,
      "ovember": 4346,
      "obb": 4347,
      "▁संगीत": 4348,
      "ujarat": 4349,
      "ligious": 4350,
      "▁पर्वत": 4351,
      "▁Act,": 4352,
      "▁years": 4353,
      "Fisher2018": 4354,
      "olicy": 4355,
      "%7": 4356,
      ".htm": 4357,
      "5/": 4358,
      "84": 4359,
      "99": 4360,
      "Library": 4361,
      "Report": 4362,
      "Wolpert": 4363,
      "eth": 4364,
      "ikh": 4365,
      "lu": 4366,
      "oa": 4367,
      "ze": 4368,
      "ंट": 4369,
      "हान": 4370,
      "ुक": 4371,
      "▁[लोक": 4372,
      "▁\"य": 4373,
      "tel": 4374,
      "inf": 4375,
      "resident": 4376,
      "arb": 4377,
      "](https://hi.wikipedia.org/wiki/आ": 4378,
      "▁(क": 4379,
      "rime": 4380,
      "asia": 4381,
      "\\_m": 4382,
      "▁अव": 4383,
      "▁अप्र": 4384,
      "2012": 4385,
      "-0)\n": 4386,
      "atus": 4387,
      "▁दी": 4388,
      "adesh": 4389,
      "न्हे": 4390,
      "▁नी": 4391,
      "▁बना": 4392,
      "▁tradition": 4393,
      "rab": 4394,
      "istan": 4395,
      "वायु": 4396,
      "266": 4397,
      "त्तरी": 4398,
      "22)": 4399,
      "▁भाषाओं": 4400,
      "fore": 4401,
      "▁करने": 4402,
      "ंधु": 4403,
      "-90": 4404,
      "वेली": 4405,
      "▁भाष": 4406,
      "ैदरा": 4407,
      "▁[उत्तर": 4408,
      "▁मोदी": 4409,
      "▁मेला\")": 4410,
      "▁हुए": 4411,
      "](https://hi.wikipedia.org/wiki/भारत_में_": 4412,
      "पश्चिमी": 4413,
      "नाडु": 4414,
      "धुनिक": 4415,
      "माजिक": 4416,
      "garh": 4417,
      "ervation": 4418,
      "▁पश्चिम": 4419,
      "ंडोनेशिया": 4420,
      ".aspx": 4421,
      "▁पठार": 4422,
      "▁[हिन्दी](https://hi.wikipedia.org/wiki/": 4423,
      "lobal": 4424,
      "angladesh": 4425,
      "\"[[": 4426,
      "/articleshow/": 4427,
      "1_": 4428,
      "1200": 4429,
      "219": 4430,
      "64": 4431,
      "7-0)": 4432,
      "Ethnologue": 4433,
      "_t": 4434,
      "az": 4435,
      "c.": 4436,
      "cri": 4437,
      "hol": 4438,
      "nam": 4439,
      "rar": 4440,
      "tb": 4441,
      "voy": 4442,
      "ंच": 4443,
      "इन": 4444,
      "काता": 4445,
      "तृत": 4446,
      "धन": 4447,
      "पाली": 4448,
      "फ्रीका": 4449,
      "बे": 4450,
      "बेट": 4451,
      "भरत": 4452,
      "मोर": 4453,
      "ल्य": 4454,
      "ळवंट": 4455,
      "वळ": 4456,
      "ैकी": 4457,
      "▁९": 4458,
      "▁up": 4459,
      "▁art": 4460,
      "orther": 4461,
      "pear": 4462,
      "▁\"ड": 4463,
      "▁\"लोक": 4464,
      "्यंत": 4465,
      "ale": 4466,
      "India_G": 4467,
      "errit": 4468,
      "▁सण": 4469,
      "](https://en.wikipedia.org/wiki/W": 4470,
      "▁मैदान": 4471,
      "▁(2018": 4472,
      "र्ग": 4473,
      "rid": 4474,
      "riod": 4475,
      "▁आहार": 4476,
      "▁आधिकारिक": 4477,
      "-16": 4478,
      "▁प्रधान": 4479,
      "▁भारत\")": 4480,
      "etra": 4481,
      "ष्ठ": 4482,
      "▁tw": 4483,
      "003": 4484,
      "chin": 4485,
      "क्षण": 4486,
      "istrar": 4487,
      "साम": 4488,
      "हिंदी": 4489,
      "चेन्न": 4490,
      "240": 4491,
      "▁election": 4492,
      "](https://mai.wikipedia.org/wiki/ब": 4493,
      "▁विष": 4494,
      "▁विस्त": 4495,
      "▁2008": 4496,
      "म्प": 4497,
      "▁./वर्ग:": 4498,
      "▁GDP": 4499,
      "_मंदिर": 4500,
      "_Asia": 4501,
      "2905": 4502,
      "E0%A4%": 4503,
      "▁[South": 4504,
      "ोलकाता": 4505,
      "न्दा": 4506,
      "_March_": 4507,
      "म्राट": 4508,
      "▁जनगणना": 4509,
      "▁पाहि": 4510,
      "पीडिया": 4511,
      "▁[2](https://en.wikipedia.org/wiki/India#cite_ref-FOOTNOTE": 4512,
      "धीश": 4513,
      "स्थाप": 4514,
      "▁[1](https://en.wikipedia.org/wiki/India#cite_ref-FOOTNOTE": 4515,
      "_आणि": 4516,
      "ative": 4517,
      "...": 4518,
      "ांची_यादी": 4519,
      "edic": 4520,
      "▁संस्कृति": 4521,
      ".php?": 4522,
      "-11162": 4523,
      "-107-11162": 4524,
      "ughal": 4525,
      "▁येथील": 4526,
      "Wikipedia\\_articles": 4527,
      "JPG": 4528,
      "al_in_March_": 4529,
      "भीमबेट": 4530,
      "Taj_Mah": 4531,
      "-780": 4532,
      "978-0-19-882905": 4533,
      "orthern": 4534,
      "चेन्नई": 4535,
      "-107-11162-2": 4536,
      "al_in_March_2004": 4537,
      "भीमबेटका": 4538,
      "Taj_Mahal_in_March_2004": 4539,
      "978-0-19-882905-8": 4540,
      "7_": 4541,
      "B0%": 4542,
      "DD": 4543,
      "RL": 4544,
      "Uttar": 4545,
      "_V": 4546,
      "_en": 4547,
      "_खाना": 4548,
      "a.": 4549,
      "lance": 4550,
      "p?": 4551,
      "ph": 4552,
      "rin": 4553,
      "ser": 4554,
      "yan": 4555,
      "ँच": 4556,
      "क\")": 4557,
      "जे": 4558,
      "तट": 4559,
      "तान": 4560,
      "मक": 4561,
      "हू": 4562,
      "ంతి": 4563,
      "కాల": 4564,
      "కారం": 4565,
      "ఖ్": 4566,
      "గర్": 4567,
      "గంగా": 4568,
      "టో": 4569,
      "డిన": 4570,
      "తీ": 4571,
      "ధి": 4572,
      "ధించ": 4573,
      "నల్": 4574,
      "మన": 4575,
      "మర": 4576,
      "ర్యా": 4577,
      "లం": 4578,
      "లతో": 4579,
      "లమె": 4580,
      "ీస్": 4581,
      "ూప": 4582,
      "ూరు": 4583,
      "ెనీ": 4584,
      "ౌక": 4585,
      "▁,": 4586,
      "▁ద": 4587,
      "▁ఫ": 4588,
      "▁దక్షిణ": 4589,
      "▁హిందూ": 4590,
      "▁గాంధీ": 4591,
      "▁[O": 4592,
      "▁[భారతదేశం": 4593,
      "▁[ఢిల్లీ": 4594,
      "▁\"द": 4595,
      "▁समा": 4596,
      "▁पार": 4597,
      "ారస": 4598,
      "▁मि": 4599,
      "them": 4600,
      "ised": 4601,
      "ాలను": 4602,
      "▁वै": 4603,
      "\\_identifiers": 4604,
      "స్](https://te.wikipedia.org/wiki/": 4605,
      "▁పెద్ద": 4606,
      "ర్లు": 4607,
      "▁केन्द्र": 4608,
      "▁दृष्ट": 4609,
      "ंगीत": 4610,
      "state": 4611,
      "లు\")": 4612,
      "▁**राष्ट्रीय": 4613,
      "▁नद": 4614,
      "▁नगर": 4615,
      "▁नहीं": 4616,
      "▁co": 4617,
      "00–సా.శ.పూ.": 4618,
      "▁వే": 4619,
      "change": 4620,
      "uslim": 4621,
      "▁mi": 4622,
      "▁काम": 4623,
      "itz": 4624,
      "▁से](http://": 4625,
      "త్తం": 4626,
      "▁(సా.శ.13": 4627,
      "▁(సా.శ.15": 4628,
      "▁అనే": 4629,
      "राष्ट्रीय_": 4630,
      "▁ప్రజ": 4631,
      "▁रु": 4632,
      "igh": 4633,
      "తం\")": 4634,
      "▁2005": 4635,
      "▁2022": 4636,
      "ంచి": 4637,
      "कारी": 4638,
      "▁[\"India": 4639,
      "▁[\"The": 4640,
      "▁ఆఫ్": 4641,
      "▁had": 4642,
      "स्तान\")": 4643,
      "1997": 4644,
      "▁लग": 4645,
      "▁సాం": 4646,
      "](https://web.archive.org/web/200": 4647,
      "abad": 4648,
      "▁है।[[": 4649,
      "ార్లమె": 4650,
      "aksh": 4651,
      "gions": 4652,
      "ountry": 4653,
      "▁group": 4654,
      "కిస్థాన్": 4655,
      "▁నే": 4656,
      "▁నగర": 4657,
      "▁Oxford": 4658,
      "ాయి.": 4659,
      "_Delhi": 4660,
      "_Development": 4661,
      "టిబె": 4662,
      "ndaman": 4663,
      "్రీ.పూ.": 4664,
      "ండియా": 4665,
      "▁जाती": 4666,
      "](Special:BookSources/978-0-": 4667,
      "▁ఎక్కువ": 4668,
      "▁ఎన్నో": 4669,
      "▁\"Special:BookSources/978-0-": 4670,
      "विशेष:EditPage/": 4671,
      "गणराज्य": 4672,
      "▁./వర్గం:Wikipedia\\_articles": 4673,
      "olitical": 4674,
      "_సం": 4675,
      "ారు.\n": 4676,
      "టుంబ": 4677,
      "▁अधिकार": 4678,
      "▁భారత్": 4679,
      "ंपनी": 4680,
      "▁देख": 4681,
      "जाति": 4682,
      "మెరి": 4683,
      "▁మొత్తం": 4684,
      "బాద్": 4685,
      "ంపెనీ": 4686,
      "inistry_of_": 4687,
      "_at_the": 4688,
      "▁स्रोत/978-1": 4689,
      "](https://hi.wikipedia.org/wiki/विशेष:पुस्तक_स्रोत/978-1": 4690,
      "హ్మ": 4691,
      "View": 4692,
      "lassical": 4693,
      "▁ఏర్": 4694,
      "_उत्": 4695,
      "్రిటిషు": 4696,
      "ed.).": 4697,
      "▁पार्टी": 4698,
      "▁चुनाव": 4699,
      "▁सर्वाधिक": 4700,
      "▁అత్యధిక": 4701,
      "▁2006](https://en.wikipedia.org/wiki/India#CITEREF": 4702,
      "ీర్ణ": 4703,
      "దక్షిణ_ఆసియా": 4704,
      "ేంద్రపాలిత_ప్రాంత": 4705,
      "रेलू": 4706,
      "india-glance": 4707,
      "विशेष:EditPage/साँचा:": 4708,
      ",[[": 4709,
      "2).": 4710,
      "32": 4711,
      "Hindu": 4712,
      "_n": 4713,
      "a-": 4714,
      "hai": 4715,
      "ront": 4716,
      "s-": 4717,
      "s.[[": 4718,
      "ton": 4719,
      "way": 4720,
      "इल": 4721,
      "एन": 4722,
      "फा": 4723,
      "यो": 4724,
      "▁ठ": 4725,
      "▁history": 4726,
      "win": 4727,
      "▁[य": 4728,
      "▁[doi": 4729,
      "teen": 4730,
      "onwe": 4731,
      "alore": 4732,
      "भारत)": 4733,
      "▁पृष्ठ": 4734,
      "ominal": 4735,
      "▁Ar": 4736,
      "loy": 4737,
      "▁बौद्ध": 4738,
      "angalore": 4739,
      "ांड": 4740,
      "rahm": 4741,
      "क्षर": 4742,
      "षाण": 4743,
      "विद्या": 4744,
      "def": 4745,
      "▁Budd": 4746,
      "▁BCE": 4747,
      "▁रह": 4748,
      "ंडी": 4749,
      "50th": 4750,
      "▁Economic": 4751,
      "मुंबई": 4752,
      "श्च": 4753,
      "avy": 4754,
      "▁घोष": 4755,
      "▁Union": 4756,
      "▁वर्ग": 4757,
      "▁area": 4758,
      "▁[2](https://en.wikipedia.org/wiki/India#cite_ref-": 4759,
      "▁[1](https://en.wikipedia.org/wiki/India#cite_ref-": 4760,
      "▁\"Doi": 4761,
      "▁उत्प": 4762,
      "oi_(identifier)": 4763,
      "▁कुल": 4764,
      "▁2010](https://en.wikipedia.org/wiki/India#CITEREF": 4765,
      "▁Plate": 4766,
      "▁became": 4767,
      "erritory": 4768,
      "onwealth": 4769,
      "-B": 4770,
      "-विज्ञान": 4771,
      ".IN": 4772,
      "/lin": 4773,
      "/index": 4774,
      "300": 4775,
      "8-0)": 4776,
      "9,": 4777,
      "_2": 4778,
      "b/": 4779,
      "ii": 4780,
      "lor": 4781,
      "pic": 4782,
      "ual": 4783,
      "इप्र": 4784,
      "ईरा": 4785,
      "को": 4786,
      "पदी": 4787,
      "पासून": 4788,
      "मिल": 4789,
      "यार": 4790,
      "र-": 4791,
      "लग": 4792,
      "ळ](https://mr.wikipedia.org/wiki/": 4793,
      "सर": 4794,
      "स](https://hi.wikipedia.org/wiki/": 4795,
      "सून": 4796,
      "समूह": 4797,
      "हम": 4798,
      "ीच": 4799,
      "ोडिया": 4800,
      "ौपदी": 4801,
      "▁ro": 4802,
      "▁[द": 4803,
      "▁[श": 4804,
      "▁[सा": 4805,
      "▁\"व": 4806,
      "▁\"दिल्ली": 4807,
      "high": 4808,
      "20)": 4809,
      "▁कई": 4810,
      "▁कॉ": 4811,
      "▁कश्मीर": 4812,
      "](https://hi.wikipedia.org/wiki/ग": 4813,
      "](https://hi.wikipedia.org/wiki/पंजाब": 4814,
      "▁पड": 4815,
      "▁पान": 4816,
      "](https://mr.wikipedia.org/wiki/सा": 4817,
      "omas": 4818,
      "ough": 4819,
      "▁वैदिक": 4820,
      "\\_स": 4821,
      "\\_पृष्ठ": 4822,
      "▁अज": 4823,
      "](https://en.wikipedia.org/wiki/Indian_": 4824,
      "-13": 4825,
      "red/lin": 4826,
      "त्री": 4827,
      "त्रूटी": 4828,
      "stru": 4829,
      "लाओ": 4830,
      "etary": 4831,
      "▁नव": 4832,
      "▁बीच": 4833,
      "inguistic": 4834,
      "लेट": 4835,
      "ISO": 4836,
      "_of_S": 4837,
      "FOOTNOTENational_Informatics_Centre2005": 4838,
      "vers": 4839,
      "▁Modern": 4840,
      "▁से](http://www.": 4841,
      "ictionary": 4842,
      "▁इन": 4843,
      "agar": 4844,
      "ages/": 4845,
      "▁total": 4846,
      "चिन्हे": 4847,
      "द्रौपदी": 4848,
      "0%E0%A4%": 4849,
      "_St": 4850,
      "cond": 4851,
      "र्मू": 4852,
      "▁१८": 4853,
      "▁rel": 4854,
      "_of_India.svg": 4855,
      "▁Feb": 4856,
      "ंदू": 4857,
      "ंदमान": 4858,
      "▁करोड़": 4859,
      "▁[कु": 4860,
      "▁[अंग्रेज़ी": 4861,
      "▁\"अंग्रेज़ी": 4862,
      "वर्सि": 4863,
      "▁राजनी": 4864,
      "न्दोल": 4865,
      "न्दिर": 4866,
      "▁War": 4867,
      "hindu": 4868,
      "▁नेतृत": 4869,
      "दादरा": 4870,
      "▁प्राणी": 4871,
      "ruary": 4872,
      "▁depend": 4873,
      "▁जातो": 4874,
      "▁असले": 4875,
      "▁असून": 4876,
      "▁It": 4877,
      "](https://hi.wikipedia.org/wiki/अंग्रेज़ी": 4878,
      "llchin": 4879,
      "_नृत्य": 4880,
      "▁हैं।\n": 4881,
      "_आशिया": 4882,
      "ब्ब": 4883,
      "वारी": 4884,
      "वरील": 4885,
      "▁1998": 4886,
      "एसिया": 4887,
      ".svg/": 4888,
      "▁शासित": 4889,
      "गोआ": 4890,
      "▁text": 4891,
      "74-108": 4892,
      "हायता": 4893,
      "▁period": 4894,
      "▁2021.\n": 4895,
      "▁कारण": 4896,
      "▁काळात": 4897,
      "▁जिसमें": 4898,
      "त्तराखंड": 4899,
      "_मेला?action=edit&redlink=1": 4900,
      "▁निर्माण": 4901,
      "धिराज्य": 4902,
      "▁Assembly": 4903,
      "shared/lin": 4904,
      "kimages/": 4905,
      "▁सीमा": 4906,
      "▁estim": 4907,
      "तेलुगू": 4908,
      "हाय्य:CS1": 4909,
      "ात्मा": 4910,
      "nclm.nic.in/shared/lin": 4911,
      "achine": 4912,
      "▁\"महाराष्ट्र\")": 4913,
      "WEO.IN": 4914,
      "ffice": 4915,
      "ूनिवर्सि": 4916,
      "IMFWEO.IN": 4917,
      "▁two": 4918,
      "-78074-108": 4919,
      "\\_पृष्ठसभ": 4920,
      "▁[अंग्रेज़ी](https://hi.wikipedia.org/wiki/अंग्रेज़ी": 4921,
      "nclm.nic.in/shared/linkimages/": 4922,
      "ूनिवर्सिटी": 4923,
      "-78074-108-6": 4924,
      "-23": 4925,
      "/article": 4926,
      "55": 4927,
      "5-0)": 4928,
      "Bi": 4929,
      "Qu": 4930,
      "_द": 4931,
      "_14": 4932,
      "_जन": 4933,
      "a)": 4934,
      "ele": 4935,
      "nf": 4936,
      "nominal": 4937,
      "ox": 4938,
      "s18": 4939,
      "ua": 4940,
      "uth": 4941,
      "vid": 4942,
      "vol": 4943,
      "ym": 4944,
      "ंची": 4945,
      "गरा": 4946,
      "श्य": 4947,
      "ुल": 4948,
      "ैस": 4949,
      "ो-": 4950,
      "▁6.": 4951,
      "▁`|": 4952,
      "▁[United": 4953,
      "▁\"United": 4954,
      "▁\"राजस्थान": 4955,
      "▁\"तमिल": 4956,
      "arri": 4957,
      "▁सो": 4958,
      "▁(इ": 4959,
      "rief": 4960,
      "asing": 4961,
      "ेशन": 4962,
      "▁Al": 4963,
      "etail": 4964,
      "▁निकोबार": 4965,
      "ासा": 4966,
      "▁summit\")": 4967,
      "▁caste": 4968,
      "urch": 4969,
      "विजय": 4970,
      "217": 4971,
      "्रेल": 4972,
      "▁गा": 4973,
      "वाहर": 4974,
      "25.": 4975,
      "द्रा": 4976,
      "▁British": 4977,
      "▁विद्य": 4978,
      "_Indian_": 4979,
      "▁General": 4980,
      "-30": 4981,
      "_in_S": 4982,
      "abh": 4983,
      "▁राज्य\")": 4984,
      "मान्य": 4985,
      "▁general": 4986,
      "▁राजधानी": 4987,
      "▁K.": 4988,
      "artment": 4989,
      "▁than": 4990,
      "48)": 4991,
      "ज्ज": 4992,
      "▁हिमालय": 4993,
      "▁states": 4994,
      "स्ट्रेल": 4995,
      "▁\"Economy": 4996,
      "-pro": 4997,
      "दिवस": 4998,
      "resent": 4999,
      "1947)": 5000,
      "outh_Asian": 5001,
      "मेरिक": 5002,
      "टिबंध": 5003,
      "ivil": 5004,
      "▁union": 5005,
      "Pages\\_using\\_": 5006,
      "▁सैन्य": 5007,
      "▁उदाहर": 5008,
      "voyage": 5009,
      "▁\"राजस्थान\")": 5010,
      "वाहरलाल": 5011,
      "-C": 5012,
      "-29": 5013,
      "-with": 5014,
      "0&": 5015,
      "1]](https://en.wikipedia.org/wiki/India#cite_note-FOOTNOTE": 5016,
      "44": 5017,
      "5–": 5018,
      "66": 5019,
      "81": 5020,
      ":**": 5021,
      "C-0": 5022,
      "C).": 5023,
      "_यु": 5024,
      "_జాబితా": 5025,
      "bh": 5026,
      "hang": 5027,
      "mi": 5028,
      "ning": 5029,
      "thi": 5030,
      "tro": 5031,
      "y=": 5032,
      "मरी": 5033,
      "स्य": 5034,
      "ఆంధ": 5035,
      "కీ": 5036,
      "కాలు": 5037,
      "క్రమ": 5038,
      "డో": 5039,
      "థి": 5040,
      "నె": 5041,
      "నాలు": 5042,
      "పించ": 5043,
      "బడ్డ": 5044,
      "భర": 5045,
      "మహ": 5046,
      "మై": 5047,
      "యన": 5048,
      "రంగ": 5049,
      "లయా": 5050,
      "వార": 5051,
      "శీ": 5052,
      "షనల్": 5053,
      "స్య": 5054,
      "ృద్ధి": 5055,
      "ెంగ": 5056,
      "ేర": 5057,
      "▁औ": 5058,
      "▁దా": 5059,
      "▁నాగరికత": 5060,
      "▁టెక్నాలజీ": 5061,
      "▁[India": 5062,
      "▁[बा": 5063,
      "▁[चीन": 5064,
      "▁\"19": 5065,
      "्रु": 5066,
      "hip": 5067,
      "reat": 5068,
      "reed": 5069,
      "208": 5070,
      "ala": 5071,
      "भारत\n": 5072,
      "arn": 5073,
      "arliament": 5074,
      "eral_": 5075,
      "▁सूचना": 5076,
      "](https://hi.wikipedia.org/wiki/ओ": 5077,
      "](https://hi.wikipedia.org/wiki/ह": 5078,
      "](https://hi.wikipedia.org/wiki/सि": 5079,
      "్రై": 5080,
      "్రప్రదేశ్": 5081,
      "](https://te.wikipedia.org/wiki/ఢిల్లీ": 5082,
      "▁मिल": 5083,
      "▁मशी": 5084,
      "▁(अ": 5085,
      "▁(eds.": 5086,
      "omes": 5087,
      "right": 5088,
      "astern": 5089,
      "\\_parame": 5090,
      "దేశం": 5091,
      "దేశాల": 5092,
      "దేశాలు": 5093,
      "స్\")": 5094,
      "▁India\"": 5095,
      "ర్‌": 5096,
      "ooperation": 5097,
      "-00": 5098,
      "lia": 5099,
      "atar": 5100,
      "▁दशक": 5101,
      "▁प्रति": 5102,
      "ammu": 5103,
      "లు?action=edit&redlink=1": 5104,
      "రాఠ": 5105,
      "▁Sanskrit": 5106,
      "▁some": 5107,
      "▁बां": 5108,
      "▁కి": 5109,
      "▁కో": 5110,
      "ोंड": 5111,
      "క్టో": 5112,
      "ంది": 5113,
      "నియా": 5114,
      "▁వర్": 5115,
      "▁వారస": 5116,
      "ల్వే": 5117,
      "▁సరిహద్దు": 5118,
      "▁మన": 5119,
      "▁మూ": 5120,
      "वाह": 5121,
      "ండమా": 5122,
      "chite": 5123,
      "ung": 5124,
      "▁शक्ति": 5125,
      "▁చిన్న": 5126,
      "తాన": 5127,
      "ముఖ": 5128,
      "105": 5129,
      "_(India)": 5130,
      "త్వం": 5131,
      "▁BRICS": 5132,
      "▁(సా.శ.17": 5133,
      "▁(సా.శ.14": 5134,
      "ments": 5135,
      "ులు,": 5136,
      "–సా.శ.15": 5137,
      "–సా.శ.17": 5138,
      "▁विभाग": 5139,
      "ilg": 5140,
      "▁ప్రతి": 5141,
      "▁ప్రస్తు": 5142,
      "▁ప్రకారం": 5143,
      "▁ప్రముఖ": 5144,
      "▁सामाजिक": 5145,
      "▁([स": 5146,
      "▁([link": 5147,
      "▁परंत": 5148,
      "ంచిన": 5149,
      "కుడు": 5150,
      "నుమ": 5151,
      "ింది.\n": 5152,
      "ains": 5153,
      "-3)": 5154,
      "ियर": 5155,
      "E0%B0%": 5156,
      "▁लोग": 5157,
      "▁రో": 5158,
      "▁రంగ": 5159,
      "▁రవాణా": 5160,
      "▁సాధించ": 5161,
      "ష్టు": 5162,
      "▁\"कु": 5163,
      "ంతో": 5164,
      "imalay": 5165,
      "वर्ष": 5166,
      "▁తరువా": 5167,
      "పాలన": 5168,
      "पर्यटन": 5169,
      "▁Wiki": 5170,
      "▁क्षेत्रीय": 5171,
      "ం](https://te.wikipedia.org/wiki/భారతీయ": 5172,
      "గుర్": 5173,
      "నేషనల్": 5174,
      "▁\"ब्रिटिश": 5175,
      "▁ప్రాంతం": 5176,
      "▁రాజ్యం](https://te.wikipedia.org/wiki/": 5177,
      "వందే": 5178,
      "▁బా": 5179,
      "▁బహు": 5180,
      "▁బెంగ": 5181,
      "▁*[The": 5182,
      "osed": 5183,
      "▁जनसंख्या": 5184,
      "ాల్లో": 5185,
      "_maint:": 5186,
      "olitic": 5187,
      "శ్వా": 5188,
      "_కేంద్రపాలిత_ప్రాంత": 5189,
      "ారిటీ": 5190,
      "▁\"National": 5191,
      "గోళ": 5192,
      "engali": 5193,
      "aint:\\_": 5194,
      "timesofindia": 5195,
      "onstitutional": 5196,
      "బడిన": 5197,
      "](https://en.wikipedia.org/wiki/Doi_(identifier)": 5198,
      "తున్న": 5199,
      "న్నిక": 5200,
      "]](https://hi.wikipedia.org/wiki/भारत#cite_note-FOOTNOTEStein1998": 5201,
      "]](https://hi.wikipedia.org/wiki/भारत#cite_note-FOOTNOTESingh2009": 5202,
      "▁స్వాతంత్ర్య": 5203,
      "▁కాలంలో": 5204,
      "qual": 5205,
      "▁शिक्षा": 5206,
      "▁डॉल": 5207,
      ".svg.png": 5208,
      "ంపి": 5209,
      "బెంగాల్": 5210,
      ".html).": 5211,
      "त्तराखण्ड": 5212,
      "ెలవు": 5213,
      "स्लाम": 5214,
      "](https://te.wikipedia.org/wiki/భారతదేశంలో_": 5215,
      "rganisation": 5216,
      "▁right": 5217,
      "▁नृत्य\")": 5218,
      "a.gov/": 5219,
      "▁Environment": 5220,
      "▁అధికారిక": 5221,
      "ritsch": 5222,
      "ఆర్ధిక": 5223,
      "▁పట్టణ": 5224,
      "▁కాశ్మీరు": 5225,
      "ంగ్లీషు": 5226,
      "censusindia.gov.in/2011census/": 5227,
      "▁అయిన": 5228,
      "▁రెండు": 5229,
      "ాల్దీవులు": 5230,
      "ublishing": 5231,
      "िक्किम": 5232,
      "ట్రో": 5233,
      "ుల్తాన": 5234,
      "రాష్ట్రాలు,_కేంద్రపాలిత_ప్రాంత": 5235,
      "▁వ్యాసం:": 5236,
      "▁[पुरालेखित](https://web.archive.org/web/201": 5237,
      "Wolpert2003": 5238,
      "\\_maint:\\_": 5239,
      "▁अप्रैल": 5240,
      "ैदराबाद": 5241,
      "▁[हिन्दी](https://hi.wikipedia.org/wiki/हिन्दी": 5242,
      "ార్లమెంట": 5243,
      "▁./వర్గం:Wikipedia\\_articles\\_with\\_": 5244,
      "▁ఏర్ప": 5245,
      "▁[doi](https://en.wikipedia.org/wiki/Doi_(identifier)": 5246,
      "ंडीगढ़": 5247,
      "▁February": 5248,
      "nominal)": 5249,
      "ఆంధ్రప్రదేశ్": 5250,
      "లయాళ": 5251,
      "\\_parameters": 5252,
      "▁परंतु": 5253,
      "timesofindia.indiatimes.com/": 5254,
      "-an": 5255,
      "-25": 5256,
      "115": 5257,
      "3-0)": 5258,
      "4-0)": 5259,
      "8–": 5260,
      "9-0)": 5261,
      "CIA": 5262,
      "Congress": 5263,
      "Craven": 5264,
      "Ludden": 5265,
      "Pakistan": 5266,
      "South": 5267,
      "Sanskrit": 5268,
      "_ह": 5269,
      "_Island": 5270,
      "aus": 5271,
      "ealth": 5272,
      "gan": 5273,
      "minist": 5274,
      "mrits": 5275,
      "ras": 5276,
      "sci": 5277,
      "slam": 5278,
      "yayan": 5279,
      "ंठा": 5280,
      "कणी": 5281,
      "गध": 5282,
      "घल": 5283,
      "छि": 5284,
      "जपुरी": 5285,
      "णाली": 5286,
      "थाली": 5287,
      "निरपेक्ष": 5288,
      "फळ": 5289,
      "मत": 5290,
      "य.": 5291,
      "रस्व": 5292,
      "ळू": 5293,
      "हात्मा": 5294,
      "ॉग": 5295,
      "१५": 5296,
      "५७": 5297,
      "▁i": 5298,
      "▁j": 5299,
      "▁७": 5300,
      "▁ref": 5301,
      "dikshit": 5302,
      "▁[m": 5303,
      "▁[राज्य": 5304,
      "▁[पु": 5305,
      "\")\"": 5306,
      "than": 5307,
      "▁साल": 5308,
      "](https://en.wikipedia.org/wiki/I": 5309,
      "](https://en.wikipedia.org/wiki/The": 5310,
      "esearch": 5311,
      "▁मस": 5312,
      "राठा": 5313,
      "the-": 5314,
      "](https://mr.wikipedia.org/wiki/ल": 5315,
      "▁अतिश": 5316,
      "▁अछि": 5317,
      "ंगे": 5318,
      "links": 5319,
      "▁Ac": 5320,
      "▁sup": 5321,
      "ोंकणी": 5322,
      "ांमध्ये": 5323,
      "▁Pakistan": 5324,
      "▁modern": 5325,
      "पुत्र": 5326,
      "icon": 5327,
      "al_P": 5328,
      "▁./वर्ग:CS1": 5329,
      "duct": 5330,
      "duction": 5331,
      "1990": 5332,
      "▁१५": 5333,
      "▁one": 5334,
      "irst": 5335,
      "▁देशांची": 5336,
      "▁northern": 5337,
      "▁Linguistic": 5338,
      "▁[सी": 5339,
      "▁[*The": 5340,
      "ंतप्रधान": 5341,
      "वेरू": 5342,
      "▁land": 5343,
      "▁घे": 5344,
      "दाख": 5345,
      "्यांमध्ये": 5346,
      "▁deve": 5347,
      "▁original](https://": 5348,
      "▁निर्म": 5349,
      "नुसार_देश": 5350,
      "▁असते.": 5351,
      "▁जनवरी": 5352,
      "key": 5353,
      "▁Press,": 5354,
      "▁Press](https://en.wikipedia.org/wiki/": 5355,
      "ainting": 5356,
      "म्बई": 5357,
      "olitics": 5358,
      "ankar": 5359,
      "न्नड": 5360,
      "erala": 5361,
      "▁2007](https://mr.wikipedia.org/wiki/भारत#": 5362,
      "वार्षिक": 5363,
      "▁\"जगातील": 5364,
      "ultan": 5365,
      "श्मीरी": 5366,
      "▁दिवस": 5367,
      "_by_G": 5368,
      "गातील_देश": 5369,
      "▁2,": 5370,
      "MetcalfMetcalf2006),": 5371,
      "▁केंद्रशासित": 5372,
      "](https://mr.wikipedia.org/wiki/जगातील_देश": 5373,
      "on_territ": 5374,
      "जिंठा": 5375,
      "atsyayan": 5376,
      "▁व्याप": 5377,
      "लयालम": 5378,
      "प्पा": 5379,
      "apita": 5380,
      "भोजपुरी": 5381,
      "▁मोठ्या": 5382,
      "विकिपीडिया": 5383,
      "▁किल्ला": 5384,
      "ricket": 5385,
      ".aspx?": 5386,
      "cript": 5387,
      "विजयनगर": 5388,
      "▁विद्यार्थ": 5389,
      "omestic": 5390,
      "chitecture": 5391,
      "Craven1997": 5392,
      "रस्वती": 5393,
      "dikshit),": 5394,
      "▁2007](https://mr.wikipedia.org/wiki/भारत#dikshit),": 5395,
      "विकिपीडिया:": 5396,
      "-28": 5397,
      "/ark": 5398,
      "122": 5399,
      "7%": 5400,
      "Col": 5401,
      "Main": 5402,
      "ae": 5403,
      "ao": 5404,
      "ahar": 5405,
      "ck": 5406,
      "can": 5407,
      "cent": 5408,
      "ced": 5409,
      "dr": 5410,
      "detail": 5411,
      "her": 5412,
      "m2": 5413,
      "osi": 5414,
      "rac": 5415,
      "vatsyayan": 5416,
      "west": 5417,
      "उप": 5418,
      "घा": 5419,
      "मिर": 5420,
      "यपुर": 5421,
      "लिस": 5422,
      "व्ह": 5423,
      "वसाय": 5424,
      "▁am": 5425,
      ":/121": 5426,
      ".org": 5427,
      "▁[4": 5428,
      "▁[व": 5429,
      "▁[राजस्थान": 5430,
      "▁\"पु": 5431,
      "tis": 5432,
      "reme": 5433,
      "203": 5434,
      "arge": 5435,
      "](https://hi.wikipedia.org/wiki/च": 5436,
      "▁(2006": 5437,
      "राक": 5438,
      "र्न": 5439,
      "ould": 5440,
      "\\_country": 5441,
      "▁अन्त": 5442,
      "2017": 5443,
      "▁प्रौद्योगिकी": 5444,
      "▁जे": 5445,
      "ंगल": 5446,
      "▁तो": 5447,
      "▁since": 5448,
      "▁such": 5449,
      "▁बदल": 5450,
      "▁12": 5451,
      "▁classical": 5452,
      "्वज": 5453,
      "_केंद्र": 5454,
      "ussia": 5455,
      "▁million": 5456,
      "raj": 5457,
      "onservation": 5458,
      "teracy": 5459,
      "स्त्र": 5460,
      "▁R.": 5461,
      "▁Data": 5462,
      "▁\"मुंबई": 5463,
      "130": 5464,
      "_in_": 5465,
      "ियार": 5466,
      "▁report": 5467,
      ".gov/": 5468,
      "▁राजवंश": 5469,
      "परमाणु": 5470,
      "▁[बौद्ध": 5471,
      "▁later": 5472,
      "48/c": 5473,
      "▁original](https://www.": 5474,
      "जनसंख्या": 5475,
      "ia\")": 5476,
      "_BRICS": 5477,
      "ffer": 5478,
      "स्वतंत्रता": 5479,
      "▁संस्कृत": 5480,
      "एस.": 5481,
      "obox": 5482,
      "_and_depend": 5483,
      "▁पूर्वी": 5484,
      "athak": 5485,
      "india.gov.in/india-glance": 5486,
      "र्भर": 5487,
      "indus": 5488,
      "knowin": 5489,
      "१९४७": 5490,
      "▁2021.": 5491,
      "▁था।": 5492,
      "do-A": 5493,
      "-lord": 5494,
      "द्वार": 5495,
      "छत्तीसगढ़": 5496,
      "छत्तीसगढ": 5497,
      "तन्त्रता": 5498,
      "प्राचीन": 5499,
      "▁घाट": 5500,
      "ंग्लिश": 5501,
      "▁पहले": 5502,
      ".bnf": 5503,
      "▁सभ्यता": 5504,
      "ehru": 5505,
      "▁Minorities": 5506,
      "issile": 5507,
      "_सिनेमा": 5508,
      ".fr/ark": 5509,
      "ymbols": 5510,
      "infobox": 5511,
      "▁प्रधानमंत्री": 5512,
      "▁चुनावों": 5513,
      "teenth": 5514,
      "▁नेतृत्व": 5515,
      "reedom": 5516,
      "vatsyayan-lord": 5517,
      ":/12148/c": 5518,
      "knowindia": 5519,
      ".bnf.fr/ark": 5520,
      ":/12148/cb": 5521,
      ".bnf.fr/ark:/12148/cb": 5522,
      "-a": 5523,
      ".e": 5524,
      "/g": 5525,
      "/hindi": 5526,
      "3/": 5527,
      "415": 5528,
      "52": 5529,
      "67": 5530,
      "9/": 5531,
      "At": 5532,
      "Census": 5533,
      "Ministry_of_": 5534,
      "Se": 5535,
      "_e": 5536,
      "_for": 5537,
      "evan": 5538,
      "ite": 5539,
      "map": 5540,
      "rdu": 5541,
      "sources": 5542,
      "war": 5543,
      "yy": 5544,
      "यल": 5545,
      "रल": 5546,
      "ल्त": 5547,
      "६६": 5548,
      "▁:": 5549,
      "▁ऋ": 5550,
      "▁under": 5551,
      "▁high": 5552,
      "din": 5553,
      "▁\"का": 5554,
      "onetary": 5555,
      "tig": 5556,
      "2019": 5557,
      "alog": 5558,
      "arti": 5559,
      "arly": 5560,
      "▁सम्": 5561,
      "▁समाज": 5562,
      "▁महाराष्ट्र": 5563,
      "र्त": 5564,
      "ise": 5565,
      "्त्री": 5566,
      "▁अथ": 5567,
      "ाल्": 5568,
      "atak": 5569,
      "▁power": 5570,
      "▁CE": 5571,
      "▁जि": 5572,
      "न्धु": 5573,
      "lopedia": 5574,
      "ष्क": 5575,
      "▁sq": 5576,
      "▁south": 5577,
      "umar": 5578,
      "chedu": 5579,
      "▁Per": 5580,
      "▁me": 5581,
      "▁mathe": 5582,
      "ulti": 5583,
      "rown": 5584,
      "_(भारत)": 5585,
      "साई": 5586,
      "agari": 5587,
      "50)": 5588,
      "ड़िया": 5589,
      "_महासागर": 5590,
      "▁From": 5591,
      "27)": 5592,
      "epartment": 5593,
      "▁Increase": 5594,
      "a](https://en.wikipedia.org/wiki/C": 5595,
      "▁नेहर": 5596,
      "▁\"बंगाल": 5597,
      "rust": 5598,
      "owland": 5599,
      "▁original](http://www.": 5600,
      "▁status": 5601,
      "▁disp": 5602,
      "रूप": 5603,
      "▁१९९": 5604,
      "▁\"Template": 5605,
      "_संविधान": 5606,
      "▁[संयुक्त": 5607,
      "▁भूम": 5608,
      "exis": 5609,
      "▁Reg": 5610,
      "▁\"संस्कृत": 5611,
      "▁2019.": 5612,
      "▁2019.\n": 5613,
      "_एशिया": 5614,
      "▁ईस्ट": 5615,
      "▁संविधान\")": 5616,
      "ynas": 5617,
      "limate": 5618,
      "▁आक्रम": 5619,
      "ject": 5620,
      "▁जयंती": 5621,
      "rowth": 5622,
      "langoff-1": 5623,
      "document": 5624,
      "▁km2": 5625,
      "cyclopedia": 5626,
      "▁2018](https://en.wikipedia.org/wiki/India#CITEREF": 5627,
      "Harle1994": 5628,
      "uthority": 5629,
      "ilgrim": 5630,
      "quality": 5631,
      "evanagari": 5632,
      "ल्तनत": 5633,
      "-पाकिस्तान": 5634,
      "/files/": 5635,
      "34)": 5636,
      "3TR": 5637,
      "54": 5638,
      "6-0)": 5639,
      "Chennai": 5640,
      "Dikshit": 5641,
      "European": 5642,
      "National": 5643,
      "PE": 5644,
      "Pro": 5645,
      "Schwartzberg": 5646,
      "Var": 5647,
      "_-": 5648,
      "_a": 5649,
      "_వి": 5650,
      "_17": 5651,
      "_वार": 5652,
      "_కాశ్మీ": 5653,
      "aci": 5654,
      "aut": 5655,
      "bb": 5656,
      "britannica": 5657,
      "cul": 5658,
      "cess": 5659,
      "d=": 5660,
      "dlife": 5661,
      "dones": 5662,
      "election": 5663,
      "nal": 5664,
      "ner": 5665,
      "ple": 5666,
      "s=": 5667,
      "}}": 5668,
      "ंचा": 5669,
      "कल्प": 5670,
      "क\\_पृष्ठसभ": 5671,
      "जं": 5672,
      "जपा": 5673,
      "ण\")": 5674,
      "पैकी": 5675,
      "फोर्ड": 5676,
      "बौ": 5677,
      "यत": 5678,
      "ळख": 5679,
      "ुट": 5680,
      "ूड": 5681,
      "ूण": 5682,
      "ूळ": 5683,
      "ृति": 5684,
      "ेघालय": 5685,
      "ैव": 5686,
      "ैंक": 5687,
      "ोली": 5688,
      "ौसेना": 5689,
      "ంస్కృ": 5690,
      "ఉత్తరా": 5691,
      "ఖో": 5692,
      "ఘాలయ": 5693,
      "చ్": 5694,
      "టై": 5695,
      "టర్": 5696,
      "డమ్": 5697,
      "డఖ్": 5698,
      "ణే": 5699,
      "ణంగా": 5700,
      "తే": 5701,
      "తెల": 5702,
      "దరంగ": 5703,
      "నో": 5704,
      "నంద": 5705,
      "బర్": 5706,
      "బార్": 5707,
      "యె": 5708,
      "రె": 5709,
      "లడఖ్": 5710,
      "ళా": 5711,
      "ళి": 5712,
      "శు": 5713,
      "హించ": 5714,
      "ుకు": 5715,
      "ెన్న": 5716,
      "ెట్రో": 5717,
      "ేతి": 5718,
      "ేఘాలయ": 5719,
      "ైనిక": 5720,
      "ొగలు": 5721,
      "ోళ": 5722,
      "‌కా": 5723,
      "‌మహ": 5724,
      "▁·": 5725,
      "▁६": 5726,
      "▁ఐ": 5727,
      "▁ఖ": 5728,
      "▁–సా.శ.": 5729,
      "▁భారతీయ": 5730,
      "▁out": 5731,
      "▁దినోత్స": 5732,
      "dian": 5733,
      "orest": 5734,
      "▁[978-0-19": 5735,
      "▁[జన": 5736,
      "▁[గో": 5737,
      "▁[गुजरात": 5738,
      "▁\"श": 5739,
      "▁\"పా": 5740,
      "▁\"चीन": 5741,
      "▁\"జన": 5742,
      "▁\"గో": 5743,
      "▁\"మూస:": 5744,
      "▁\"गुजरात": 5745,
      "inance": 5746,
      "enni": 5747,
      "oni": 5748,
      "anth": 5749,
      "read": 5750,
      "](https://hi.wikipedia.org/wiki/दक्षिण": 5751,
      "](https://hi.wikipedia.org/wiki/पाकिस्तान": 5752,
      "](https://te.wikipedia.org/wiki/B": 5753,
      "](https://te.wikipedia.org/wiki/G": 5754,
      "](https://te.wikipedia.org/wiki/భారతదేశ": 5755,
      "](https://te.wikipedia.org/wiki/గో": 5756,
      "](https://te.wikipedia.org/wiki/మూస:": 5757,
      "ess/": 5758,
      "▁पासून": 5759,
      "ారస్వ": 5760,
      "▁मत": 5761,
      "▁मन": 5762,
      "▁मौ": 5763,
      "राम": 5764,
      "र्श": 5765,
      "र्चा:": 5766,
      "thehindu": 5767,
      "](https://mr.wikipedia.org/wiki/सं": 5768,
      "](https://mr.wikipedia.org/wiki/सि": 5769,
      "यास": 5770,
      "ాలె": 5771,
      "▁हवेली": 5772,
      "्याद्र": 5773,
      "िकिस्तान": 5774,
      "\\_(": 5775,
      "\\_मा": 5776,
      "2015": 5777,
      "స్ట": 5778,
      "స్వాతంత్ర్య": 5779,
      "▁పర": 5780,
      "▁పండు": 5781,
      "▁India*](https://books.google.com/books?id=": 5782,
      "▁केली": 5783,
      "ाती": 5784,
      "sive": 5785,
      "atter": 5786,
      "▁industry": 5787,
      "▁inclu": 5788,
      "▁जगातील": 5789,
      "లు](https://te.wikipedia.org/wiki/": 5790,
      "రాన్": 5791,
      "రాస్య": 5792,
      "▁Science": 5793,
      "▁sh": 5794,
      "ingdom": 5795,
      "▁కే": 5796,
      "▁కోర్": 5797,
      "▁11": 5798,
      "▁culture": 5799,
      "త్రిక": 5800,
      "క్స్": 5801,
      "క్కి": 5802,
      "▁వె": 5803,
      "▁వంట": 5804,
      "ांस": 5805,
      "▁many": 5806,
      "rain": 5807,
      "rative": 5808,
      "ంగో": 5809,
      "ists": 5810,
      "▁సముద్ర": 5811,
      "▁సూచ": 5812,
      "▁సౌక": 5813,
      "वियत": 5814,
      "स्तन": 5815,
      "్రామ": 5816,
      "▁गेट": 5817,
      "▁गांधी": 5818,
      "वाघ": 5819,
      "वाजी": 5820,
      "ండా": 5821,
      "ండీ": 5822,
      "ండ్య": 5823,
      "▁\"भारतक": 5824,
      "माय": 5825,
      "తాజ్": 5826,
      "▁उन": 5827,
      "నాథ": 5828,
      "नेई": 5829,
      "नेय": 5830,
      "▁इमार": 5831,
      "త్వా": 5832,
      "▁war": 5833,
      "▁Bank": 5834,
      "▁(సా.శ.16": 5835,
      "त्त्व": 5836,
      "ులు?action=edit&redlink=1": 5837,
      "▁economic": 5838,
      "▁extra": 5839,
      "](https://mai.wikipedia.org/wiki/क": 5840,
      "](https://mai.wikipedia.org/wiki/म": 5841,
      "▁అభి": 5842,
      "▁विदेश": 5843,
      "ildlife": 5844,
      "](https://mr.wikipedia.org/wiki/भारत#CITEREF": 5845,
      "▁...": 5846,
      "▁ప్రజా": 5847,
      "తం?action=edit&redlink=1": 5848,
      ".in)\n": 5849,
      "▁सागर": 5850,
      "▁साम्राज": 5851,
      "_Sh": 5852,
      "పూర్": 5853,
      "ड़ियाँ": 5854,
      "ప్రిల్": 5855,
      "▁ఉంట": 5856,
      "▁ఉత్తర": 5857,
      "_in_New": 5858,
      "▁సామా": 5859,
      "_Affairs": 5860,
      "వాద": 5861,
      "किर्ग": 5862,
      "విధ": 5863,
      "▁राज्यक्षेत्र": 5864,
      "ార్ఖండ్": 5865,
      "క్షరాస్య": 5866,
      "ubcontinent": 5867,
      "ंदर": 5868,
      "णिपूर": 5869,
      "▁करून": 5870,
      "▁number": 5871,
      "ार्मिक": 5872,
      "ast_Asia": 5873,
      "పుర": 5874,
      "emon": 5875,
      "▁నడి": 5876,
      "▁ఇండియా": 5877,
      "▁राज्या": 5878,
      "▁[Asher": 5879,
      "utra": 5880,
      "▁क्षेत्रों": 5881,
      "मेनि": 5882,
      "वी_": 5883,
      "▁Kashmir": 5884,
      "▁[ब्रिटिश": 5885,
      "గుప్": 5886,
      "డుకు": 5887,
      "నేషియా": 5888,
      "▁long": 5889,
      "▁large": 5890,
      "ంగాణ": 5891,
      "▁\"बौद्ध": 5892,
      "▁జన": 5893,
      "లియా": 5894,
      "▁ప్రాచ": 5895,
      "▁విభ": 5896,
      "▁వివిధ": 5897,
      "▁సంఘ": 5898,
      "ोरम": 5899,
      "ानेवारी": 5900,
      "▁हिन्द": 5901,
      "ेंद्रशासित": 5902,
      "ंबेड": 5903,
      "ండిచ్చేరి": 5904,
      "▁निवड": 5905,
      "▁२००": 5906,
      "ज्ञाप": 5907,
      "జీరియా": 5908,
      "▁./వర్గం:Articles": 5909,
      "पुरम": 5910,
      "ంకేతి": 5911,
      "▁मानसून": 5912,
      "सभक": 5913,
      "▁स्वतंत्रता": 5914,
      "%E0%A4%B8": 5915,
      "వేలీ": 5916,
      "वरून": 5917,
      "हितक\\_पृष्ठसभ": 5918,
      "▁उपसा": 5919,
      "ब्ल": 5920,
      "_కాల": 5921,
      "▁मेला\"),": 5922,
      "▁1994": 5923,
      "DP_(": 5924,
      "▁\"जम्मू": 5925,
      "–సా.శ.పూ.3": 5926,
      "▁ప్రాంతాలు\")": 5927,
      "▁युग": 5928,
      "బియా": 5929,
      "union_territ": 5930,
      "तुर्क": 5931,
      "డామన్": 5932,
      "▁రాష్ట్రపతి": 5933,
      "▁./श्रेणी:जान": 5934,
      "conomy_of_": 5935,
      "త్రిపుర": 5936,
      "▁वर्षां": 5937,
      "ंपरा": 5938,
      "गोवा": 5939,
      "▁भूगोल": 5940,
      "बंधन": 5941,
      "▁రైల్వే": 5942,
      "▁बहुत": 5943,
      "య్యూ": 5944,
      "త్తీస్": 5945,
      "▁ప్రదేశ్](https://te.wikipedia.org/wiki/": 5946,
      "meric": 5947,
      "national-language": 5948,
      "▁सर्वांत": 5949,
      "▁सर्वोच्च": 5950,
      "నాగాలా": 5951,
      "ohn": 5952,
      "▁पुरालेखित।,": 5953,
      "▁\"జమ్మూ": 5954,
      "▁people": 5955,
      "▁ओर": 5956,
      "▁ओळख": 5957,
      "▁कार्य": 5958,
      "▁పాకిస్తాన్": 5959,
      "पेक्षा": 5960,
      "समिया": 5961,
      "కోవ": 5962,
      "కోబార్": 5963,
      "](https://te.wikipedia.org/wiki/జమ్మూ": 5964,
      "ల్లవ": 5965,
      "thnologue.com/": 5966,
      "usiness/": 5967,
      "_और_संघ": 5968,
      "▁वेग": 5969,
      "▁कुछ": 5970,
      "क्स\\_देश": 5971,
      "क्सफोर्ड": 5972,
      "▁लाग": 5973,
      "ताजिकिस्तान": 5974,
      "_के_आधार_पर_भारत_के_राज्यों_की_सूची": 5975,
      "రేబియా": 5976,
      "बांग्लादेश": 5977,
      "▁द्वीपसमूह": 5978,
      "టాక్": 5979,
      "▁మాత్ర": 5980,
      "్రిటిష్": 5981,
      "▁जयते": 5982,
      "వెను": 5983,
      "ూచి": 5984,
      "భారతదేశ_రాష్ట్రాలు,_కేంద్రపాలిత_ప్రాంత": 5985,
      "ग्नेय": 5986,
      "ప్పటిక": 5987,
      "तांशी": 5988,
      "లేషియా": 5989,
      "▁మొదల": 5990,
      "भिज्ञाप": 5991,
      "तेलंगाना": 5992,
      "ద్యు": 5993,
      "▁rule": 5994,
      "▁చిత్ర": 5995,
      "ద్వీప్": 5996,
      "▁ఉపఖండ": 5997,
      "▁దేశంలోని": 5998,
      "▁కాంగ్రెసు": 5999,
      ",NGDP": 6000,
      "पदण्ड": 6001,
      "ఆగష్టు": 6002,
      "లక్షద్వీప్": 6003,
      "హాయం:": 6004,
      "ీకరణ": 6005,
      "ోల్‌కా": 6006,
      "మిజోరా": 6007,
      "िक्कीम": 6008,
      "ublications/": 6009,
      "/articleshow/5": 6010,
      "बेकिस्तान": 6011,
      "India_Goa": 6012,
      "etrag": 6013,
      "ांची_यादी_(": 6014,
      "ర్యానా": 6015,
      "▁[ఢిల్లీ](https://te.wikipedia.org/wiki/ఢిల్లీ": 6016,
      "कारीबौ": 6017,
      "టిబెట్": 6018,
      "మెరికా": 6019,
      "\\_सहितक\\_पृष्ठसभ": 6020,
      "एसियाक": 6021,
      "▁[अंग्रेज़ी](https://hi.wikipedia.org/wiki/अंग्रेज़ी_भाषा": 6022,
      "బడ్డీ": 6023,
      "ేరళ": 6024,
      "्रुनेई": 6025,
      "్రైస్త": 6026,
      "▁(eds.).": 6027,
      "▁बांध": 6028,
      "ండమాన్": 6029,
      "ెలవుదిన": 6030,
      "▁अतिशय": 6031,
      "_by_GDP_(": 6032,
      "](https://mr.wikipedia.org/wiki/जगातील_देशांची_यादी_(": 6033,
      "विकिपीडिया:संदर्भ": 6034,
      "▁among": 6035,
      "3TRt": 6036,
      "DikshitSchwartzberg": 6037,
      "britannica.com/": 6038,
      "తెలంగాణ": 6039,
      "ెన్నై": 6040,
      "‌మహల్": 6041,
      "▁\"गुजरात\")": 6042,
      "्याद्री": 6043,
      "\\_मापदण्ड": 6044,
      "తాజ్‌మహల్": 6045,
      "_in_New_Delhi": 6046,
      "క్షరాస్యత": 6047,
      "ंबेडकर": 6048,
      "तुर्कमेनि": 6049,
      "▁./श्रेणी:जानकारीबौ": 6050,
      "నాగాలాండ్": 6051,
      "](https://te.wikipedia.org/wiki/జమ్మూ_కాశ్మీ": 6052,
      "भिज्ञापक": 6053,
      "ోల్‌కాతా": 6054,
      "\\_सहितक\\_पृष्ठसभ#": 6055,
      "DikshitSchwartzberg2023": 6056,
      "▁./श्रेणी:जानकारीबौक्स\\_देश": 6057,
      "%)": 6058,
      "-S": 6059,
      "-on-": 6060,
      "125": 6061,
      "2–": 6062,
      "2]](https://en.wikipedia.org/wiki/India#cite_note-FOOTNOTE": 6063,
      "577": 6064,
      "HA": 6065,
      "NA": 6066,
      "Re": 6067,
      "Spear": 6068,
      "_15": 6069,
      "_with": 6070,
      "aul": 6071,
      "b)": 6072,
      "cor": 6073,
      "cted": 6074,
      "ime": 6075,
      "icha": 6076,
      "press": 6077,
      "ving": 6078,
      "{{": 6079,
      "गी": 6080,
      "न्या": 6081,
      "र्य": 6082,
      "ृष": 6083,
      "ेल": 6084,
      "pee": 6085,
      "▁[का": 6086,
      "▁[गण": 6087,
      "▁[भू": 6088,
      "▁[दिल्ली": 6089,
      "▁[तमिल": 6090,
      "▁\"India": 6091,
      "en:": 6092,
      "ारो": 6093,
      "्यु": 6094,
      "▁सर": 6095,
      "cise": 6096,
      "▁पै": 6097,
      "▁हर": 6098,
      "19.": 6099,
      "\\_of": 6100,
      "lect": 6101,
      "▁आधुनिक": 6102,
      "-07": 6103,
      "lion": 6104,
      "▁inf": 6105,
      "entr": 6106,
      "नाइ": 6107,
      "▁Con": 6108,
      "str": 6109,
      "▁Afric": 6110,
      "ety": 6111,
      "िती": 6112,
      ".jpe": 6113,
      "▁शा": 6114,
      "▁शहरी": 6115,
      "▁Raj": 6116,
      "26.": 6117,
      "▁उद्योग": 6118,
      "▁संस्थान": 6119,
      "▁संख्या": 6120,
      "ict": 6121,
      "▁De": 6122,
      "▁David": 6123,
      "▁Be": 6124,
      "त्ति": 6125,
      "upta": 6126,
      "▁1960": 6127,
      "28.": 6128,
      "▁\"St": 6129,
      "_Summit": 6130,
      "▁India\").": 6131,
      "407": 6132,
      "▁[\"A": 6133,
      "▁human": 6134,
      "▁house": 6135,
      "्राम": 6136,
      "17.": 6137,
      "▁Fund": 6138,
      "▁\"सी": 6139,
      "िसी": 6140,
      "▁Ocean": 6141,
      "avi": 6142,
      "रेन्द्र": 6143,
      "_population": 6144,
      "▁पाकिस्तान": 6145,
      "ustral": 6146,
      "ultur": 6147,
      "ineering": 6148,
      "arket": 6149,
      "endra": 6150,
      "_For": 6151,
      "▁States": 6152,
      "▁Programme": 6153,
      "▁व्यवस्था": 6154,
      "▁territory": 6155,
      "catalog": 6156,
      "▁used": 6157,
      "rmy": 6158,
      "%E0%A5%87": 6159,
      "▁\"हिन्दी\")": 6160,
      "_in_South_Asia": 6161,
      "मेरिकन": 6162,
      "▁उदाहरण": 6163,
      "bhash": 6164,
      "olitical_": 6165,
      "▁भूमिका": 6166,
      "ynasty": 6167,
      "ast_Asia_Summit": 6168,
      "etraglia": 6169,
      "ichael": 6170,
      "\"](http://www.": 6171,
      "\"](https://web.archive.org/web/20": 6172,
      "-F": 6173,
      "-n": 6174,
      "-and": 6175,
      ".ni": 6176,
      ".world": 6177,
      "/D": 6178,
      "0–": 6179,
      "123": 6180,
      "2)\n": 6181,
      "6–": 6182,
      "6).": 6183,
      "82": 6184,
      "Front": 6185,
      "Home": 6186,
      "IJ": 6187,
      "LM": 6188,
      "\\*": 6189,
      "_ग": 6190,
      "_च": 6191,
      "_जय": 6192,
      "ek": 6193,
      "fgh": 6194,
      "k:": 6195,
      "os/": 6196,
      "y_": 6197,
      "yle": 6198,
      "zation": 6199,
      "ऊर्जा": 6200,
      "ऑस्ट्रेल": 6201,
      "गलु": 6202,
      "जल": 6203,
      "पीय": 6204,
      "भग": 6205,
      "यर": 6206,
      "यी": 6207,
      "ये": 6208,
      "रेंद्र": 6209,
      "ृश्य": 6210,
      "ॉकी": 6211,
      "ोला": 6212,
      "२००": 6213,
      "▁°": 6214,
      "▁he": 6215,
      "▁9.": 6216,
      "▁article": 6217,
      "▁term": 6218,
      ".org/w": 6219,
      "▁[U": 6220,
      "▁[s": 6221,
      "▁[Oxford": 6222,
      "▁\"राष्ट्रीय": 6223,
      "▁\"पश्चिम": 6224,
      "▁\"Oxford": 6225,
      "tice": 6226,
      "rect": 6227,
      "▁सित": 6228,
      "](https://hi.wikipedia.org/wiki/ल": 6229,
      "](https://hi.wikipedia.org/wiki/तमिल": 6230,
      "cia.gov/": 6231,
      "▁मई": 6232,
      "▁मह": 6233,
      "▁they": 6234,
      "ripur": 6235,
      "as,": 6236,
      "\\_p": 6237,
      "\\_cont": 6238,
      "2013": 6239,
      "ेंगलु": 6240,
      "vel": 6241,
      "-135": 6242,
      "](https://hi.wikipedia.org/wiki/भारत_के_राज्य": 6243,
      "▁प्रभा": 6244,
      "▁जब": 6245,
      "▁ज्या": 6246,
      "adwe": 6247,
      "adhy": 6248,
      "▁social": 6249,
      "▁में,": 6250,
      "inger": 6251,
      "▁14.": 6252,
      "▁cl": 6253,
      "urve": 6254,
      "urton": 6255,
      "chool": 6256,
      "▁maj": 6257,
      "▁गई": 6258,
      "unrecognized": 6259,
      "10)": 6260,
      "तिब्ब": 6261,
      "ics": 6262,
      "▁[मु": 6263,
      "संधान": 6264,
      "▁D.": 6265,
      "▁Bi": 6266,
      "▁1965": 6267,
      "म्भ": 6268,
      "म्म": 6269,
      "▁परंपरा": 6270,
      "▁यूनिवर्सिटी": 6271,
      "ainism": 6272,
      "-317": 6273,
      "pecial:EditPage/": 6274,
      "_मो": 6275,
      "▁Nadu": 6276,
      "▁लिये": 6277,
      "▁१०": 6278,
      "elang": 6279,
      "apan": 6280,
      "%20A": 6281,
      "]](https://hi.wikipedia.org/wiki/भारत#cite_note-pib": 6282,
      "▁\"कर्नाटक": 6283,
      "▁\"केर": 6284,
      "_के_अ": 6285,
      "जापान": 6286,
      "▁[कर्नाटक": 6287,
      "ज़ा": 6288,
      "▁स्मार": 6289,
      "▁Li": 6290,
      "▁Languages": 6291,
      "harm": 6292,
      "ott": 6293,
      ")[[3": 6294,
      "▁भाषा\")[[": 6295,
      "logo": 6296,
      "▁चार": 6297,
      "_128": 6298,
      "2011religion": 6299,
      "ंबर": 6300,
      "](Special:BookSources/978-0-19": 6301,
      "▁२६": 6302,
      "induism": 6303,
      "▁जनजाति": 6304,
      "▁\"Special:BookSources/978-0-19": 6305,
      "▁१९५०": 6306,
      "▁मान्यता": 6307,
      "html).": 6308,
      "▁मेला](https://hi.wikipedia.org/wiki/": 6309,
      "aries": 6310,
      "feb": 6311,
      "\")*,": 6312,
      "1967": 6313,
      "overe": 6314,
      "▁[National": 6315,
      "▁सिंह": 6316,
      "▁left": 6317,
      "▁control": 6318,
      "ोर्ट": 6319,
      "](https://en.wikipedia.org/wiki/List_of_countries": 6320,
      "ility": 6321,
      "local_": 6322,
      "▁unrecognized": 6323,
      "dependence": 6324,
      "NCLM": 6325,
      "▁[पाकिस्तान](https://hi.wikipedia.org/wiki/पाकिस्तान": 6326,
      "ligence": 6327,
      "actbook/": 6328,
      "encies_by": 6329,
      "-lead": 6330,
      "-language\\_sources": 6331,
      "olkata": 6332,
      "library": 6333,
      "Report.pdf)": 6334,
      "telligence": 6335,
      "▁(2018),": 6336,
      "akshadwe": 6337,
      "क्षरता": 6338,
      "विद्यालय": 6339,
      "50thReport.pdf)": 6340,
      "▁कॉंग्रेस": 6341,
      "▁dependencies": 6342,
      "nclm.nic.in/shared/linkimages/NCLM": 6343,
      "arnatak": 6344,
      "▁Wikidata": 6345,
      "▁डॉलर": 6346,
      "_and_dependencies_by": 6347,
      "Census2011religion": 6348,
      "▁अथवा": 6349,
      "मायण": 6350,
      "3TRtDwAAQBAJ&pg=PA": 6351,
      "Spear1990": 6352,
      "fghan": 6353,
      "\\_contain": 6354,
      "ेंगलुरु": 6355,
      "pecial:EditPage/Template:": 6356,
      "-language\\_sources\\_(": 6357,
      "akshadweep": 6358,
      "nclm.nic.in/shared/linkimages/NCLM50thReport.pdf)": 6359,
      "\"](http://": 6360,
      "\"](https://books.google.com/books?id=": 6361,
      ".uk": 6362,
      "/S": 6363,
      "0)": 6364,
      "1-4": 6365,
      "3-": 6366,
      "313": 6367,
      "58)": 6368,
      "6]](https://en.wikipedia.org/wiki/India#cite_note-": 6369,
      "9–": 6370,
      "Gua": 6371,
      "JIJ": 6372,
      "LO": 6373,
      "Mumbai": 6374,
      "New": 6375,
      "QAAQBAJ&pg=PA": 6376,
      "S.": 6377,
      "Zva": 6378,
      "_me": 6379,
      "_38": 6380,
      "ault": 6381,
      "bank": 6382,
      "fli": 6383,
      "go": 6384,
      "iri": 6385,
      "lm": 6386,
      "owe": 6387,
      "que": 6388,
      "stitu": 6389,
      "ंस": 6390,
      "ंनी": 6391,
      "गाल": 6392,
      "गस्ट": 6393,
      "ग्वे": 6394,
      "ञ्": 6395,
      "डु": 6396,
      "णारे": 6397,
      "फगा": 6398,
      "रवि": 6399,
      "लक": 6400,
      "ळची": 6401,
      "वव": 6402,
      "वरा": 6403,
      "षभ": 6404,
      "सित": 6405,
      "ी_भाषा": 6406,
      "ुरा": 6407,
      "ॅक": 6408,
      "ेतील": 6409,
      "ोसी": 6410,
      "ोळी": 6411,
      "२०": 6412,
      "▁ci": 6413,
      "▁lo": 6414,
      "▁ra": 6415,
      "▁7.": 6416,
      "▁oc": 6417,
      "orical": 6418,
      "▁[पश्चिम": 6419,
      "▁\"वर्ग:CS1": 6420,
      "▁\"तमिळनाडू": 6421,
      "ार्व": 6422,
      "anchi": 6423,
      "ancy": 6424,
      "hief": 6425,
      "tici": 6426,
      "ties/": 6427,
      "report": 6428,
      "▁सँ": 6429,
      "▁पहि": 6430,
      "](https://mr.wikipedia.org/wiki/ह": 6431,
      "](https://mr.wikipedia.org/wiki/बा": 6432,
      "](https://mr.wikipedia.org/wiki/वर्ग:CS1": 6433,
      "](https://mr.wikipedia.org/wiki/तमिळनाडू": 6434,
      "1970": 6435,
      "▁there": 6436,
      "▁आढ": 6437,
      "▁आर": 6438,
      "▁आर्": 6439,
      "▁आले": 6440,
      "▁आन्दोल": 6441,
      "ात\\_मापदण्ड": 6442,
      "-05": 6443,
      "▁incre": 6444,
      "▁Centre": 6445,
      "ंगोल": 6446,
      "त्रिक": 6447,
      "भाष": 6448,
      "ide": 6449,
      "▁Affairs": 6450,
      "▁SAARC": 6451,
      "▁तरी": 6452,
      "▁तयार": 6453,
      "▁sp": 6454,
      "▁ser": 6455,
      "umeration": 6456,
      "▁col": 6457,
      "0000": 6458,
      "▁both": 6459,
      "ांवर": 6460,
      "ले.\n": 6461,
      "▁minister": 6462,
      "▁movement": 6463,
      "vert": 6464,
      "verse": 6465,
      "▁गठ": 6466,
      "▁गो": 6467,
      "▁Territory": 6468,
      "▁शत": 6469,
      "▁Republic": 6470,
      "प्रजासत्ताक": 6471,
      "mploy": 6472,
      "269,": 6473,
      "238": 6474,
      "▁इंड": 6475,
      "ssam": 6476,
      "243": 6477,
      "▁economy": 6478,
      ".[[३": 6479,
      ".[[४": 6480,
      "287,": 6481,
      "▁\"मान": 6482,
      "1857": 6483,
      "▁Europe": 6484,
      "द्दाख": 6485,
      "▁Government": 6486,
      "▁Gandhi": 6487,
      "22.": 6488,
      "ryan": 6489,
      "्राष्ट्र": 6490,
      "▁Factbook": 6491,
      "▁होत": 6492,
      "णिपुर": 6493,
      "Harv\\_and\\_Sfn\\_no-target\\_errors\n": 6494,
      "शियातील": 6495,
      "▁[Singh": 6496,
      "▁north": 6497,
      "वर्तन": 6498,
      "]](https://en.wikipedia.org/wiki/India#cite_note-FOOTNOTEMetcalfMetcalf2006": 6499,
      "मे\\_अ": 6500,
      "▁[बंगाल": 6501,
      "त्तर_प्रदेश": 6502,
      "▁largest": 6503,
      "▁नावा": 6504,
      "दाबाद": 6505,
      "ोगरी": 6506,
      "▁प्रामुख्य": 6507,
      "रुव": 6508,
      "▁वर्षा": 6509,
      "-53": 6510,
      "ज्ञात\\_मापदण्ड": 6511,
      "निर्": 6512,
      "▁टा": 6513,
      "▁disc": 6514,
      "▁१९७": 6515,
      "](https://mr.wikipedia.org/wiki/महाराष्ट्र": 6516,
      "लोकसंख्येनुसार": 6517,
      "▁[2](https://mr.wikipedia.org/wiki/भारत#cite_ref-": 6518,
      "_न्याया": 6519,
      "सभ\\_सहितक\\_पृष्ठसभ#": 6520,
      "▁[1](https://mr.wikipedia.org/wiki/भारत#cite_ref-": 6521,
      "▁मोठा": 6522,
      "न्नड़": 6523,
      "मालया": 6524,
      "html)": 6525,
      "[![](https://upload.wikimedia.org/wikipedia/commons/thumb/7/": 6526,
      "▁सुरक्षा": 6527,
      "▁सुरुव": 6528,
      "▁Valley": 6529,
      "atis": 6530,
      "स्वातंत्र्य": 6531,
      "riculture": 6532,
      "▁rate": 6533,
      "▁राष्ट्रपती": 6534,
      "क्षेत्रफळ": 6535,
      "mblem": 6536,
      "▁country": 6537,
      "▁बहुतांशी": 6538,
      "▁\"History": 6539,
      "▁\"संयुक्त": 6540,
      "ography": 6541,
      "▁भागात": 6542,
      "▁आशिया\")": 6543,
      "▁स्थानिक": 6544,
      "ेकड": 6545,
      "वैत": 6546,
      "विकास": 6547,
      "](https://en.wikipedia.org/wiki/History": 6548,
      "▁न्यायाधीश": 6549,
      "a.gov.in/": 6550,
      "▁play": 6551,
      "▁लेणी": 6552,
      "ociety": 6553,
      "](https://mai.wikipedia.org/wiki/भारतक": 6554,
      "▁2024.": 6555,
      "jection": 6556,
      "ख्खन": 6557,
      "▁वार्ता:": 6558,
      "akhand": 6559,
      "वासी": 6560,
      "▁खासदार": 6561,
      "d/d": 6562,
      "▁घाटी": 6563,
      "नत्व": 6564,
      "▁world's": 6565,
      "rishn": 6566,
      "onsoon": 6567,
      "▁(1,269,": 6568,
      "▁वृद्ध": 6569,
      "▁3,287,": 6570,
      "▁शैली": 6571,
      "▁झाली.": 6572,
      "PPP)": 6573,
      "formation": 6574,
      "न्तर्राष्ट्र": 6575,
      "▁विषय": 6576,
      "▁रुपया": 6577,
      "▁2006](https://en.wikipedia.org/wiki/India#CITEREFMetcalfMetcalf2006),": 6578,
      "▁रहल": 6579,
      "/index.php?": 6580,
      "हमदाबाद": 6581,
      "▁अजून": 6582,
      "▁जातो.": 6583,
      "▁estimate": 6584,
      "▁([link](https://mr.wikipedia.org/wiki/वर्ग:CS1": 6585,
      ".svg.png)": 6586,
      "mritsar": 6587,
      "▁./वर्ग:CS1\\_maint:\\_": 6588,
      "▁Registrar": 6589,
      "_वार्ता:": 6590,
      "▁\"चीन\")": 6591,
      "▁./श्रेणी:जानकारीबौक्स\\_देशमे\\_अ": 6592,
      "\\_of\\_": 6593,
      "▁article:": 6594,
      "urvey": 6595,
      "fghanistan": 6596,
      "GuaJIJ": 6597,
      "ZvaGuaJIJ": 6598,
      "flict": 6599,
      "▁occ": 6600,
      "▁\"तमिळनाडू\")": 6601,
      "▁प्रामुख्याने": 6602,
      "ज्ञात\\_मापदण्डसभ\\_सहितक\\_पृष्ठसभ#": 6603,
      "▁3,287,26": 6604,
      "▁([link](https://mr.wikipedia.org/wiki/वर्ग:CS1_maint:": 6605,
      "▁./श्रेणी:जानकारीबौक्स\\_देशमे\\_अज्ञात\\_मापदण्डसभ\\_सहितक\\_पृष्ठसभ#": 6606,
      "ZvaGuaJIJgo": 6607,
      "%E0%B0%": 6608,
      "-j": 6609,
      "-India": 6610,
      "/India": 6611,
      "0/0": 6612,
      "4).": 6613,
      "91": 6614,
      "Flag": 6615,
      "KI": 6616,
      "Robb": 6617,
      "Sharma": 6618,
      "Vu": 6619,
      "YS": 6620,
      "ZVu": 6621,
      "_त": 6622,
      "_ध": 6623,
      "_అ": 6624,
      "_ఎ": 6625,
      "_ర": 6626,
      "_24": 6627,
      "_యు": 6628,
      "_రాజ": 6629,
      "_term": 6630,
      "_శాస్త్ర": 6631,
      "br": 6632,
      "c/": 6633,
      "eld": 6634,
      "hal": 6635,
      "hdr": 6636,
      "if": 6637,
      "kZVu": 6638,
      "lack": 6639,
      "tw": 6640,
      "udi": 6641,
      "via": 6642,
      "yam": 6643,
      "ईल": 6644,
      "चर": 6645,
      "चार": 6646,
      "चेंज": 6647,
      "जें": 6648,
      "थियार": 6649,
      "फे": 6650,
      "मंड": 6651,
      "वत": 6652,
      "वल": 6653,
      "स,": 6654,
      "सू": 6655,
      "ॉक": 6656,
      "ोण": 6657,
      "ोडो": 6658,
      "ఒలి": 6659,
      "కూ": 6660,
      "క్ర": 6661,
      "గే": 6662,
      "గ్ర": 6663,
      "గతి": 6664,
      "జు": 6665,
      "ఞాన": 6666,
      "టం": 6667,
      "టన్": 6668,
      "పం": 6669,
      "పో": 6670,
      "పచ్చ": 6671,
      "మ్య": 6672,
      "యాలో": 6673,
      "లె": 6674,
      "వై": 6675,
      "వ్": 6676,
      "వత్స": 6677,
      "వృద్ధి": 6678,
      "శ్రమ": 6679,
      "సీ": 6680,
      "స్రా": 6681,
      "హక": 6682,
      "హన": 6683,
      "ాంగ": 6684,
      "ీఠ": 6685,
      "ువు": 6686,
      "ూపా": 6687,
      "ృష్": 6688,
      "ెహ": 6689,
      "ెట్": 6690,
      "ేన": 6691,
      "ైద": 6692,
      "ైగా": 6693,
      "ొయ": 6694,
      "▁ఘ": 6695,
      "▁జా": 6696,
      "dir": 6697,
      "ortheast": 6698,
      "](Category:": 6699,
      "▁[V": 6700,
      "▁[c": 6701,
      "▁[గ": 6702,
      "▁[కు": 6703,
      "▁[పా": 6704,
      "▁[राष्ट्रीय": 6705,
      "▁[రాష్ట్ర": 6706,
      "▁[దక్షిణ": 6707,
      "▁[హిందూ": 6708,
      "▁[పాకిస్తాన్": 6709,
      "▁[ముంబై": 6710,
      "▁\"గ": 6711,
      "▁\"Category:": 6712,
      "▁\"దక్షిణ": 6713,
      "▁\"మూస": 6714,
      "▁\"హిందూ": 6715,
      "▁\"పాకిస్తాన్": 6716,
      "▁\"ప్రపంచ": 6717,
      "▁\"ముంబై": 6718,
      "▁\"వర్గం:Harv": 6719,
      "▁\"ప్రత్యేక:EditPage/మూస:": 6720,
      "tered": 6721,
      "ारम्भ": 6722,
      "hild": 6723,
      "hird": 6724,
      "arli": 6725,
      "arna": 6726,
      "▁सल्तनत": 6727,
      "](https://hi.wikipedia.org/wiki/य": 6728,
      "](https://te.wikipedia.org/wiki/మూస": 6729,
      "](https://te.wikipedia.org/wiki/జన": 6730,
      "](https://te.wikipedia.org/wiki/వర్గం:Harv": 6731,
      "](https://te.wikipedia.org/wiki/ప్రత్యేక:EditPage/మూస:": 6732,
      "es,": 6733,
      "▁पहा": 6734,
      "▁(India": 6735,
      "र्मा": 6736,
      "**\n": 6737,
      "isl": 6738,
      "్యాలె": 6739,
      "rial": 6740,
      "\\_क": 6741,
      "▁अलग": 6742,
      "స్వా": 6743,
      "▁పొ": 6744,
      "▁పద్ధ": 6745,
      "▁పైగా": 6746,
      "ర్ద": 6747,
      "ర్ష": 6748,
      "న్ను": 6749,
      "att": 6750,
      "▁दृश्य": 6751,
      "](https://hi.wikipedia.org/wiki/भारत_स": 6752,
      "](https://hi.wikipedia.org/wiki/भारत_के": 6753,
      "▁C.": 6754,
      "▁Company": 6755,
      "▁जिन": 6756,
      "ंगाली": 6757,
      "भाजन": 6758,
      "idy": 6759,
      "రాజ్యం": 6760,
      "=1&": 6761,
      "स्लि": 6762,
      "లోయ": 6763,
      "▁S.": 6764,
      "▁Summit\")": 6765,
      "▁बड़े": 6766,
      "▁కేంద్ర": 6767,
      "▁కంపెనీ": 6768,
      "▁trans": 6769,
      "ాలు\")\n": 6770,
      "ాలుగా": 6771,
      "క్తి": 6772,
      "78.": 6773,
      "▁వై": 6774,
      "▁made": 6775,
      "▁member": 6776,
      "భారతదేశం\n": 6777,
      "▁సమా": 6778,
      "▁సర్వ": 6779,
      "▁సుల్తాన": 6780,
      "road": 6781,
      "▁2011.": 6782,
      "_सु": 6783,
      "_से": 6784,
      "unknown": 6785,
      "▁M.": 6786,
      "▁Machine": 6787,
      "▁सेवा": 6788,
      "ournal": 6789,
      "▁చర్చ:": 6790,
      "▁Rothermund": 6791,
      "267": 6792,
      "తాక": 6793,
      "103": 6794,
      "నాట": 6795,
      "తి](https://te.wikipedia.org/wiki/": 6796,
      "సింది.": 6797,
      "ical_": 6798,
      "▁[मुंबई": 6799,
      "संबर": 6800,
      "▁Delhi": 6801,
      "▁western": 6802,
      "24.": 6803,
      "▁Bengal": 6804,
      "र्वोच्च": 6805,
      "त्ता": 6806,
      "aya": 6807,
      "–సా.శ.14": 6808,
      "–సా.శ.1947)": 6809,
      "▁అను": 6810,
      "ిక,": 6811,
      "▁रक्षा": 6812,
      "50–సా.శ.": 6813,
      "erry": 6814,
      "▁2026": 6815,
      "కుపచ్చ": 6816,
      "content": 6817,
      "](https://te.wikipedia.org/wiki/భారతదేశం#CITEREF": 6818,
      "हाँ": 6819,
      "22-9": 6820,
      "▁[\"P": 6821,
      "▁ఆకుపచ్చ": 6822,
      "1991": 6823,
      "▁రే": 6824,
      "ध्य_प्रदेश": 6825,
      "మాతర": 6826,
      "మాబాద్": 6827,
      "▁rep": 6828,
      "రుపు": 6829,
      "రుగు": 6830,
      ".gov.in": 6831,
      "14.": 6832,
      "search": 6833,
      "](https://hi.wikipedia.org/wiki/भारत#cite_ref-pib": 6834,
      "](https://hi.wikipedia.org/wiki/भारत#cite_ref-langoff": 6835,
      "]](https://hi.wikipedia.org/wiki/भारत#cite_note-langoff-1": 6836,
      "▁धार्मिक": 6837,
      "▁[St": 6838,
      "epal": 6839,
      "emoc": 6840,
      "emale": 6841,
      "▁నది": 6842,
      "మించ": 6843,
      "▁తన": 6844,
      "_Pro": 6845,
      "a](https://en.wikipedia.org/wiki/A": 6846,
      "a](https://en.wikipedia.org/wiki/K": 6847,
      "ం](https://te.wikipedia.org/wiki/అ": 6848,
      "ం](https://te.wikipedia.org/wiki/క": 6849,
      "▁began": 6850,
      "ంబంధ": 6851,
      "त्न": 6852,
      "-7mar": 6853,
      "గువ": 6854,
      "▁मुर्मू": 6855,
      "s](https://en.wikipedia.org/wiki/List_of_": 6856,
      "ibet": 6857,
      "▁United": 6858,
      "▁సంస్థ": 6859,
      "▁సంవత్స": 6860,
      "ternal": 6861,
      "ternational_": 6862,
      "డియా": 6863,
      "ummer": 6864,
      "45)": 6865,
      "ట్లు": 6866,
      "_చర్చ:": 6867,
      "▁\"మధ్య": 6868,
      "▁ఎన్నిక": 6869,
      "▁ఎన్ను": 6870,
      "▁[మధ్య": 6871,
      "▁(సా.శ.పూ.1200": 6872,
      "oreign": 6873,
      "▁గణ": 6874,
      "](https://te.wikipedia.org/wiki/మధ్య": 6875,
      "रबी": 6876,
      "120]](https://hi.wikipedia.org/wiki/भारत#cite_note-langoff-1": 6877,
      "न्तु": 6878,
      "%2C_India": 6879,
      "▁./వర్గం:Pages\\_using\\_": 6880,
      "▁./వర్గం:Harv\\_and\\_Sfn\\_no-target\\_errors\n": 6881,
      "viol": 6882,
      "▁मानव": 6883,
      "]](https://te.wikipedia.org/wiki/భారతదేశం#cite_note-india.gov.in": 6884,
      "_సంగీతం": 6885,
      "_Empire": 6886,
      "▁सुधार": 6887,
      "ారిగా": 6888,
      ".nic.in)\n": 6889,
      "ock": 6890,
      "1962": 6891,
      "నాయక": 6892,
      "MetcalfMetcalf201": 6893,
      "హాస": 6894,
      "▁[जम्मू": 6895,
      "▁[संस्कृत": 6896,
      "०००": 6897,
      "దావరి": 6898,
      "▁కూడిన": 6899,
      "ंतरराष्ट्रीय": 6900,
      "▁./श्रेणी:CS1": 6901,
      "▁वर्षों": 6902,
      "▁([help](https://te.wikipedia.org/wiki/వర్గం:Harv": 6903,
      "▁दिसंबर": 6904,
      "▁నిర్వ": 6905,
      "▁స్థా": 6906,
      "edie": 6907,
      "▁CITEREFStein1998": 6908,
      "▁CITEREFSingh2009": 6909,
      "Stein1998),": 6910,
      "Singh2009),": 6911,
      "रोहर": 6912,
      "▁बहुमत": 6913,
      "code": 6914,
      "ों_की_सूची?action=edit&redlink=1": 6915,
      "ోర్చు": 6916,
      "▁थे": 6917,
      "శాఖ": 6918,
      "_बंगाल": 6919,
      "▁[జమ్మూ": 6920,
      "▁मंदिर\")": 6921,
      "▁పాత్ర": 6922,
      "](https://hi.wikipedia.org/wiki/भारत#CITEREFStein1998),": 6923,
      "](https://hi.wikipedia.org/wiki/भारत#CITEREFSingh2009),": 6924,
      "▁[![](https://upload.wikimedia.org/wikipedia/commons/thumb/c/c": 6925,
      "8/8": 6926,
      "पश्चिम_बंगाल": 6927,
      "▁\"చైనా": 6928,
      "Oxford_University_Press": 6929,
      "▁ఉన్నాయి.\n": 6930,
      "▁ఒకటి": 6931,
      "KulkeRothermund200": 6932,
      "జ్ఞాన": 6933,
      "rgani": 6934,
      "▁ईसा": 6935,
      "▁[t](https://te.wikipedia.org/wiki/మూస": 6936,
      "Stein2010),": 6937,
      "uddhism": 6938,
      "▁माध्य": 6939,
      "▁మార్గాలు": 6940,
      "రోపా": 6941,
      "urrent": 6942,
      "▁[e](https://te.wikipedia.org/wiki/ప్రత్యేక:EditPage/మూస:": 6943,
      "▁Empire\")": 6944,
      "▁[v](https://te.wikipedia.org/wiki/మూస:": 6945,
      "▁बंगाल\")": 6946,
      "▁భారతదేశానికి": 6947,
      "▁మతము\")": 6948,
      "▁మతము\"),": 6949,
      "▁2009](https://hi.wikipedia.org/wiki/भारत#CITEREFSingh2009),": 6950,
      "ducation": 6951,
      "ీనంలో": 6952,
      "▁జాబితా\")\n": 6953,
      "▁\"पंजाब\")": 6954,
      "▁ప్రపంచంలో": 6955,
      "▁ప్రభుత్వ": 6956,
      "▁ప్రభుత్వం": 6957,
      "docs/": 6958,
      "4/4": 6959,
      "▁మొదటి": 6960,
      "esert": 6961,
      "స్లామాబాద్": 6962,
      "▁పాలన": 6963,
      "▁కార్య": 6964,
      "▁కారణంగా": 6965,
      "▁కలిగి": 6966,
      "ంటుంది.": 6967,
      "fication": 6968,
      "▁सिनेमा\"),": 6969,
      "శోకుడు": 6970,
      "▁జరిగిన": 6971,
      "](https://doi.org/10.10": 6972,
      "olden_Temple": 6973,
      "▁दीव": 6974,
      "yanmar": 6975,
      "▁[భారతదేశంలో": 6976,
      "▁అనేక": 6977,
      "▁ఎక్కువగా": 6978,
      "▁2010](https://en.wikipedia.org/wiki/India#CITEREFStein2010),": 6979,
      "▁1998](https://hi.wikipedia.org/wiki/भारत#CITEREFStein1998),": 6980,
      "टिबंधीय": 6981,
      "_युद्ध": 6982,
      "▁వారసత్వ": 6983,
      "▁ప్రస్తుతం": 6984,
      "▁రోడ్": 6985,
      "▁తరువాత": 6986,
      "▁బెంగాల్": 6987,
      "ంపిక్": 6988,
      "ministrative": 6989,
      "▁imp": 6990,
      "▁Press](https://en.wikipedia.org/wiki/Oxford_University_Press": 6991,
      "ultanate": 6992,
      "Collin": 6993,
      "▁\"मुंबई\")": 6994,
      "do-Aryan": 6995,
      "ంస్కృతం": 6996,
      "▁దినోత్సవ": 6997,
      "▁వెబ్": 6998,
      "▁సౌకర్య": 6999,
      "ండీగఢ్": 7000,
      "▁అభివృద్ధి": 7001,
      "▁నడిపించ": 7002,
      "గుప్త": 7003,
      "భారతదేశ_రాష్ట్రాలు,_కేంద్రపాలిత_ప్రాంతాలు": 7004,
      "▁\"कर्नाटक\")": 7005,
      "ZvaGuaJIJgoC&pg=PA": 7006,
      "ృష్ణా": 7007,
      "स्लिम": 7008,
      "](https://hi.wikipedia.org/wiki/भारत#cite_ref-langoff_128": 7009,
      "-7mar2011": 7010,
      "▁(సా.శ.పూ.1200–సా.శ.పూ.": 7011,
      "120]](https://hi.wikipedia.org/wiki/भारत#cite_note-langoff-128)": 7012,
      "▁([help](https://te.wikipedia.org/wiki/వర్గం:Harv_and_Sfn_template_errors": 7013,
      "ోర్చుగ": 7014,
      "▁[t](https://te.wikipedia.org/wiki/మూస_చర్చ:": 7015,
      "*](http://": 7016,
      "-no": 7017,
      "-पूर्व": 7018,
      "4,": 7019,
      "8D": 7020,
      "GDP": 7021,
      "Official": 7022,
      "PO": 7023,
      "Raj": 7024,
      "Sikh": 7025,
      "_9": 7026,
      "_g": 7027,
      "_pe": 7028,
      "_10": 7029,
      "_languages": 7030,
      "ggle": 7031,
      "ji": 7032,
      "ns": 7033,
      "rance": 7034,
      "racy": 7035,
      "ward": 7036,
      "work": 7037,
      "घर": 7038,
      "टना": 7039,
      "थक": 7040,
      "दारी": 7041,
      "वित": 7042,
      "वणी": 7043,
      "शस्": 7044,
      "षद": 7045,
      "सरा": 7046,
      "िज": 7047,
      "ोद": 7048,
      "ोत्तर": 7049,
      "१७": 7050,
      "१६६": 7051,
      "▁%": 7052,
      "▁ऐ": 7053,
      "▁4.": 7054,
      "▁5.": 7055,
      "▁8.": 7056,
      "▁ed.).": 7057,
      "kil": 7058,
      "dives": 7059,
      "pen": 7060,
      "▁[ए": 7061,
      "▁[धर्म": 7062,
      "▁[श्रीलंका": 7063,
      "▁\"गण": 7064,
      "▁\"भू": 7065,
      "▁\"श्रीलंका": 7066,
      "▁\"en:": 7067,
      "ins": 7068,
      "anor": 7069,
      "ances": 7070,
      "2025": 7071,
      "2024": 7072,
      "▁कला": 7073,
      "▁कंपनी": 7074,
      "aldives": 7075,
      "भारत)\")": 7076,
      "arendra": 7077,
      "▁पहु": 7078,
      "tions": 7079,
      "▁मंत्री": 7080,
      "▁(भारत)\")": 7081,
      "राव": 7082,
      "रामायण": 7083,
      "▁वन": 7084,
      "▁अधिराज्य": 7085,
      "▁आग": 7086,
      "▁आम": 7087,
      "side": 7088,
      "atab": 7089,
      "entury": 7090,
      "▁प्रद": 7091,
      "▁प्रांत": 7092,
      "▁prime": 7093,
      "#cite_ref-10": 7094,
      "#cite_note-10": 7095,
      "[[18": 7096,
      "states": 7097,
      "lowing": 7098,
      "educ": 7099,
      "▁billion": 7100,
      "▁Publishing": 7101,
      "its": 7102,
      "▁Tamil": 7103,
      "253": 7104,
      "254": 7105,
      "▁शि": 7106,
      "नेट": 7107,
      "23.": 7108,
      "▁इत्या": 7109,
      ".[[3": 7110,
      "type": 7111,
      "ctu": 7112,
      "ounci": 7113,
      "▁Ex": 7114,
      "▁पर्यटन": 7115,
      "▁H.": 7116,
      "▁Himalay": 7117,
      "▁[\"G": 7118,
      "▁[\"H": 7119,
      "archive.org/detail": 7120,
      "_Air": 7121,
      "166": 7122,
      "aputra": 7123,
      "▁gre": 7124,
      "जीव": 7125,
      "▁[केर": 7126,
      "▁des": 7127,
      "imach": 7128,
      "▁International": 7129,
      "वर्ण": 7130,
      "मन्त्री": 7131,
      "]](https://en.wikipedia.org/wiki/India#cite_note-FOOTNOTEStein2010": 7132,
      "otals": 7133,
      "_Data": 7134,
      "▁[बिहार": 7135,
      "▁\"बिहार": 7136,
      "_Nadu": 7137,
      "overnment_of_India": 7138,
      "▁१९४७": 7139,
      "svg": 7140,
      "ommonwealth": 7141,
      "%E0%A4%B0%E0%A4%": 7142,
      "ustr": 7143,
      "_East_Asia_Summit": 7144,
      "ultural": 7145,
      "rough": 7146,
      "_अरब": 7147,
      "emplate_": 7148,
      "order": 7149,
      "reek": 7150,
      "हिन्द_महासागर": 7151,
      "▁विकसित": 7152,
      "▁[Kulke": 7153,
      "orthographic": 7154,
      "IAF": 7155,
      "amil_Nadu": 7156,
      "▁स्थापत्य": 7157,
      "a/a": 7158,
      "▁addition": 7159,
      "AARC_summit": 7160,
      "▁second": 7161,
      "ribution": 7162,
      "risti": 7163,
      "मेरिका": 7164,
      "स्थल": 7165,
      "▁एशिया\")": 7166,
      "_इतिहास": 7167,
      "▁आकर्ष": 7168,
      "▁28.": 7169,
      "_घा": 7170,
      "f/f": 7171,
      "ondon": 7172,
      "▁York": 7173,
      "▁People": 7174,
      "_projection": 7175,
      "Library_of_": 7176,
      "▁mi)": 7177,
      "_उत्पाद": 7178,
      "rahmaputra": 7179,
      "Biodi": 7180,
      "\\_parameters#": 7181,
      "_Islands": 7182,
      "\\_country\\_with\\_": 7183,
      "rajbhash": 7184,
      "▁Minorities,": 7185,
      "entral_": 7186,
      "▁(India)\")": 7187,
      "rganization": 7188,
      "▁\"श्रीलंका\")": 7189,
      "education": 7190,
      "archive.org/details/": 7191,
      "▁\"बिहार\")": 7192,
      "orthographic_projection": 7193,
      "-se": 7194,
      "-वेरू": 7195,
      ".JPG": 7196,
      "/).": 7197,
      "/national": 7198,
      "116": 7199,
      "1%20": 7200,
      "418": 7201,
      "8+": 7202,
      "Bh": 7203,
      "F)": 7204,
      "Gum": 7205,
      "HQ": 7206,
      "Kashmir": 7207,
      "Language": 7208,
      "Rowland": 7209,
      "Sanchi": 7210,
      "Web": 7211,
      "Yum": 7212,
      "_0": 7213,
      "_26": 7214,
      "ahi": 7215,
      "aury": 7216,
      "business": 7217,
      "day": 7218,
      "fos": 7219,
      "lue": 7220,
      "law": 7221,
      "mal": 7222,
      "operation": 7223,
      "sis": 7224,
      "sur": 7225,
      "ues": 7226,
      "zer": 7227,
      "ंबा": 7228,
      "ंपी": 7229,
      "आणि": 7230,
      "ईद": 7231,
      "ऍथ": 7232,
      "ऑक्सफोर्ड": 7233,
      "ओ.": 7234,
      "कूल": 7235,
      "कांक": 7236,
      "ख़": 7237,
      "गंगा": 7238,
      "ट्य": 7239,
      "टिका": 7240,
      "ढा": 7241,
      "णु": 7242,
      "णात": 7243,
      "तार": 7244,
      "ताल": 7245,
      "न](https://mr.wikipedia.org/wiki/": 7246,
      "नोल": 7247,
      "फिलि": 7248,
      "बट": 7249,
      "बू": 7250,
      "भौ": 7251,
      "मण": 7252,
      "मो": 7253,
      "लों": 7254,
      "वूड": 7255,
      "सरी": 7256,
      "ह्य": 7257,
      "ह्याद्री": 7258,
      "ुरू": 7259,
      "ुवव": 7260,
      "ूबर": 7261,
      "ॉलि": 7262,
      "ोमाल": 7263,
      "्हा": 7264,
      "्लेट": 7265,
      "१]](https://mr.wikipedia.org/wiki/भारत#cite_note-": 7266,
      "२०१": 7267,
      "४]](https://mr.wikipedia.org/wiki/भारत#cite_note-": 7268,
      "▁web": 7269,
      "▁50": 7270,
      "▁gi": 7271,
      "▁3.": 7272,
      "▁his": 7273,
      "▁46": 7274,
      "▁end": 7275,
      "dis": 7276,
      "disp": 7277,
      "ored": 7278,
      ".wikipedia.org/w": 7279,
      "▁[ख": 7280,
      "▁[तमिळनाडू": 7281,
      "▁\"U": 7282,
      "▁\"साँचा:": 7283,
      "▁\"साँचा": 7284,
      "tes": 7285,
      "ारचे": 7286,
      "्रार": 7287,
      "्रहित": 7288,
      "anat": 7289,
      "title": 7290,
      "Infos": 7291,
      "्ये": 7292,
      "्यों": 7293,
      "्यूरो": 7294,
      "▁कमी": 7295,
      "thang": 7296,
      "thnic": 7297,
      "eri": 7298,
      "▁सक": 7299,
      "▁सकल": 7300,
      "▁सध्या": 7301,
      "](https://hi.wikipedia.org/wiki/ज": 7302,
      "](https://hi.wikipedia.org/wiki/ने": 7303,
      "](https://hi.wikipedia.org/wiki/साँचा:": 7304,
      "](https://hi.wikipedia.org/wiki/साँचा": 7305,
      "](https://en.wikipedia.org/wiki/O": 7306,
      "▁पड़": 7307,
      "▁पंतप्रधान": 7308,
      "▁प्लेट": 7309,
      "official": 7310,
      "▁मन्दिर": 7311,
      "▁(2014": 7312,
      "▁(पूर्वी": 7313,
      "रात": 7314,
      "ानंतर": 7315,
      "र्ड": 7316,
      "](https://mr.wikipedia.org/wiki/च": 7317,
      "](https://mr.wikipedia.org/wiki/द": 7318,
      "](https://mr.wikipedia.org/wiki/पाकिस्तान": 7319,
      "](https://mr.wikipedia.org/wiki/पंजाब": 7320,
      "▁हथियार": 7321,
      "19)": 7322,
      "rig": 7323,
      "outheast": 7324,
      "\\_n": 7325,
      "\\_or": 7326,
      "▁अशी": 7327,
      "leg": 7328,
      "▁आण": 7329,
      "▁आदि": 7330,
      "ातर": 7331,
      "ating": 7332,
      "▁दा": 7333,
      "▁प्रां": 7334,
      "▁प्रशास": 7335,
      "▁Col": 7336,
      "▁ज़": 7337,
      "▁जास्त": 7338,
      "ंगम": 7339,
      "\"),[[": 7340,
      "भाई": 7341,
      "▁भारताने": 7342,
      "▁भारताचे": 7343,
      "लां": 7344,
      "स्वा": 7345,
      "स्कार": 7346,
      "▁Arab": 7347,
      "▁तिस": 7348,
      "ficient": 7349,
      "▁नौसेना": 7350,
      "ासभ": 7351,
      "▁बने": 7352,
      "▁बड़ा": 7353,
      "्वाला": 7354,
      "uran": 7355,
      "urban": 7356,
      "_कोर": 7357,
      "ांनी": 7358,
      "लेस": 7359,
      "▁P.": 7360,
      "▁काश्मीर": 7361,
      "terature": 7362,
      "21.": 7363,
      "▁गंगा": 7364,
      "uns": 7365,
      "▁शे": 7366,
      "▁River": 7367,
      "▁Research": 7368,
      "▁संयुक्त": 7369,
      "सामी": 7370,
      "हिंदू": 7371,
      "▁आहे,": 7372,
      "▁[म्यानमार": 7373,
      "▁[मूळ": 7374,
      "थाईल": 7375,
      "▁B.": 7376,
      "▁B.;": 7377,
      "aylor": 7378,
      "▁ext": 7379,
      "](https://mai.wikipedia.org/wiki/अ": 7380,
      "▁विज्ञान": 7381,
      "ंडमान": 7382,
      "▁साहित": 7383,
      "▁\"म्यानमार": 7384,
      "oung": 7385,
      "_Sahi": 7386,
      "द्दु": 7387,
      "मी2": 7388,
      "मीरात": 7389,
      "मुना": 7390,
      "हाब": 7391,
      "▁Ge": 7392,
      "_in_A": 7393,
      "Harman": 7394,
      "force": 7395,
      "]](https://hi.wikipedia.org/wiki/भारत#cite_note-10": 7396,
      "▁लिया": 7397,
      "_Ar": 7398,
      "_Ass": 7399,
      "▁१६": 7400,
      "▁rec": 7401,
      "▁religious": 7402,
      "akes": 7403,
      "akrishn": 7404,
      "े_आणि": 7405,
      "▁only": 7406,
      "▁होते": 7407,
      "ंदोल": 7408,
      "हारजि": 7409,
      "▁करना": 7410,
      "▁करता": 7411,
      "▁करण्यात": 7412,
      "▁J.": 7413,
      "▁new": 7414,
      "▁non-": 7415,
      "asting": 7416,
      "_भाषा?action=edit&redlink=1": 7417,
      "▁एकूण": 7418,
      "परेशन": 7419,
      "overty": 7420,
      "aving": 7421,
      "▁नागर": 7422,
      "▁घरेलू": 7423,
      "▁प्राण": 7424,
      "▁मुघल": 7425,
      "own": 7426,
      "s](https://en.wikipedia.org/wiki/M": 7427,
      "▁चल": 7428,
      "▁चळ": 7429,
      "्यांना": 7430,
      "्यांचा": 7431,
      "_November": 7432,
      "ysHQ": 7433,
      "▁[Ministry": 7434,
      "▁निभाई": 7435,
      "▁\"British": 7436,
      "osp": 7437,
      "_Golden_Temple": 7438,
      "▁जनता": 7439,
      "](https://hi.wikipedia.org/wiki/महाराष्ट्र": 7440,
      "ल्ल": 7441,
      "▁झाल": 7442,
      "हाराज": 7443,
      "स्ट्रार": 7444,
      "_pilgrim": 7445,
      "▁वापर": 7446,
      "▁वाळवंट": 7447,
      "49-2": 7448,
      "सिद्ध": 7449,
      "▁[2](https://hi.wikipedia.org/wiki/भारत#cite_ref-FOOTNOTE": 7450,
      "▁मानवी": 7451,
      "▁स्वातंत्र्य": 7452,
      "▁[1](https://hi.wikipedia.org/wiki/भारत#cite_ref-FOOTNOTE": 7453,
      "[![](https://upload.wikimedia.org/wikipedia/commons/thumb/c/c": 7454,
      "ृष्ण": 7455,
      "anipur": 7456,
      "▁सुरू": 7457,
      "▁2007\n": 7458,
      "\"](https://web.archive.org/web/20140": 7459,
      "ecuri": 7460,
      "लिंग": 7461,
      "efficient": 7462,
      "भूषा": 7463,
      "तुल्य": 7464,
      "दिभ": 7465,
      "ौद्ध_धर्म": 7466,
      "ूचकांक": 7467,
      "](https://en.wikipedia.org/wiki/Economy_of_": 7468,
      "▁life": 7469,
      "▁produc": 7470,
      "/publications/": 7471,
      "डाख": 7472,
      "-symbols": 7473,
      "34238": 7474,
      "▁संग्रहित": 7475,
      "inion": 7476,
      "▁State": 7477,
      "ोबत": 7478,
      "▁स्थापना": 7479,
      "▁था,": 7480,
      "ignored": 7481,
      "▁\"गंगा": 7482,
      "_पार्": 7483,
      "ंदीगढ": 7484,
      "शिष्ट": 7485,
      "hattis": 7486,
      "▁अपने": 7487,
      "▁[↑](https://hi.wikipedia.org/wiki/भारत#cite_ref-10": 7488,
      "▁गणराज्यचे": 7489,
      "ilitary": 7490,
      "pib.nic.in/": 7491,
      "▁संसदीय": 7492,
      "_उप": 7493,
      "▁तटीय": 7494,
      "पातकाल": 7495,
      "](https://mai.wikipedia.org/wiki/भारतीय_": 7496,
      "▁होती.": 7497,
      "_राजवंश": 7498,
      "illenni": 7499,
      "▁Islands](https://en.wikipedia.org/wiki/": 7500,
      "तिशत": 7501,
      "▁म्हणून": 7502,
      "hmed": 7503,
      "खनऊ": 7504,
      "](https://hi.wikipedia.org/wiki/भारत_का_": 7505,
      "sites/": 7506,
      "तो.": 7507,
      "▁[पंजाब](https://hi.wikipedia.org/wiki/पंजाब": 7508,
      "▁शुरू": 7509,
      "-4020": 7510,
      "न्हें": 7511,
      "विषुवव": 7512,
      "unjabi": 7513,
      "cyclop": 7514,
      "-of-india": 7515,
      "▁कोरिया\")": 7516,
      "▁जलवायु": 7517,
      "▁क्रमांक": 7518,
      "onsoon_": 7519,
      "▁जाते.": 7520,
      "ताजमहाल": 7521,
      "_राज्यक्षेत्र": 7522,
      "ण्यास": 7523,
      "▁दोनों": 7524,
      "11934238": 7525,
      "▁स्तर": 7526,
      "issing": 7527,
      "▁[महाराष्ट्र](https://hi.wikipedia.org/wiki/महाराष्ट्र": 7528,
      "नागालैंड": 7529,
      "लेशिया": 7530,
      "pectancy": 7531,
      "ार्कटिका": 7532,
      ".htm)": 7533,
      "hola": 7534,
      "▁पाहिले.\n": 7535,
      "Uttarakhand": 7536,
      "▁वैशिष्ट": 7537,
      "▁लगभग": 7538,
      "_at_the_Golden_Temple": 7539,
      "फाएं": 7540,
      "▁ठिका": 7541,
      "इप्रस": 7542,
      "▁\"दिल्ली\")": 7543,
      "लाओस": 7544,
      "▁राजनीतिक": 7545,
      "urchasing": 7546,
      "य.एस.": 7547,
      "जिंठा-वेरू": 7548,
      "▁साम्राज्या": 7549,
      "cording": 7550,
      "ृषि": 7551,
      "ustralia": 7552,
      "_Force": 7553,
      "FrontView": 7554,
      "Home_Affairs": 7555,
      "_के_अनुसार_देश": 7556,
      "-language\\_sources\\_(en": 7557,
      "फगाणि": 7558,
      "▁आढळ": 7559,
      "क्षेत्रफळानुसार": 7560,
      "ेकडील": 7561,
      "▁वृद्धि": 7562,
      "/index.php?title": 7563,
      "▁./श्रेणी:जानकारीबौक्स\\_देशमे\\_अज्ञात\\_मापदण्डसभ\\_सहितक\\_पृष्ठसभ#l": 7564,
      "Flag_of_India.svg": 7565,
      "kZVuDwAAQBAJ&pg=PA": 7566,
      "dir_Sahi": 7567,
      "Sikh_pilgrim": 7568,
      "ristian": 7569,
      "/national-symbols": 7570,
      "Gumpa": 7571,
      "Rowland1970": 7572,
      "Sanchi2": 7573,
      "Yumthang": 7574,
      "ऍथनोल": 7575,
      "ॉलिवूड": 7576,
      ".wikipedia.org/w/index.php?title": 7577,
      "InfosysHQ": 7578,
      "](https://hi.wikipedia.org/wiki/साँचा_वार्ता:": 7579,
      "्वालामुख": 7580,
      "_कोरिया": 7581,
      "▁\"म्यानमार\")": 7582,
      "द्दुचेरी": 7583,
      "Harmandir_Sahi": 7584,
      "akrishnan": 7585,
      "हारजिस्ट्रार": 7586,
      "▁संग्रहित.": 7587,
      "11934238p": 7588,
      "य.एस.ओ.": 7589,
      "जिंठा-वेरूळची": 7590,
      "Sikh_pilgrim_at_the_Golden_Temple": 7591,
      "ऍथनोलॉग": 7592,
      ".wikipedia.org/w/index.php?title=": 7593,
      "InfosysHQFrontView": 7594,
      ",6": 7595,
      "-D": 7596,
      "-II": 7597,
      ".५": 7598,
      "1-1": 7599,
      "226": 7600,
      "31": 7601,
      "3),": 7602,
      "3-8": 7603,
      "5).": 7604,
      "6)\n": 7605,
      "623": 7606,
      ":India": 7607,
      "Allchin": 7608,
      "Constituent": 7609,
      "IUCN": 7610,
      "Po": 7611,
      "Petraglia": 7612,
      "Republic": 7613,
      "]]": 7614,
      "_h": 7615,
      "_on": 7616,
      "af": 7617,
      "ather": 7618,
      "ctive": 7619,
      "ez": 7620,
      "ext": 7621,
      "gr": 7622,
      "hra": 7623,
      "kar": 7624,
      "lurton": 7625,
      "oti": 7626,
      "ode": 7627,
      "tation": 7628,
      "uil": 7629,
      "udu": 7630,
      "ukh": 7631,
      "wor": 7632,
      "छा": 7633,
      "ज्य": 7634,
      "थम": 7635,
      "फगान": 7636,
      "बन": 7637,
      "मित": 7638,
      "रद": 7639,
      "व्या": 7640,
      "शेष": 7641,
      "सव": 7642,
      "िरा": 7643,
      "ृती": 7644,
      "२,": 7645,
      "३०": 7646,
      "४०": 7647,
      "▁चा": 7648,
      "▁36": 7649,
      "oral": 7650,
      "](https://id": 7651,
      "▁[p": 7652,
      "▁[ध": 7653,
      "▁[ना": 7654,
      "▁[World": 7655,
      "▁[त्रिपुरा": 7656,
      "▁\"V": 7657,
      "▁\"पूर्व": 7658,
      "▁\"विश्व": 7659,
      "▁\"त्रिपुरा": 7660,
      "\")1": 7661,
      "inal_": 7662,
      "en/": 7663,
      "onte": 7664,
      "onom": 7665,
      "hi/": 7666,
      "reli": 7667,
      "rest": 7668,
      "▁सन्": 7669,
      "▁सां": 7670,
      "es.": 7671,
      "▁(c": 7672,
      "▁(a)": 7673,
      "▁(b)": 7674,
      "▁them": 7675,
      "▁अस्त": 7676,
      "▁India\n": 7677,
      "▁India](https://en.wikipedia.org/wiki/G": 7678,
      "▁painting": 7679,
      "stat": 7680,
      "action=edit)": 7681,
      "▁तुल": 7682,
      "▁set": 7683,
      "▁summit": 7684,
      "▁बद": 7685,
      "▁बार": 7686,
      "006": 7687,
      "hell": 7688,
      "ांचे": 7689,
      "cherry": 7690,
      "ravi": 7691,
      "▁2014.": 7692,
      "_सागर": 7693,
      "्रेस": 7694,
      "▁app": 7695,
      "ता\")": 7696,
      "▁Michael": 7697,
      "ource": 7698,
      "107": 7699,
      "109": 7700,
      "india.com/": 7701,
      "▁*E": 7702,
      "icob": 7703,
      "agore": 7704,
      "upreme": 7705,
      "▁eastern": 7706,
      "▁employ": 7707,
      "iger": 7708,
      "▁2025": 7709,
      "ly,": 7710,
      "र्मदा": 7711,
      "2221": 7712,
      "1999": 7713,
      "▁लाल": 7714,
      "▁rem": 7715,
      "▁भवन": 7716,
      "ability": 7717,
      "160": 7718,
      "ell": 7719,
      "elated": 7720,
      "ird": 7721,
      "irth": 7722,
      "](https://en.wikipedia.org/wiki/India#CITEREFB": 7723,
      "▁Lank": 7724,
      "▁Library": 7725,
      "▁पुर": 7726,
      "▁पुरु": 7727,
      "िसम": 7728,
      "▁Indus": 7729,
      "वर्ती": 7730,
      "47.": 7731,
      "▁राजा": 7732,
      "utt": 7733,
      "▁Kingdom": 7734,
      "ibli": 7735,
      "▁def": 7736,
      "_Nations": 7737,
      "▁अभिय": 7738,
      "▁original](http://": 7739,
      "▁[↑](https://en.wikipedia.org/wiki/India#cite_ref-FOOTNOTEMetcalfMetcalf2006": 7740,
      "709": 7741,
      "▁[British": 7742,
      "orities/": 7743,
      "398": 7744,
      "तिहासिक": 7745,
      "▁१९८": 7746,
      "▁\"आंध्र": 7747,
      "▁\"इंडोनेश": 7748,
      "▁[उर्दू": 7749,
      "▁\"उर्दू": 7750,
      "▁\"Government": 7751,
      "▁[इंडोनेशिया": 7752,
      "_संस्क": 7753,
      "▁exp": 7754,
      "general_": 7755,
      "times.indiatimes.com/": 7756,
      "▁\"Re": 7757,
      "7545": 7758,
      "▁\"Indo-": 7759,
      "१९५०": 7760,
      "2_22": 7761,
      "_Lank": 7762,
      "टेड": 7763,
      "▁युद्ध\")": 7764,
      "_इंडिया": 7765,
      "-largest": 7766,
      "/authorities/": 7767,
      "▁along": 7768,
      "▁शुष्क": 7769,
      "▁wide": 7770,
      "विषय": 7771,
      "▁Thomas": 7772,
      "▁composed": 7773,
      "cms)": 7774,
      "cms).": 7775,
      "%E0%A5%8D": 7776,
      "ikkim": 7777,
      "rishna": 7778,
      "pringer": 7779,
      "▁1962": 7780,
      "-language\\_text": 7781,
      "%7C": 7782,
      "%7c": 7783,
      "Hindustan": 7784,
      "default": 7785,
      "volution": 7786,
      "_Indian_general_": 7787,
      "timesofindia.indiatimes.com/india/": 7788,
      "वसायिक": 7789,
      "fferent": 7790,
      "Ministry_of_Home_Affairs": 7791,
      "▁influ": 7792,
      "नाइटेड": 7793,
      "arliest": 7794,
      "edieval": 7795,
      "8+5": 7796,
      "illennium": 7797,
      "PetragliaAllchin": 7798,
      "uducherry": 7799,
      "फगानिस्तान": 7800,
      "▁\"इंडोनेशिया\")": 7801,
      "_Indian_general_election": 7802,
      "%3": 7803,
      "([": 7804,
      "-r": 7805,
      "-50": 7806,
      "-शासित": 7807,
      "-national-language": 7808,
      "-गंगा": 7809,
      "/t": 7810,
      "/we": 7811,
      "/india": 7812,
      "1-3": 7813,
      "2]](https://en.wikipedia.org/wiki/India#cite_note-": 7814,
      "2-4": 7815,
      "2]](https://te.wikipedia.org/wiki/భారతదేశం#cite_note-india.gov.in": 7816,
      "3–": 7817,
      "5–సా.శ.": 7818,
      "613": 7819,
      "7).": 7820,
      "AG": 7821,
      "Ch": 7822,
      "DR": 7823,
      "DS": 7824,
      "DIA": 7825,
      "E﻿": 7826,
      "OLA": 7827,
      "SYS": 7828,
      "SAARC_summit": 7829,
      "Times": 7830,
      "_v": 7831,
      "_ऑ": 7832,
      "_ఇ": 7833,
      "_ఫ": 7834,
      "_శ": 7835,
      "_di": 7836,
      "_స్": 7837,
      "_43": 7838,
      "_గాంధీ": 7839,
      "ax": 7840,
      "atp": 7841,
      "ading": 7842,
      "business/": 7843,
      "dar": 7844,
      "ey": 7845,
      "kb": 7846,
      "late": 7847,
      "oard": 7848,
      "po": 7849,
      "pag": 7850,
      "s:": 7851,
      "s–": 7852,
      "sing": 7853,
      "s_of_India": 7854,
      "y,": 7855,
      "ँग": 7856,
      "ँकि": 7857,
      "आर्": 7858,
      "ईसाई": 7859,
      "एल": 7860,
      "ऑपरेशन": 7861,
      "क्य": 7862,
      "तमान": 7863,
      "लब्": 7864,
      "वन\")": 7865,
      "सत": 7866,
      "सां": 7867,
      "ैन\")": 7868,
      "ोध": 7869,
      "ం.\n": 7870,
      "ం\")\n": 7871,
      "ఎల": 7872,
      "ఏప్రిల్": 7873,
      "జిల్": 7874,
      "డీ": 7875,
      "ఢా": 7876,
      "తై": 7877,
      "థారిటీ": 7878,
      "ధు": 7879,
      "పై": 7880,
      "పార": 7881,
      "ఫి": 7882,
      "బీ": 7883,
      "బై": 7884,
      "మల": 7885,
      "మంత": 7886,
      "యం": 7887,
      "యూ": 7888,
      "యి.": 7889,
      "రల్": 7890,
      "వో": 7891,
      "వి.": 7892,
      "విక": 7893,
      "వార్": 7894,
      "వాల్": 7895,
      "వలస": 7896,
      "వలం": 7897,
      "వత్రిక": 7898,
      "శక": 7899,
      "శి": 7900,
      "శకు": 7901,
      "సై": 7902,
      "సార్": 7903,
      "హిత": 7904,
      "హోర్": 7905,
      "ితి": 7906,
      "ిటన్": 7907,
      "ీం": 7908,
      "ీర": 7909,
      "ుప్ర": 7910,
      "ుతున్న": 7911,
      "ృత్య": 7912,
      "ెర్": 7913,
      "ే,": 7914,
      "ైల్": 7915,
      "ైథి": 7916,
      "ోత్తర": 7917,
      "ౌర": 7918,
      "▁z": 7919,
      "▁ధ": 7920,
      "▁తి": 7921,
      "▁ద్": 7922,
      "▁గా": 7923,
      "▁im": 7924,
      "▁భూ": 7925,
      "▁దీవ": 7926,
      "▁దక్షిణాసియా": 7927,
      "▁ద్వీ": 7928,
      "▁Qu": 7929,
      "▁గుర్": 7930,
      "▁టై": 7931,
      "▁డామన్": 7932,
      "](https://www": 7933,
      "▁[ర": 7934,
      "▁[राज": 7935,
      "▁[హిందీ": 7936,
      "▁[భూటాన్": 7937,
      "▁[ఉత్తర": 7938,
      "▁[ఒడి": 7939,
      "▁[తూర్పు": 7940,
      "▁[రాష్ట్రపతి": 7941,
      "▁[गुजराती": 7942,
      "▁[తమిళనాడు": 7943,
      "▁[గణతంత్ర": 7944,
      "▁[శ్రీలంక": 7945,
      "▁[నేపాల్": 7946,
      "▁\"కు": 7947,
      "▁\"రాష్ట్ర": 7948,
      "▁\"హిందీ": 7949,
      "▁\"భూటాన్": 7950,
      "▁\"ఉత్తర": 7951,
      "▁\"ఒడి": 7952,
      "▁\"తూర్పు": 7953,
      "▁\"हिमालय": 7954,
      "▁\"गुजराती": 7955,
      "▁\"తమిళనాడు": 7956,
      "▁\"ప్రధానమంత్రి": 7957,
      "▁\"గణతంత్ర": 7958,
      "▁\"శ్రీలంక": 7959,
      "▁\"నేపాల్": 7960,
      "▁\"ओडिशा": 7961,
      "▁\"हिमाचल": 7962,
      "▁\"యునైటెడ్": 7963,
      "▁\"विशेष:EditPage/साँचा:": 7964,
      "tection": 7965,
      "on,": 7966,
      "्रह": 7967,
      "him": 7968,
      "rele": 7969,
      "2021": 7970,
      "2022": 7971,
      "▁कर्ज": 7972,
      "alli": 7973,
      "arak": 7974,
      "India.pdf)": 7975,
      "▁सूर": 7976,
      "▁समूह": 7977,
      "▁सम्राट": 7978,
      "](https://hi.wikipedia.org/wiki/ड": 7979,
      "](https://hi.wikipedia.org/wiki/व": 7980,
      "](https://hi.wikipedia.org/wiki/मे": 7981,
      "](https://hi.wikipedia.org/wiki/दिल्ली": 7982,
      "](https://hi.wikipedia.org/wiki/विशेष:EditPage/साँचा:": 7983,
      "](https://te.wikipedia.org/wiki/D": 7984,
      "](https://te.wikipedia.org/wiki/హ": 7985,
      "](https://te.wikipedia.org/wiki/పా": 7986,
      "](https://te.wikipedia.org/wiki/హిందూ": 7987,
      "](https://te.wikipedia.org/wiki/పాకిస్తాన్": 7988,
      "](https://te.wikipedia.org/wiki/హిందీ": 7989,
      "](https://te.wikipedia.org/wiki/ముంబై": 7990,
      "](https://te.wikipedia.org/wiki/భారతదేశ_": 7991,
      "](https://te.wikipedia.org/wiki/భూటాన్": 7992,
      "](https://te.wikipedia.org/wiki/ఒడి": 7993,
      "](https://te.wikipedia.org/wiki/తమిళనాడు": 7994,
      "](https://te.wikipedia.org/wiki/ప్రధానమంత్రి": 7995,
      "](https://te.wikipedia.org/wiki/శ్రీలంక": 7996,
      "](https://te.wikipedia.org/wiki/నేపాల్": 7997,
      "esti": 7998,
      "▁-15": 7999,
      "▁मील": 8000,
      "▁(in": 8001,
      "▁(nominal)": 8002,
      "रान": 8003,
      "ాలకు": 8004,
      "ాలతో": 8005,
      "్యాయ": 8006,
      "asht": 8007,
      "asp?": 8008,
      "्यालय": 8009,
      "▁वन्य": 8010,
      "▁वास्त": 8011,
      "\\_w": 8012,
      "స్?action=edit&redlink=1": 8013,
      "స్ట్": 8014,
      "▁పద": 8015,
      "▁పో": 8016,
      "▁పీఠ": 8017,
      "▁आकार": 8018,
      "▁India*.": 8019,
      "ర్కొ": 8020,
      "ర్జె": 8021,
      "ర్నేషనల్": 8022,
      "న్క": 8023,
      "న్మ": 8024,
      "న్](https://te.wikipedia.org/wiki/": 8025,
      "ootb": 8026,
      "geoh": 8027,
      "-03": 8028,
      "lief": 8029,
      "attle": 8030,
      "▁प्रणाली": 8031,
      "▁प्रारम्भ": 8032,
      "▁प्रतिशत": 8033,
      "▁pre": 8034,
      "am,": 8035,
      "▁जग": 8036,
      "లుపు": 8037,
      "ला\")": 8038,
      "लावा": 8039,
      "▁Asher": 8040,
      ".శ.)": 8041,
      "లోన్": 8042,
      "లోమీ": 8043,
      "▁निय": 8044,
      "▁बि": 8045,
      "▁बनी": 8046,
      "▁बड़ी": 8047,
      "▁కల్": 8048,
      "▁కంట": 8049,
      "▁కనుమ": 8050,
      "▁క్యాలె": 8051,
      "ందిన": 8052,
      "నిడ్": 8053,
      "నియన్": 8054,
      "▁వు": 8055,
      "▁వంటి": 8056,
      "▁వహించ": 8057,
      "▁Portal": 8058,
      "▁man": 8059,
      "ల్లో": 8060,
      "▁far": 8061,
      "▁found": 8062,
      "rak": 8063,
      "▁సార్": 8064,
      "▁సమాఖ్య": 8065,
      "▁సమర": 8066,
      "▁సైనిక": 8067,
      "▁సంబంధ": 8068,
      "स्ता": 8069,
      "▁మతం\")": 8070,
      "ver,": 8071,
      "▁2012.": 8072,
      "్రాన్": 8073,
      "_सूचना": 8074,
      "रीक्षण": 8075,
      "▁गए": 8076,
      "▁Muslim": 8077,
      "ముఖ్య": 8078,
      "▁उद": 8079,
      "సింగ్": 8080,
      "▁इसी": 8081,
      "▁[मराठी": 8082,
      "▁Dictionary": 8083,
      "▁women": 8084,
      "▁(సా.శ.10": 8085,
      "▁అర": 8086,
      "▁అని": 8087,
      "▁विवाद": 8088,
      ".[[40": 8089,
      "▁ప్రారం": 8090,
      "का\")": 8091,
      "ికలు": 8092,
      "▁रच": 8093,
      "▁रहे": 8094,
      "▁\"मु": 8095,
      "▁\"मराठी": 8096,
      "508": 8097,
      "13.": 8098,
      "180": 8099,
      "▁परमाणु": 8100,
      "▁\"Sanskrit": 8101,
      "ldlife": 8102,
      "పూర్వ": 8103,
      "▁Gu": 8104,
      "▁ఉంది.\n": 8105,
      "▁ఉత్తరా": 8106,
      "-345": 8107,
      "▁भाषाएँ": 8108,
      "15/": 8109,
      "▁November": 8110,
      "▁Nehru": 8111,
      "▁రకాల": 8112,
      "▁రూపా": 8113,
      "మాన": 8114,
      "_Act": 8115,
      "వాతావరణ": 8116,
      "వాహన": 8117,
      "▁res": 8118,
      "▁regions": 8119,
      "విజ": 8120,
      "ountries": 8121,
      "पूर्": 8122,
      "नीति": 8123,
      "▁\"सत्यमेव": 8124,
      "मानव": 8125,
      "▁gar": 8126,
      "_के_देश": 8127,
      "గా,": 8128,
      "▁धी": 8129,
      "ంటో": 8130,
      "ంటారు.": 8131,
      "ంటర్నేషనల్": 8132,
      "▁name": 8133,
      "ంతాల": 8134,
      "ంతువు": 8135,
      "▁[अंग्रेजी": 8136,
      "▁\"अंग्रेजी": 8137,
      "ंधी": 8138,
      "47)": 8139,
      "▁forest": 8140,
      "▁[भारत](https://hi.wikipedia.org/wiki/भारत": 8141,
      "▁ఇండో": 8142,
      "_Par": 8143,
      "పాలిటన్": 8144,
      "▁దేశాలు\")": 8145,
      "▁దేశానికి": 8146,
      "వర్ష": 8147,
      ")[[1": 8148,
      "hina": 8149,
      "aves": 8150,
      "templates": 8151,
      "ంబే": 8152,
      "టిలో": 8153,
      "▁\"Ch": 8154,
      "్రీడ": 8155,
      "▁[Chin": 8156,
      "లాడే": 8157,
      "లాహోర్": 8158,
      "undament": 8159,
      "▁జయ": 8160,
      "▁జన్మ": 8161,
      "▁జంతువు": 8162,
      "▁मुस्लिम": 8163,
      "కాహార": 8164,
      "▁సంఖ్య": 8165,
      "▁చరిత్ర](https://te.wikipedia.org/wiki/భారతదేశ": 8166,
      "ంధ్": 8167,
      "స్తారు": 8168,
      "▁సామ్రాజ్యం](https://te.wikipedia.org/wiki/మ": 8169,
      "ట్లాడే": 8170,
      "द्यान": 8171,
      "▁ఎక్స్": 8172,
      "▁(సా.శ.పూ.3": 8173,
      "ालाँकि": 8174,
      "ంగ్డమ్": 8175,
      "▁वायु": 8176,
      "निष्ठ": 8177,
      "्रीनगर": 8178,
      "ించిన": 8179,
      "earning": 8180,
      "చ్చు": 8181,
      "पीए": 8182,
      "▁[2](https://te.wikipedia.org/wiki/భారతదేశం#cite_ref-": 8183,
      "ంకణి": 8184,
      "యుగ": 8185,
      "]](https://te.wikipedia.org/wiki/భారతదేశం#cite_note-imf": 8186,
      "తము\")": 8187,
      "స్కరణ": 8188,
      "▁[1](https://te.wikipedia.org/wiki/భారతదేశం#cite_ref-": 8189,
      "](https://hi.wikipedia.org/wiki/कु": 8190,
      "ैनिक": 8191,
      "▁రాజు": 8192,
      "▁రాజవంశ": 8193,
      "newsite": 8194,
      "శ్వ": 8195,
      "_का_खाना": 8196,
      "_క్రీడ": 8197,
      "िक्षा": 8198,
      "▁[Government": 8199,
      "▁[GDP": 8200,
      "▁किन": 8201,
      "▁किन्तु": 8202,
      "ockey": 8203,
      "జనపద": 8204,
      "టు](http://": 8205,
      "\")*\n": 8206,
      "▁ఆర్థ": 8207,
      "▁ప్రాంతీయ": 8208,
      "హాకీ": 8209,
      "▁[जैन": 8210,
      "దాద్రా": 8211,
      "▁లోయ": 8212,
      "▁లోని": 8213,
      "ase.aspx?": 8214,
      "Asher2006": 8215,
      "AsherAsher2006": 8216,
      "athur": 8217,
      "](https://hi.wikipedia.org/wiki/ब्रिटिश": 8218,
      "▁technology": 8219,
      "▁నిర్": 8220,
      "▁నికోబార్": 8221,
      "▁[పశ్చిమ": 8222,
      "क्षेत्रफल": 8223,
      "_మతం": 8224,
      "_భాషలు": 8225,
      "▁స్టాక్": 8226,
      "▁[బంగ్లాదేశ్": 8227,
      "▁आधारित": 8228,
      "▁కాలం": 8229,
      "▁రైళ్": 8230,
      "ender": 8231,
      "_des": 8232,
      "_during": 8233,
      "ఆసియా\")": 8234,
      "▁\"పశ్చిమ": 8235,
      "▁\"బంగ్లాదేశ్": 8236,
      "ణిజ్య": 8237,
      "ణిపూర్": 8238,
      "మైనది.": 8239,
      "▁\"ఇరా": 8240,
      "▁\"ఇండో": 8241,
      "](https://te.wikipedia.org/wiki/బంగ్లాదేశ్": 8242,
      "▁[ఇండో": 8243,
      "](https://te.wikipedia.org/wiki/ఇండో": 8244,
      "awahar": 8245,
      "బాదు": 8246,
      "బాటు": 8247,
      "▁పాక్": 8248,
      "▁వాణిజ్య": 8249,
      "▁Hinduism": 8250,
      "▁जिसके": 8251,
      "गोलिक": 8252,
      "▁[![A": 8253,
      "ashmiri": 8254,
      "గణమన": 8255,
      "రీక్ష": 8256,
      "▁క్రీ.శ.)": 8257,
      "▁సినిమా": 8258,
      "2-22)": 8259,
      "्यटन\")": 8260,
      "▁[చైనా": 8261,
      "](https://te.wikipedia.org/wiki/పశ్చిమ": 8262,
      "](https://en.wikipedia.org/wiki/List_of_SAARC_summit": 8263,
      "ranci": 8264,
      "▁sector": 8265,
      "_एवं": 8266,
      "▁[t](https://hi.wikipedia.org/wiki/साँचा_वार्ता:": 8267,
      "▁2016.\n": 8268,
      "▁अपनी": 8269,
      "హ్వాల్": 8270,
      "ప్రపంచము": 8271,
      "_వ్యవస్థ": 8272,
      "రేడు": 8273,
      "](https://te.wikipedia.org/wiki/చైనా": 8274,
      "స్సామీ": 8275,
      "▁పరిపాలన": 8276,
      "▁పరిశ్రమ": 8277,
      "▁కుటుంబ": 8278,
      "▁వచ్చిన": 8279,
      "▁notation": 8280,
      "▁మార్గాలు\n": 8281,
      "ोहन": 8282,
      "](https://te.wikipedia.org/wiki/భారత_జాతీయ": 8283,
      "▁చేయ": 8284,
      "▁రాజ్యాంగ": 8285,
      "▁దేశాలలో": 8286,
      "▁[e](https://hi.wikipedia.org/wiki/विशेष:EditPage/साँचा:": 8287,
      "▁[v](https://hi.wikipedia.org/wiki/साँचा:": 8288,
      "ంజాబీ": 8289,
      "▁హవేలీ": 8290,
      "▁కొరియా": 8291,
      "▁सदस्य": 8292,
      ".asp?": 8293,
      "_from": 8294,
      "▁ऊँ": 8295,
      "▁ऊर्जा": 8296,
      "kingdom": 8297,
      "▁డాల": 8298,
      "▁డయ్యూ": 8299,
      "▁సభ్య": 8300,
      "▁చెందిన": 8301,
      "▁చెందుతున్న": 8302,
      "▁స్థానం": 8303,
      "▁స్థానంలో": 8304,
      "ప్రధానమంత్రి](https://te.wikipedia.org/wiki/ప్రధానమంత్రి": 8305,
      "గణతంత్ర_": 8306,
      "▁క్రీడలు": 8307,
      "_1960": 8308,
      "](https://hi.wikipedia.org/wiki/संस्कृत": 8309,
      "▁See": 8310,
      "imf2_22": 8311,
      "▁ఆధార": 8312,
      "▁ఆధీనంలో": 8313,
      "ంగ్లీష్": 8314,
      "▁हुआ।": 8315,
      "%20%20%20%20%20%20%20%20": 8316,
      "भिन्न": 8317,
      "eserve": 8318,
      "▁2004](https://hi.wikipedia.org/wiki/भारत#CITEREF": 8319,
      ".net": 8320,
      "utes": 8321,
      "_నది": 8322,
      "ళ్ళ": 8323,
      "▁యుగం": 8324,
      "▁యుద్ధం": 8325,
      "స్వతంత్ర": 8326,
      "స్లాం": 8327,
      "▁సంగీతం\")": 8328,
      "ప్రదాయాలు": 8329,
      "హిమాలయాలు": 8330,
      "▁లేని": 8331,
      "IBR": 8332,
      "IBSYS": 8333,
      "▁(identifier)\"):[10.10": 8334,
      "१८५७": 8335,
      "▁\"ఢిల్లీ\")": 8336,
      "▁వంశం\")": 8337,
      "▁రహదారులు](https://te.wikipedia.org/wiki/": 8338,
      "▁విస్తరి": 8339,
      "ట్టుపూర్వ": 8340,
      "ूरोपीय": 8341,
      "▁ముఖ్యమైన": 8342,
      "వ](https://te.wikipedia.org/wiki/List_of_countries_by_GDP_(": 8343,
      "వ](https://te.wikipedia.org/wiki/List_of_countries_and_dependencies_by": 8344,
      "oint": 8345,
      "place": 8346,
      "▁सहयोग": 8347,
      "▁उद्यान": 8348,
      "▁उद्यान\")": 8349,
      "asia/": 8350,
      "▁దక్షిణాన": 8351,
      "▁గాంధీ\")": 8352,
      "▁వేగంగా": 8353,
      "▁ప్రజల": 8354,
      "▁సాంప్రదాయ": 8355,
      "▁घोषणा": 8356,
      "▁Plateau": 8357,
      "▁relations": 8358,
      "हायता:": 8359,
      "నెగ": 8360,
      "భరత": 8361,
      "రాఠీ": 8362,
      "▁కోట్": 8363,
      "క్టోరల్": 8364,
      "▁మూడు": 8365,
      "▁शक्तिपीठ": 8366,
      "–సా.శ.159": 8367,
      "▁బాం": 8368,
      "శ్వాస": 8369,
      "ార్లమెంటరీ": 8370,
      "Congress2004": 8371,
      "▁राजवंश\")": 8372,
      "_BRICS_summit": 8373,
      "-a-b": 8374,
      "Atlas": 8375,
      "न्धु-गंगा": 8376,
      "▁Persian": 8377,
      "Provision": 8378,
      "▁పరంగా": 8379,
      "▁కేవలం": 8380,
      "▁विदेशी": 8381,
      "▁సామాను": 8382,
      "▁ప్రాచీన": 8383,
      "ంకేతిక": 8384,
      "_और_संघ_क्षेत्र": 8385,
      "▁మాత్రం": 8386,
      "ప్పటికీ": 8387,
      "ద్యుత్": 8388,
      "్రైస్తవ": 8389,
      "तुर्कमेनिस्तान": 8390,
      "](https://te.wikipedia.org/wiki/జమ్మూ_కాశ్మీరు": 8391,
      "▁Before": 8392,
      "▁सितंबर": 8393,
      "▁जबकि": 8394,
      "adhya": 8395,
      "तिब्बत": 8396,
      "overeign": 8397,
      "▁गठबंधन": 8398,
      "_तथा": 8399,
      "_రహదార": 8400,
      "_యుద్ధం": 8401,
      "ఒలింపిక్": 8402,
      "హకార": 8403,
      "ైదరా": 8404,
      "▁[ముంబై](https://te.wikipedia.org/wiki/ముంబై": 8405,
      "▁\"ముంబై\")": 8406,
      "స్వామ్య": 8407,
      "ర్దూ": 8408,
      "▁సర్వీ": 8409,
      "నాట్య": 8410,
      "మాతరం": 8411,
      "రుగుబాటు": 8412,
      "▁./వర్గం:Pages\\_using\\_infobox": 8413,
      "హాసముద్ర": 8414,
      "▁माध्यम": 8415,
      "[[18]](https://te.wikipedia.org/wiki/భారతదేశం#cite_note-imf": 8416,
      "ustrali": 8417,
      "▁(2014).": 8418,
      "_पार्टी": 8419,
      "pib.nic.in/newsite": 8420,
      "sites/default": 8421,
      "_के_अनुसार_देशों_की_सूची": 8422,
      "▁summits\")": 8423,
      "icobar": 8424,
      "लब्ध": 8425,
      "ఎలక్టోరల్": 8426,
      "ఢాకా": 8427,
      "ుప్రీం": 8428,
      "▁గుర్తి": 8429,
      "▁[భూటాన్](https://te.wikipedia.org/wiki/భూటాన్": 8430,
      "▁[శ్రీలంక](https://te.wikipedia.org/wiki/శ్రీలంక": 8431,
      "▁[నేపాల్](https://te.wikipedia.org/wiki/నేపాల్": 8432,
      "▁\"ప్రధానమంత్రి\")": 8433,
      "release.aspx?": 8434,
      "ootball": 8435,
      "geohack": 8436,
      "▁Asher,": 8437,
      "▁ప్రారంభ": 8438,
      "▁ఇండో–": 8439,
      "▁రాజవంశం\")": 8440,
      "awaharl": 8441,
      "](https://en.wikipedia.org/wiki/List_of_SAARC_summits": 8442,
      "▁హవేలీ,": 8443,
      "ట్టుపూర్వోత్తర": 8444,
      "[[18]](https://te.wikipedia.org/wiki/భారతదేశం#cite_note-imf2-22)": 8445,
      "sites/default/files/": 8446,
      "release.aspx?reli": 8447,
      "%;\n": 8448,
      "&action=edit)": 8449,
      "*),": 8450,
      "-H": 8451,
      "-e": 8452,
      "-i": 8453,
      ".\")\n": 8454,
      ".](https://upload.wikimedia.org/wikipedia/commons/thumb/": 8455,
      "1-0": 8456,
      "1]](https://en.wikipedia.org/wiki/India#cite_note-": 8457,
      "2%": 8458,
      "2),": 8459,
      "2)[[": 8460,
      "4]](https://en.wikipedia.org/wiki/India#cite_note-": 8461,
      "545": 8462,
      "51)": 8463,
      "534": 8464,
      "674": 8465,
      "7-8": 8466,
      ":\n": 8467,
      "Alig": 8468,
      "BBC": 8469,
      "Bangalore": 8470,
      "C)": 8471,
      "F%E0%A4%A": 8472,
      "MC": 8473,
      "Map": 8474,
      "MID": 8475,
      "NI": 8476,
      "Political_": 8477,
      "TO": 8478,
      "VII": 8479,
      "XVII": 8480,
      "_per": 8481,
      "_1.": 8482,
      "_2011": 8483,
      "_त्रूटी": 8484,
      "cbi": 8485,
      "casting": 8486,
      "ead": 8487,
      "ia](https://en.wikipedia.org/wiki/": 8488,
      "ker": 8489,
      "lood": 8490,
      "mir": 8491,
      "most": 8492,
      "ncient": 8493,
      "ncbi": 8494,
      "ption": 8495,
      "pper": 8496,
      "pture": 8497,
      "sm": 8498,
      "s\").": 8499,
      "ui": 8500,
      "uted": 8501,
      "vent": 8502,
      "wat": 8503,
      "y\")": 8504,
      "ंथ": 8505,
      "आशियातील": 8506,
      "उदी": 8507,
      "कु": 8508,
      "कात": 8509,
      "खिल": 8510,
      "गाली": 8511,
      "घू": 8512,
      "छत्र": 8513,
      "टके": 8514,
      "डप्पा": 8515,
      "तः": 8516,
      "तै": 8517,
      "तून": 8518,
      "धा": 8519,
      "पास": 8520,
      "पीप": 8521,
      "मराव": 8522,
      "रस": 8523,
      "ळा": 8524,
      "शत": 8525,
      "सु": 8526,
      "हशत": 8527,
      "ाबा": 8528,
      "ीया": 8529,
      "ुद्ध": 8530,
      "ुटी": 8531,
      "ृह": 8532,
      "ेन": 8533,
      "ॉर्ड": 8534,
      "्ञ": 8535,
      "१३": 8536,
      "२]](https://mr.wikipedia.org/wiki/भारत#cite_note-": 8537,
      "८]](https://mr.wikipedia.org/wiki/भारत#cite_note-": 8538,
      "▁+": 8539,
      "▁old": 8540,
      "▁त्रूटी": 8541,
      "▁urban": 8542,
      "▁[f": 8543,
      "▁[978-0": 8544,
      "▁[नि": 8545,
      "▁[978-0-521": 8546,
      "▁[विश्व": 8547,
      "▁\"राज्य": 8548,
      "▁\"धर्म": 8549,
      "▁\"पूर्वी": 8550,
      "hical": 8551,
      "th_BRICS_summit": 8552,
      "aland": 8553,
      "alit": 8554,
      "भारतात": 8555,
      "arl": 8556,
      "arlo": 8557,
      "araj": 8558,
      "aranth": 8559,
      "ery": 8560,
      "▁साली": 8561,
      "▁सस्तन": 8562,
      "](https://en.wikipedia.org/wiki/V": 8563,
      "▁पृष्": 8564,
      "▁महि": 8565,
      "▁माना": 8566,
      "▁मौर्य": 8567,
      "▁(19": 8568,
      "▁(2011": 8569,
      "रावली": 8570,
      "ान्स": 8571,
      "र्की": 8572,
      "](https://mr.wikipedia.org/wiki/दक्षिण": 8573,
      "](https://mr.wikipedia.org/wiki/लोक": 8574,
      "](https://mr.wikipedia.org/wiki/राजस्थान": 8575,
      "omain": 8576,
      "▁ह्या": 8577,
      "्या\")": 8578,
      "\\_links": 8579,
      "▁आ॔": 8580,
      "▁आली": 8581,
      "▁केला": 8582,
      "-04": 8583,
      "-08": 8584,
      "-026": 8585,
      "▁प्रग": 8586,
      "▁प्रजासत्ताक": 8587,
      "▁प्रसिद्ध": 8588,
      "नाट्य": 8589,
      "▁pri": 8590,
      "▁prom": 8591,
      "▁Central": 8592,
      "▁Civil": 8593,
      "▁ज्ञ": 8594,
      "[[15": 8595,
      "[[14": 8596,
      "▁भारतक": 8597,
      "▁भारताची": 8598,
      "स्पती": 8599,
      "adh": 8600,
      "▁All": 8601,
      "न्ध": 8602,
      "न्धी": 8603,
      "न्डिया": 8604,
      "▁Singh": 8605,
      "▁तीन": 8606,
      "▁ताप": 8607,
      "loth": 8608,
      "▁नका": 8609,
      ").svg": 8610,
      "▁tree": 8611,
      "▁12.": 8612,
      "▁caus": 8613,
      "▁[↑](https://mr.wikipedia.org/wiki/भारत": 8614,
      "देशांक": 8615,
      "urn": 8616,
      "urry": 8617,
      "ांना": 8618,
      "लेला": 8619,
      "लेबन": 8620,
      "ular": 8621,
      "rah": 8622,
      "_of_2011": 8623,
      "213": 8624,
      "978-3": 8625,
      "_संगीत": 8626,
      "▁गान": 8627,
      "वाळवंट": 8628,
      "▁Tim": 8629,
      "▁This": 8630,
      "▁Monetary": 8631,
      "प्रकार": 8632,
      "265": 8633,
      "108": 8634,
      "_(क": 8635,
      "_(orthographic_projection": 8636,
      "oll": 8637,
      "▁इ.": 8638,
      "▁[मणिपुरी": 8639,
      "संस्कृत": 8640,
      "▁top": 8641,
      "▁Day": 8642,
      "▁Dyson": 8643,
      "▁when": 8644,
      "▁1971": 8645,
      ".[[4": 8646,
      "▁2001": 8647,
      "▁2007.": 8648,
      "▁\"मणिपुरी": 8649,
      "1353": 8650,
      "▁20.": 8651,
      "म्ह": 8652,
      "18)": 8653,
      "18.": 8654,
      "▁पर्यंत": 8655,
      "काराबा": 8656,
      "द्दल": 8657,
      "ained": 8658,
      "oples": 8659,
      "opland": 8660,
      "ृतीय": 8661,
      "-85": 8662,
      "_Army": 8663,
      "▁यात": 8664,
      "▁११": 8665,
      "▁१७": 8666,
      "▁religi": 8667,
      "29)": 8668,
      "ablish": 8669,
      "▁प्रदेशात": 8670,
      "पूजा": 8671,
      "▁\"सहाय्य:CS1": 8672,
      "ोकोस": 8673,
      "ंदिरा": 8674,
      "-459": 8675,
      "शियाई": 8676,
      "▁करते": 8677,
      "ishing": 8678,
      "▁near": 8679,
      "जीवन": 8680,
      "▁[अरुणाचल": 8681,
      "▁domestic": 8682,
      "▁\"अरुणाचल": 8683,
      "emographic": 8684,
      "_Paper": 8685,
      "ंत्रण": 8686,
      "_Map": 8687,
      "a](https://en.wikipedia.org/wiki/G": 8688,
      "वेद": 8689,
      "केर": 8690,
      "_Totals": 8691,
      "▁नाटके": 8692,
      "▁घड": 8693,
      "ख्यिकी": 8694,
      "णाऱ्या": 8695,
      "दावरी": 8696,
      "ibcode": 8697,
      "▁these": 8698,
      "_1_of_2011": 8699,
      "रुपया": 8700,
      "▁dec": 8701,
      "opulation_Totals": 8702,
      "▁हिस्": 8703,
      "ेंद्रशासित_प्रदेश": 8704,
      "ंबोडिया": 8705,
      "](Special:BookSources/978-0": 8706,
      "क्ट": 8707,
      "384": 8708,
      "▁language\"),": 8709,
      "▁आहेत.\n": 8710,
      "▁\"Special:BookSources/978-0": 8711,
      "ल्ली": 8712,
      "▁Press](https://en.wikipedia.org/wiki/C": 8713,
      "▁बाह्य": 8714,
      "▁वाघ": 8715,
      "▁टे": 8716,
      "▁टिळ": 8717,
      "49-0": 8718,
      "_River": 8719,
      "रबै": 8720,
      "▁Asia:": 8721,
      "शीख": 8722,
      "म्बोडिया": 8723,
      "o-operation": 8724,
      "▁[Dyson": 8725,
      "%E0%A4%B6": 8726,
      "%E0%A4%BF%E0%A4%A": 8727,
      "ृष्णा": 8728,
      "▁सूची\"))": 8729,
      "ठाणे": 8730,
      "▁**[आ": 8731,
      "▁[New": 8732,
      "_अनु": 8733,
      "देवी": 8734,
      "onstitution_of_India": 8735,
      "▁सिंधू": 8736,
      "▁वर्षात": 8737,
      "गोर्न": 8738,
      "गोदावरी": 8739,
      "▁[नवी": 8740,
      "](https://mr.wikipedia.org/wiki/सहाय्य:CS1": 8741,
      "anta": 8742,
      "/profile": 8743,
      "amese": 8744,
      "्यानंतर": 8745,
      "▁25.": 8746,
      "](https://en.wikipedia.org/wiki/National_": 8747,
      "▁नदी\"),": 8748,
      "](https://mr.wikipedia.org/wiki/आसाम": 8749,
      "▁languages\")": 8750,
      "alayal": 8751,
      "](https://mr.wikipedia.org/wiki/बंगाल": 8752,
      "ृष्टी": 8753,
      "on-Alig": 8754,
      "भीमा": 8755,
      "▁त्यामुळे": 8756,
      "▁प्रकारच्या": 8757,
      "▁गेल": 8758,
      "▁गेल्या": 8759,
      "▁गेली.": 8760,
      "ओडिसी": 8761,
      "](https://en.wikipedia.org/wiki/Indo-": 8762,
      "230-345": 8763,
      "uisine": 8764,
      "ोहेंज": 8765,
      "▁21.": 8766,
      "▁\"लक्षद्वीप": 8767,
      "lock": 8768,
      "-107-026": 8769,
      "ociation": 8770,
      "▁पदवी": 8771,
      "भुटान": 8772,
      "▁change": 8773,
      "▁व्यावसायिक": 8774,
      "▁Islands\")": 8775,
      "▁म्हणजे": 8776,
      "▁use": 8777,
      "%E0%A4%BE%E0%A4%9": 8778,
      "▁\"पंजाबी": 8779,
      "oastline": 8780,
      "▁2020.": 8781,
      "रुणाचल_प्रदेश": 8782,
      "gypt": 8783,
      "▁[लक्षद्वीप": 8784,
      "▁[पंजाबी": 8785,
      "तेलुगु": 8786,
      "हाय्य](https://mr.wikipedia.org/wiki/सहाय्य:CS1": 8787,
      "▁Short": 8788,
      "ighth": 8789,
      "-level": 8790,
      "ported": 8791,
      ".nlm": 8792,
      "ikhism": 8793,
      "ित्त्व": 8794,
      "ण्याची": 8795,
      "KulkeRothermund2004),": 8796,
      "▁Talbot,": 8797,
      "▁(identifier)\"):[10.": 8798,
      "मृतसर": 8799,
      "▁[महाराष्ट्र](https://mr.wikipedia.org/wiki/महाराष्ट्र": 8800,
      "▁२०११": 8801,
      "](https://doi.org/10.": 8802,
      "भरतनाट्य": 8803,
      "साम](https://mr.wikipedia.org/wiki/आसाम": 8804,
      "▁पाहिले.": 8805,
      "...]": 8806,
      "▁मिला": 8807,
      "▁दृष्टि": 8808,
      "itzel": 8809,
      "▁घोषित": 8810,
      "FOOTNOTENational_Informatics_Centre2005_1": 8811,
      "▁प्राणी**": 8812,
      "IMFWEO.IN-": 8813,
      "ैसूर": 8814,
      "ो-काराबा": 8815,
      "▁सोयी": 8816,
      "वाहन": 8817,
      "▁([सहाय्य](https://mr.wikipedia.org/wiki/सहाय्य:CS1": 8818,
      "al_Population_Totals": 8819,
      "▁development": 8820,
      "▁निर्मिती": 8821,
      "▁जेव": 8822,
      "▁mathema": 8823,
      "▁इमारत": 8824,
      "emonym": 8825,
      "▁उपसागरा": 8826,
      "▁वर्षांपूर्वी": 8827,
      "▁वेगळे": 8828,
      "ictor": 8829,
      ".nih": 8830,
      "▁class": 8831,
      "ग्वेद": 8832,
      "डुचेरी": 8833,
      "▁अजूनही": 8834,
      "arnatic": 8835,
      "roadcasting": 8836,
      "ोदडो": 8837,
      "१६६-": 8838,
      "▁वनस्पती": 8839,
      "atabase": 8840,
      "▁इत्यादी": 8841,
      "ouncil": 8842,
      "भौम": 8843,
      "ecurity": 8844,
      "दिभ्स": 8845,
      "hmedabad": 8846,
      "▁\"त्रिपुरा\")": 8847,
      "ontek": 8848,
      "▁अस्तित्त्व": 8849,
      "▁पुरस्कार": 8850,
      "िसमस": 8851,
      "Ministry_of_Home_Affairs_1960": 8852,
      "Provisional_Population_Totals": 8853,
      "_त्रूटी#": 8854,
      "ncbi.nlm": 8855,
      "घूमर": 8856,
      "पीपीपी": 8857,
      "मरावती": 8858,
      "▁पृष्ठा": 8859,
      "▁नकाशा": 8860,
      "_(orthographic_projection).svg": 8861,
      "▁Dyson,": 8862,
      "13537545": 8863,
      "_Paper_1_of_2011": 8864,
      "गोर्नो-काराबा": 8865,
      "on-Aligned": 8866,
      "230-34549-2": 8867,
      "ोहेंजोदडो": 8868,
      "▁\"लक्षद्वीप\")": 8869,
      "-107-02649-0": 8870,
      "▁([सहाय्य](https://mr.wikipedia.org/wiki/सहाय्य:CS1_त्रूटी#": 8871,
      "Provisional_Population_Totals_Paper_1_of_2011": 8872,
      "ncbi.nlm.nih": 8873,
[...]
