{
  "version": "1.0",
  "truncation": null,
  "padding": null,
  "added_tokens": [
    {
      "id": 0,
      "content": "[UNK]",
      "single_word": false,
      "lstrip": false,
      "rstrip": false,
      "normalized": false,
      "special": true
    }
  ],
  "normalizer": {
    "type": "NFKC"
  },
  "pre_tokenizer": {
    "type": "Metaspace",
    "replacement": "▁",
    "prepend_scheme": "never",
    "split": true
  },
  "post_processor": null,
  "decoder": {
    "type": "Metaspace",
    "replacement": "▁",
    "prepend_scheme": "never",
    "split": true
  },
  "model": {
    "type": "BPE",
    "dropout": null,
    "unk_token": "[UNK]",
    "continuing_subword_prefix": null,
    "end_of_word_suffix": null,
    "fuse_unk": false,
    "byte_fallback": false,
    "ignore_merges": false,
    "vocab": {
      "[UNK]": 0,
      "\n": 1,
      "!": 2,
      "\"": 3,
      "#": 4,
      "$": 5,
      "%": 6,
      "&": 7,
      "'": 8,
      "(": 9,
      ")": 10,
      "*": 11,
      "+": 12,
      ",": 13,
      "-": 14,
      ".": 15,
      "/": 16,
      "0": 17,
      "1": 18,
      "2": 19,
      "3": 20,
      "4": 21,
      "5": 22,
      "6": 23,
      "7": 24,
      "8": 25,
      "9": 26,
      ":": 27,
      ";": 28,
      "<": 29,
      "=": 30,
      ">": 31,
      "?": 32,
      "A": 33,
      "B": 34,
      "C": 35,
      "D": 36,
      "E": 37,
      "F": 38,
      "G": 39,
      "H": 40,
      "I": 41,
      "J": 42,
      "K": 43,
      "L": 44,
      "M": 45,
      "N": 46,
      "O": 47,
      "P": 48,
      "Q": 49,
      "R": 50,
      "S": 51,
      "T": 52,
      "U": 53,
      "V": 54,
      "W": 55,
      "X": 56,
      "Y": 57,
      "Z": 58,
      "[": 59,
      "\\": 60,
      "]": 61,
      "^": 62,
      "_": 63,
      "`": 64,
      "a": 65,
      "b": 66,
      "c": 67,
      "d": 68,
      "e": 69,
      "f": 70,
      "g": 71,
      "h": 72,
      "i": 73,
      "j": 74,
      "k": 75,
      "l": 76,
      "m": 77,
      "n": 78,
      "o": 79,
      "p": 80,
      "q": 81,
      "r": 82,
      "s": 83,
      "t": 84,
      "u": 85,
      "v": 86,
      "w": 87,
      "x": 88,
      "y": 89,
      "z": 90,
      "{": 91,
      "|": 92,
      "}": 93,
      "~": 94,
      "°": 95,
      "·": 96,
      "Ö": 97,
      "á": 98,
      "â": 99,
      "æ": 100,
      "ç": 101,
      "è": 102,
      "é": 103,
      "í": 104,
      "ñ": 105,
      "ö": 106,
      "ü": 107,
      "ā": 108,
      "ī": 109,
      "İ": 110,
      "Ś": 111,
      "ś": 112,
      "ū": 113,
      "ș": 114,
      "ə": 115,
      "ɦ": 116,
      "ɪ": 117,
      "ɾ": 118,
      "ʊ": 119,
      "ʼ": 120,
      "ˈ": 121,
      "ː": 122,
      "ί": 123,
      "α": 124,
      "δ": 125,
      "θ": 126,
      "ν": 127,
      "π": 128,
      "ς": 129,
      "ό": 130,
      "ँ": 131,
      "ं": 132,
      "ः": 133,
      "अ": 134,
      "आ": 135,
      "इ": 136,
      "ई": 137,
      "उ": 138,
      "ऊ": 139,
      "ऋ": 140,
      "ऍ": 141,
      "ए": 142,
      "ऐ": 143,
      "ऑ": 144,
      "ओ": 145,
      "औ": 146,
      "क": 147,
      "ख": 148,
      "ग": 149,
      "घ": 150,
      "ङ": 151,
      "च": 152,
      "छ": 153,
      "ज": 154,
      "झ": 155,
      "ञ": 156,
      "ट": 157,
      "ठ": 158,
      "ड": 159,
      "ढ": 160,
      "ण": 161,
      "त": 162,
      "थ": 163,
      "द": 164,
      "ध": 165,
      "न": 166,
      "ऩ": 167,
      "प": 168,
      "फ": 169,
      "ब": 170,
      "भ": 171,
      "म": 172,
      "य": 173,
      "र": 174,
      "ऱ": 175,
      "ल": 176,
      "ळ": 177,
      "व": 178,
      "श": 179,
      "ष": 180,
      "स": 181,
      "ह": 182,
      "ऻ": 183,
      "़": 184,
      "ऽ": 185,
      "ा": 186,
      "ि": 187,
      "ी": 188,
      "ु": 189,
      "ू": 190,
      "ृ": 191,
      "ॅ": 192,
      "े": 193,
      "ै": 194,
      "ॉ": 195,
      "ॊ": 196,
      "ो": 197,
      "ौ": 198,
      "्": 199,
      "॔": 200,
      "ॠ": 201,
      "।": 202,
      "०": 203,
      "१": 204,
      "२": 205,
      "३": 206,
      "४": 207,
      "५": 208,
      "६": 209,
      "७": 210,
      "८": 211,
      "९": 212,
      "॰": 213,
      "ॲ": 214,
      "ం": 215,
      "ః": 216,
      "అ": 217,
      "ఆ": 218,
      "ఇ": 219,
      "ఈ": 220,
      "ఉ": 221,
      "ఋ": 222,
      "ఎ": 223,
      "ఏ": 224,
      "ఐ": 225,
      "ఒ": 226,
      "ఓ": 227,
      "ఔ": 228,
      "క": 229,
      "ఖ": 230,
      "గ": 231,
      "ఘ": 232,
      "చ": 233,
      "ఛ": 234,
      "జ": 235,
      "ఞ": 236,
      "ట": 237,
      "ఠ": 238,
      "డ": 239,
      "ఢ": 240,
      "ణ": 241,
      "త": 242,
      "థ": 243,
      "ద": 244,
      "ధ": 245,
      "న": 246,
      "ప": 247,
      "ఫ": 248,
      "బ": 249,
      "భ": 250,
      "మ": 251,
      "య": 252,
      "ర": 253,
      "ల": 254,
      "ళ": 255,
      "వ": 256,
      "శ": 257,
      "ష": 258,
      "స": 259,
      "హ": 260,
      "ా": 261,
      "ి": 262,
      "ీ": 263,
      "ు": 264,
      "ూ": 265,
      "ృ": 266,
      "ె": 267,
      "ే": 268,
      "ై": 269,
      "ొ": 270,
      "ో": 271,
      "ౌ": 272,
      "్": 273,
      "ṅ": 274,
      "ṇ": 275,
      "Ṛ": 276,
      "ṣ": 277,
      "ṭ": 278,
      "Ἰ": 279,
      "‌": 280,
      "‍": 281,
      "‎": 282,
      "–": 283,
      "—": 284,
      "‘": 285,
      "’": 286,
      "“": 287,
      "”": 288,
      "†": 289,
      "•": 290,
      "′": 291,
      "‹": 292,
      "›": 293,
      "⁡": 294,
      "₹": 295,
      "↑": 296,
      "−": 297,
      "▁": 298,
      "▲": 299,
      "﻿": 300,
      "wi": 301,
      "ki": 302,
      "wiki": 303,
      "ia": 304,
      "dia": 305,
      "or": 306,
      "tt": 307,
      "pe": 308,
      "](": 309,
      ":/": 310,
      "htt": 311,
      "http": 312,
      "://": 313,
      "](http": 314,
      "s://": 315,
      "](https://": 316,
      "g/": 317,
      ".or": 318,
      ".org/": 319,
      "pedia": 320,
      ".wiki": 321,
      ".org/wiki": 322,
      ".org/wiki/": 323,
      ".wikipedia": 324,
      ".wikipedia.org/wiki/": 325,
      "▁[": 326,
      "te": 327,
      "en": 328,
      "▁\"": 329,
      "\")": 330,
      "in": 331,
      "an": 332,
      "on": 333,
      "In": 334,
      "th": 335,
      "ti": 336,
      "](https://en": 337,
      "](https://en.wikipedia.org/wiki/": 338,
      "India": 339,
      "er": 340,
      "ar": 341,
      "20": 342,
      "al": 343,
      "ार": 344,
      "re": 345,
      "्र": 346,
      "▁|": 347,
      "es": 348,
      "of": 349,
      "्य": 350,
      "hi": 351,
      "is": 352,
      "tion": 353,
      "the": 354,
      "ci": 355,
      "ed": 356,
      "▁-": 357,
      "ारत": 358,
      "भारत": 359,
      "▁क": 360,
      "om": 361,
      "and": 362,
      "్ర": 363,
      "it": 364,
      "te_": 365,
      "▁स": 366,
      "](https://m": 367,
      "▁of": 368,
      "▁the": 369,
      "▁(": 370,
      "](https://te": 371,
      "](https://te.wikipedia.org/wiki/": 372,
      "#ci": 373,
      "#cite_": 374,
      "ou": 375,
      "as": 376,
      "](https://mr": 377,
      "](https://mr.wikipedia.org/wiki/": 378,
      "▁प": 379,
      "](https://en.wikipedia.org/wiki/India": 380,
      "ార": 381,
      "19": 382,
      "](https://hi": 383,
      "](https://hi.wikipedia.org/wiki/": 384,
      "▁India": 385,
      "ic": 386,
      "le": 387,
      "ान": 388,
      "र्": 389,
      "रा": 390,
      "▁म": 391,
      "▁in": 392,
      "201": 393,
      "ra": 394,
      "no": 395,
      "oo": 396,
      "OT": 397,
      "id": 398,
      "](https://en.wikipedia.org/wiki/India#cite_": 399,
      "्या": 400,
      "▁s": 401,
      "ent": 402,
      "**": 403,
      "ate": 404,
      "▁p": 405,
      "▁and": 406,
      "ాల": 407,
      "या": 408,
      "-0": 409,
      "200": 410,
      "ri": 411,
      "ac": 412,
      "ation": 413,
      "▁c": 414,
      "్య": 415,
      "ge": 416,
      "ing": 417,
      "am": 418,
      "us": 419,
      "▁व": 420,
      "्त": 421,
      "▁आ": 422,
      "▁A": 423,
      "ref": 424,
      "\\_": 425,
      "at": 426,
      "భార": 427,
      "▁ह": 428,
      "భారత": 429,
      "▁C": 430,
      "te-": 431,
      "దే": 432,
      "note-": 433,
      "ref-": 434,
      ").": 435,
      "దేశ": 436,
      "[[": 437,
      "స్": 438,
      "▁S": 439,
      "et": 440,
      "▁f": 441,
      "ad": 442,
      "▁ప": 443,
      "ook": 444,
      "ात": 445,
      "िक": 446,
      "▁अ": 447,
      "li": 448,
      "-1": 449,
      "▁b": 450,
      "సా": 451,
      "lo": 452,
      "ve": 453,
      "▁t": 454,
      "ाल": 455,
      ".\n": 456,
      "ర్": 457,
      "\"),": 458,
      "▁m": 459,
      "ang": 460,
      "um": 461,
      "ीय": 462,
      "న్": 463,
      "ch": 464,
      "ेश": 465,
      "78": 466,
      "ur": 467,
      "ver": 468,
      "ist": 469,
      "▁P": 470,
      "of_": 471,
      "com": 472,
      "lin": 473,
      "▁1": 474,
      "_of_": 475,
      "▁प्र": 476,
      "ul": 477,
      "ro": 478,
      "he": 479,
      "▁[↑": 480,
      "we": 481,
      "ial": 482,
      "il": 483,
      "ww": 484,
      "IS": 485,
      "▁द": 486,
      "st": 487,
      "िया": 488,
      "ce": 489,
      "FO": 490,
      "ory": 491,
      "▁|\n": 492,
      "NOT": 493,
      "OTNOT": 494,
      "FOOTNOT": 495,
      "FOOTNOTE": 496,
      "ंग": 497,
      "red": 498,
      "ons": 499,
      "un": 500,
      "లు": 501,
      "ना": 502,
      "ter": 503,
      "978": 504,
      "BN": 505,
      "▁d": 506,
      "▁w": 507,
      "ित": 508,
      "రా": 509,
      "ISBN": 510,
      "▁के": 511,
      "00": 512,
      "our": 513,
      "]](https://en.wikipedia.org/wiki/India#cite_": 514,
      "](https://en.wikipedia.org/wiki/India#cite_ref-": 515,
      "]](https://en.wikipedia.org/wiki/India#cite_note-": 516,
      "्ष": 517,
      "link": 518,
      "▁भारत": 519,
      "▁ज": 520,
      "ol": 521,
      "भा": 522,
      "▁T": 523,
      "edit": 524,
      "=1": 525,
      "fi": 526,
      "▁R": 527,
      "ला": 528,
      "భారతదేశ": 529,
      "action": 530,
      "स्": 531,
      "▁a": 532,
      "action=": 533,
      "tic": 534,
      "enti": 535,
      "action=edit": 536,
      "ें": 537,
      ".శ": 538,
      ".శ.": 539,
      "లో": 540,
      "21": 541,
      "సా.శ.": 542,
      "▁M": 543,
      "&red": 544,
      "?action=edit": 545,
      "link=1": 546,
      "&redlink=1": 547,
      "?action=edit&redlink=1": 548,
      "राज": 549,
      "▁**": 550,
      "ष्": 551,
      "ास": 552,
      "identi": 553,
      "▁క": 554,
      "fier": 555,
      "identifier": 556,
      "▁त": 557,
      "res": 558,
      "jp": 559,
      "▁to": 560,
      "em": 561,
      "-0)": 562,
      "ची": 563,
      "identifier)": 564,
      "age": 565,
      "ां": 566,
      "▁201": 567,
      "भारत#cite_": 568,
      "ni": 569,
      "త్ర": 570,
      ".jp": 571,
      "ment": 572,
      "▁न": 573,
      "ig": 574,
      "ాలు": 575,
      "chi": 576,
      "cial": 577,
      "▁B": 578,
      "రి": 579,
      "es/": 580,
      "ai": 581,
      "క్": 582,
      "web": 583,
      "book": 584,
      "ంద": 585,
      "▁ब": 586,
      "25": 587,
      "देश": 588,
      ".[[": 589,
      ")\n": 590,
      "ले": 591,
      "10": 592,
      "),": 593,
      "ని": 594,
      "▁వ": 595,
      "23": 596,
      "_(": 597,
      "▁l": 598,
      "ity": 599,
      "angu": 600,
      "▁D": 601,
      "▁\"S": 602,
      "sia": 603,
      "▁India\")": 604,
      "दी": 605,
      "न्": 606,
      "ind": 607,
      "ay": 608,
      "्व": 609,
      "26": 610,
      "▁[↑](https://en.wikipedia.org/wiki/India#cite_ref-": 611,
      "▁e": 612,
      "हे": 613,
      "ag": 614,
      "books": 615,
      "ల్": 616,
      ".g": 617,
      "భారతదేశం": 618,
      "IT": 619,
      "ly": 620,
      "pecial": 621,
      "▁*": 622,
      "24": 623,
      "त्र": 624,
      "me": 625,
      "क्ष": 626,
      "ER": 627,
      "ంగ": 628,
      ".com": 629,
      "ourc": 630,
      "con": 631,
      "▁స": 632,
      "EF": 633,
      "ITER": 634,
      "ष्ट": 635,
      "in_": 636,
      "ITEREF": 637,
      "tu": 638,
      "▁E": 639,
      "pecial:": 640,
      "199": 641,
      "al_": 642,
      "ील": 643,
      "▁మ": 644,
      "ion": 645,
      ".com/": 646,
      "▁आहे": 647,
      "ld": 648,
      "ाम": 649,
      "up": 650,
      "ber": 651,
      "india": 652,
      "్రా": 653,
      "▁h": 654,
      "oun": 655,
      "ources/": 656,
      "ir": 657,
      "षा": 658,
      "Book": 659,
      "Uni": 660,
      "ली": 661,
      "ved": 662,
      "Sources/": 663,
      "pecial:Book": 664,
      "pecial:BookSources/": 665,
      "▁G": 666,
      "#C": 667,
      "वि": 668,
      "·**": 669,
      "ీయ": 670,
      "▁**·**": 671,
      "#CITEREF": 672,
      "▁20": 673,
      "▁में": 674,
      "outh": 675,
      "28": 676,
      "pecial:BookSources/978": 677,
      "ండ": 678,
      "▁N": 679,
      "▁•": 680,
      "चे": 681,
      "स्त": 682,
      "▁H": 683,
      "gory": 684,
      "ategory": 685,
      "ain": 686,
      "rom": 687,
      "ategory:": 688,
      "▁ग": 689,
      "-3": 690,
      "ry": 691,
      "for": 692,
      "11": 693,
      "▁का": 694,
      "ों": 695,
      "भाषा": 696,
      "-4": 697,
      "www": 698,
      "_in_": 699,
      "జ్య": 700,
      "भारतीय": 701,
      "▁చ": 702,
      "सं": 703,
      "\")\n": 704,
      "anguage": 705,
      "वा": 706,
      "ष्ट्र": 707,
      "sh": 708,
      "cal": 709,
      ".jpg": 710,
      "op": 711,
      "▁श": 712,
      "www.": 713,
      "el": 714,
      "ct": 715,
      "च्या": 716,
      "राज्य": 717,
      "తా": 718,
      "प्र": 719,
      "rit": 720,
      "ab": 721,
      "ak": 722,
      "ress": 723,
      "ము": 724,
      "vers": 725,
      "▁200": 726,
      "▁on": 727,
      "री": 728,
      "నా": 729,
      "▁g": 730,
      "ती": 731,
      "తి": 732,
      "్ట": 733,
      "ary": 734,
      "n_": 735,
      "\").": 736,
      "▁re": 737,
      "_क": 738,
      "ew": 739,
      "ub": 740,
      "](https://en.wikipedia.org/wiki/India#CITEREF": 741,
      "ast": 742,
      "సి": 743,
      "50": 744,
      "▁th": 745,
      "The": 746,
      "త్": 747,
      "##": 748,
      "_of_India": 749,
      "--": 750,
      "द्र": 751,
      "ted": 752,
      "▁---": 753,
      "ap": 754,
      "चा": 755,
      "0%": 756,
      "18": 757,
      "od": 758,
      "archi": 759,
      "_S": 760,
      "ता": 761,
      "▁उ": 762,
      "-0-": 763,
      "▁इ": 764,
      "ने": 765,
      "▁or": 766,
      "est": 767,
      "calf": 768,
      "▁n": 769,
      "etcalf": 770,
      "ish": 771,
      "▁सं": 772,
      "30": 773,
      "▁F": 774,
      "_A": 775,
      "▁J": 776,
      "▁.": 777,
      "▁(సా.శ.": 778,
      "22": 779,
      "हि": 780,
      "▁है": 781,
      "▁[S": 782,
      "mp": 783,
      "]](https://en.wikipedia.org/wiki/India#cite_note-FOOTNOTE": 784,
      "List": 785,
      "▁from": 786,
      "र्व": 787,
      "యా": 788,
      "gh": 789,
      "ులు": 790,
      "▁రా": 791,
      "त्त": 792,
      "्रे": 793,
      "पु": 794,
      "archive": 795,
      "–సా.శ.": 796,
      "](https://hi.wikipedia.org/wiki/भारत#cite_": 797,
      "▁19": 798,
      "▁p.": 799,
      "सा": 800,
      "▁అ": 801,
      "orld": 802,
      "▁[म": 803,
      "ount": 804,
      "मा": 805,
      "ి.": 806,
      "▁by": 807,
      "os": 808,
      "▁[\"": 809,
      "with": 810,
      "-8": 811,
      "15": 812,
      "over": 813,
      "29": 814,
      ".in": 815,
      "ति": 816,
      "ust": 817,
      "▁ప్ర": 818,
      "▁(identifier)": 819,
      "_(identifier)": 820,
      "▁(identifier)\")": 821,
      "▁In": 822,
      "umb": 823,
      "ిక": 824,
      "40": 825,
      "▁for": 826,
      "har": 827,
      "ep": 828,
      "ud": 829,
      "णी": 830,
      "తం": 831,
      "ंड": 832,
      "versity": 833,
      "ts": 834,
      "▁\"C": 835,
      "ational": 836,
      "16": 837,
      "▁ar": 838,
      "ून": 839,
      "▁./": 840,
      "▁[A": 841,
      "archive.org/": 842,
      "था": 843,
      "ov": 844,
      "▁is": 845,
      "राष्ट्र": 846,
      "17": 847,
      "ిన": 848,
      "conom": 849,
      "జ్యం": 850,
      "mons": 851,
      "और": 852,
      "िल": 853,
      "▁या": 854,
      "Metcalf": 855,
      "](https://en.wikipedia.org/wiki/S": 856,
      "ec": 857,
      "](https://mai": 858,
      "▁Indian": 859,
      "](https://mai.wikipedia.org/wiki/": 860,
      "AA": 861,
      "జా": 862,
      "▁वि": 863,
      "▁की": 864,
      "media": 865,
      "](https://mr.wikipedia.org/wiki/भारत#cite_": 866,
      "web.": 867,
      "\"](https://": 868,
      "▁र": 869,
      "▁\"म": 870,
      "▁([": 871,
      "im": 872,
      "ంచ": 873,
      "కు": 874,
      "▁से": 875,
      "/http": 876,
      "web/": 877,
      "archive.org/web/": 878,
      "web.archive.org/web/": 879,
      "13": 880,
      "द्": 881,
      "▁O": 882,
      "27": 883,
      "gle": 884,
      "_C": 885,
      "का": 886,
      "](https://te.wikipedia.org/wiki/భారతదేశం": 887,
      "px": 888,
      "'s": 889,
      "ens": 890,
      "14": 891,
      "ను": 892,
      "పూ": 893,
      "commons": 894,
      "E0%": 895,
      "_and": 896,
      "*.": 897,
      "▁K": 898,
      "▁[C": 899,
      "▁Asia": 900,
      "_स": 901,
      "భా": 902,
      "_in_India": 903,
      "▁W": 904,
      "uc": 905,
      "av": 906,
      ".wikimedia": 907,
      "कार": 908,
      "nd": 909,
      "ng": 910,
      "ध्य": 911,
      "▁L": 912,
      "oogle": 913,
      "?id": 914,
      "ma": 915,
      "ప్ర": 916,
      "_P": 917,
      "▁ए": 918,
      "▁और": 919,
      "र्म": 920,
      "ద్": 921,
      "ింద": 922,
      "load": 923,
      ".gov": 924,
      "upload": 925,
      "og": 926,
      "](https://en.wikipedia.org/wiki/C": 927,
      "-9": 928,
      "पा": 929,
      "▁[ISBN": 930,
      "inal": 931,
      "4%": 932,
      "![": 933,
      "▁ఉ": 934,
      "late": 935,
      "per": 936,
      "pedia/": 937,
      ".org/wikipedia/": 938,
      ".wikimedia.org/wikipedia/": 939,
      "upload.wikimedia.org/wikipedia/": 940,
      "ते": 941,
      "?id=": 942,
      "](https://upload.wikimedia.org/wikipedia/": 943,
      "ం:": 944,
      "thumb": 945,
      "books.g": 946,
      ".com/books": 947,
      "oogle.com/books": 948,
      "books.google.com/books": 949,
      "▁य": 950,
      "E0%A": 951,
      "books.google.com/books?id=": 952,
      "/thumb": 953,
      "CS": 954,
      "o-": 955,
      "/thumb/": 956,
      "णि": 957,
      "ृत": 958,
      "▁\"M": 959,
      "](https://upload.wikimedia.org/wikipedia/commons": 960,
      "▁\"ISBN": 961,
      "ISBN_(identifier)": 962,
      "▁The": 963,
      "▁ఆ": 964,
      "▁[978": 965,
      "](S": 966,
      "px-": 967,
      "](https://upload.wikimedia.org/wikipedia/commons/thumb/": 968,
      "University": 969,
      "मु": 970,
      "ut": 971,
      "Har": 972,
      "▁ర": 973,
      "log": 974,
      "p.": 975,
      "हा": 976,
      "्म": 977,
      "aj": 978,
      "▁[↑](https://en.wikipedia.org/wiki/India#cite_ref-FOOTNOTE": 979,
      "▁[M": 980,
      "de": 981,
      "ors": 982,
      "ff": 983,
      "ther": 984,
      "▁be": 985,
      "di": 986,
      "మా": 987,
      "▁సా": 988,
      "భారతీయ": 989,
      "▁[*": 990,
      "art": 991,
      "स्तान": 992,
      "వా": 993,
      "ort": 994,
      "ong": 995,
      ")[[": 996,
      "a_": 997,
      "రు": 998,
      "](https://en.wikipedia.org/wiki/M": 999,
      "umm": 1000,
      "▁pp.": 1001,
      "▁१": 1002,
      "s/": 1003,
      "Category:": 1004,
      "पू": 1005,
      "ance": 1006,
      ".p": 1007,
      "▁पर": 1008,
      "వి": 1009,
      "ష్ట": 1010,
      "ార్": 1011,
      "పూ.": 1012,
      "ow": 1013,
      "rie": 1014,
      "ोक": 1015,
      "br": 1016,
      "s,": 1017,
      "▁orig": 1018,
      "▁प्रदेश": 1019,
      "క్ష": 1020,
      "▁भाषा": 1021,
      "oc": 1022,
      "ys": 1023,
      "ages": 1024,
      "](Special:BookSources/978": 1025,
      "err": 1026,
      "47": 1027,
      "](https://en.wikipedia.org/wiki/ISBN_(identifier)": 1028,
      "▁हो": 1029,
      "స్థ": 1030,
      "రిత్ర": 1031,
      "▁[ISBN](https://en.wikipedia.org/wiki/ISBN_(identifier)": 1032,
      "ans": 1033,
      "▁\"Special:BookSources/978": 1034,
      "▁[B": 1035,
      "%20": 1036,
      "%E0%A": 1037,
      "▁\"भारत": 1038,
      "▁आहे.": 1039,
      "ear": 1040,
      "▁\"B": 1041,
      "ाज": 1042,
      "▁ल": 1043,
      "▁as": 1044,
      ".in/": 1045,
      "िम": 1046,
      "lig": 1047,
      "cy": 1048,
      "चित": 1049,
      "▁I": 1050,
      "▁को": 1051,
      "द्ध": 1052,
      "▁original": 1053,
      "all": 1054,
      "న్న": 1055,
      "ence": 1056,
      "-2": 1057,
      "35": 1058,
      "](https://books.google.com/books?id=": 1059,
      "ha": 1060,
      "▁\"P": 1061,
      "शिया": 1062,
      ".jpg)": 1063,
      "ot": 1064,
      "▁भ": 1065,
      "tate": 1066,
      "2.": 1067,
      "ture": 1068,
      "tern": 1069,
      "_D": 1070,
      "emp": 1071,
      "und": 1072,
      "▁\"A": 1073,
      "ंद": 1074,
      "हार": 1075,
      ".jpg/": 1076,
      "▁&": 1077,
      "▁अस": 1078,
      "36": 1079,
      "-5": 1080,
      "▁\"स": 1081,
      "land": 1082,
      "▁with": 1083,
      "▁Ret": 1084,
      "38": 1085,
      "ore": 1086,
      "PA": 1087,
      "_India": 1088,
      "](https://te.wikipedia.org/wiki/భారతదేశం#cite_": 1089,
      "rieved": 1090,
      "▁Retrieved": 1091,
      "ile": 1092,
      "िय": 1093,
      "](https://hi.wikipedia.org/wiki/भारत": 1094,
      "▁ध": 1095,
      "les": 1096,
      "rchi": 1097,
      "िण": 1098,
      "ेत्र": 1099,
      "గా": 1100,
      "▁\"क": 1101,
      "ana": 1102,
      "नी": 1103,
      "ंत": 1104,
      "ere": 1105,
      "&p": 1106,
      "ll": 1107,
      "ంట": 1108,
      "కి": 1109,
      "▁राज्य": 1110,
      "▁देश": 1111,
      "_म": 1112,
      "चित्र": 1113,
      "](https://en.wikipedia.org/wiki/B": 1114,
      "ensus": 1115,
      "-7": 1116,
      "titu": 1117,
      "ss": 1118,
      "िश": 1119,
      "మ్రా": 1120,
      "ష్ట్ర": 1121,
      "_M": 1122,
      "जी": 1123,
      "opul": 1124,
      "overn": 1125,
      "%2": 1126,
      "▁Press": 1127,
      "धान": 1128,
      "वर्": 1129,
      "ంత": 1130,
      "omm": 1131,
      "_T": 1132,
      "ummit": 1133,
      "1.": 1134,
      "ुस": 1135,
      "](http://": 1136,
      "](https://en.wikipedia.org/wiki/P": 1137,
      "ड़": 1138,
      "ht": 1139,
      "▁ex": 1140,
      "क्षिण": 1141,
      "%E0%A4%": 1142,
      "्च": 1143,
      "ाली": 1144,
      "Ind": 1145,
      "Indian": 1146,
      "పు": 1147,
      "ord": 1148,
      "g=": 1149,
      "&pg=": 1150,
      "▁[क": 1151,
      "▁\"T": 1152,
      "\"))": 1153,
      "▁న": 1154,
      "language": 1155,
      "ries": 1156,
      "गर": 1157,
      "िस्तान": 1158,
      "ुर": 1159,
      "▁[P": 1160,
      "39": 1161,
      "ism": 1162,
      "ex": 1163,
      "ही": 1164,
      "మి": 1165,
      "ాన": 1166,
      "2006": 1167,
      "ric": 1168,
      "la": 1169,
      "▁language": 1170,
      "tein": 1171,
      "ass": 1172,
      "▁*[": 1173,
      "rchived": 1174,
      "oi": 1175,
      "పా": 1176,
      "▁ఇ": 1177,
      "▁త": 1178,
      "ations": 1179,
      "భాష": 1180,
      "als": 1181,
      "▁[ब": 1182,
      "्यां": 1183,
      "▁te": 1184,
      "2018": 1185,
      "▁Category:": 1186,
      "▁भारतीय": 1187,
      "ire": 1188,
      "▁[स": 1189,
      "▁कर": 1190,
      "▁was": 1191,
      "ubl": 1192,
      "▁University": 1193,
      "ard": 1194,
      "ies": 1195,
      "ंध": 1196,
      "hin": 1197,
      "2011": 1198,
      "▁de": 1199,
      "वे": 1200,
      "7.": 1201,
      "overnment": 1202,
      "పాల": 1203,
      "లీ": 1204,
      "\").\n": 1205,
      "&pg=PA": 1206,
      "48": 1207,
      "ue": 1208,
      "indu": 1209,
      "70": 1210,
      "श्रे": 1211,
      "हर": 1212,
      "▁దేశ": 1213,
      "స్తా": 1214,
      "▁\"ब": 1215,
      "स्क": 1216,
      "जा": 1217,
      "▁an": 1218,
      "opulation": 1219,
      "▁\"E": 1220,
      "ank": 1221,
      "istory": 1222,
      "_and_": 1223,
      "]](https://hi.wikipedia.org/wiki/भारत#cite_": 1224,
      "_G": 1225,
      "వర్": 1226,
      "ాయ": 1227,
      "](https://hi.wikipedia.org/wiki/भारत#cite_ref-": 1228,
      "श्रेणी": 1229,
      "]](https://hi.wikipedia.org/wiki/भारत#cite_note-": 1230,
      "▁are": 1231,
      "_प्र": 1232,
      "ik": 1233,
      "▁no": 1234,
      "](https://web.archive.org/web/": 1235,
      "ोल": 1236,
      "▁राज": 1237,
      "श्रेणी:": 1238,
      "_भाषा": 1239,
      "▁[अ": 1240,
      "/https://": 1241,
      "ाने": 1242,
      "िल्": 1243,
      "▁[D": 1244,
      "](https://en.wikipedia.org/wiki/A": 1245,
      "▁\"अ": 1246,
      "onstitu": 1247,
      "tics": 1248,
      "म्": 1249,
      "े_": 1250,
      "▁\"D": 1251,
      "ातील": 1252,
      "మ్రాజ్యం": 1253,
      "hm": 1254,
      "ीप": 1255,
      "▁स्": 1256,
      "anguages": 1257,
      "](https://en.wikipedia.org/wiki/E": 1258,
      "errors": 1259,
      "ountries": 1260,
      "राष्ट्रीय": 1261,
      "4.": 1262,
      "ers": 1263,
      "▁\"G": 1264,
      "▁\"List": 1265,
      "దేశ్": 1266,
      "Harv": 1267,
      "_s": 1268,
      "nic": 1269,
      "*](https://books.google.com/books?id=": 1270,
      "▁सा": 1271,
      "ुसार": 1272,
      "ani": 1273,
      "eral": 1274,
      "60": 1275,
      "ous": 1276,
      "45": 1277,
      "mber": 1278,
      "ंत्र": 1279,
      "ం](https://te.wikipedia.org/wiki/": 1280,
      "▁r": 1281,
      "](https://en.wikipedia.org/wiki/T": 1282,
      "ical": 1283,
      "esh": 1284,
      "2010": 1285,
      "![](https://upload.wikimedia.org/wikipedia/commons/thumb/": 1286,
      "t:": 1287,
      "ంబ": 1288,
      "టి": 1289,
      "▁it": 1290,
      "▁आहेत": 1291,
      "▁है।": 1292,
      "▁–": 1293,
      "दा": 1294,
      "▁ना": 1295,
      "▁एक": 1296,
      "ont": 1297,
      "ख्य": 1298,
      "ంలో": 1299,
      "స్తాన్": 1300,
      "3.": 1301,
      "46": 1302,
      "a\")": 1303,
      "वी": 1304,
      "iss": 1305,
      "List_of_": 1306,
      "37": 1307,
      "्क": 1308,
      "▁V": 1309,
      "ame": 1310,
      "_b": 1311,
      "णा": 1312,
      "शास": 1313,
      "గు": 1314,
      "డు": 1315,
      "నే": 1316,
      "్చ": 1317,
      "vi": 1318,
      "](https://en.wikipedia.org/wiki/D": 1319,
      "-6": 1320,
      "▁ख": 1321,
      "▁[G": 1322,
      "conomic": 1323,
      "▁भाषा\")": 1324,
      "टी": 1325,
      "▁whi": 1326,
      "sher": 1327,
      "]](https://mr.wikipedia.org/wiki/भारत#cite_": 1328,
      "మూ": 1329,
      "▁\"N": 1330,
      "omp": 1331,
      "్రీ": 1332,
      "జాత": 1333,
      "](https://mr.wikipedia.org/wiki/भारत#cite_ref-": 1334,
      "]](https://mr.wikipedia.org/wiki/भारत#cite_note-": 1335,
      "ah": 1336,
      "िस": 1337,
      "ford": 1338,
      "हास": 1339,
      "ian": 1340,
      "250": 1341,
      "त्तर": 1342,
      "ine": 1343,
      ")\")": 1344,
      "fn": 1345,
      "ke": 1346,
      "थान": 1347,
      "वर": 1348,
      "లా": 1349,
      "▁मु": 1350,
      "ంగా": 1351,
      "5.": 1352,
      "से": 1353,
      "ाम्र": 1354,
      "_R": 1355,
      "au": 1356,
      "aki": 1357,
      "ions": 1358,
      "▁घ": 1359,
      "eng": 1360,
      "udd": 1361,
      "%2C": 1362,
      "tive": 1363,
      "డ్": 1364,
      "ిల్": 1365,
      "▁झ": 1366,
      "▁జ": 1367,
      "arge": 1368,
      "](https://mr.wikipedia.org/wiki/म": 1369,
      "चीन": 1370,
      "htm": 1371,
      "6.": 1372,
      "xford": 1373,
      "ाम्राज": 1374,
      "AJ": 1375,
      "ction": 1376,
      "▁[2": 1377,
      "RI": 1378,
      "_B": 1379,
      "BAJ": 1380,
      "QBAJ": 1381,
      "िळ": 1382,
      "లి": 1383,
      "స్త్ర": 1384,
      "_Asia": 1385,
      "_p": 1386,
      "ven": 1387,
      "oli": 1388,
      "मान": 1389,
      "▁[N": 1390,
      "ess": 1391,
      "ral": 1392,
      "किस्तान": 1393,
      "▁[1": 1394,
      "भारतीय_": 1395,
      "conomy": 1396,
      "ata": 1397,
      "CS1": 1398,
      "కా": 1399,
      "ణా": 1400,
      "దక్ష": 1401,
      "ధిక": 1402,
      "▁च": 1403,
      "▁पु": 1404,
      "▁ప్రా": 1405,
      "▁వి": 1406,
      "సియా": 1407,
      "జాతీయ": 1408,
      "other": 1409,
      "ern": 1410,
      "_N": 1411,
      "धिक": 1412,
      "▁199": 1413,
      "artic": 1414,
      "▁हे": 1415,
      "lop": 1416,
      "stan": 1417,
      ".jpg)\n": 1418,
      "_के_": 1419,
      "49": 1420,
      "tim": 1421,
      "ंब": 1422,
      "गु": 1423,
      "వం": 1424,
      "▁\"R": 1425,
      "▁प्रा": 1426,
      "▁సం": 1427,
      "▁చరిత్ర": 1428,
      "1)": 1429,
      "-10": 1430,
      "rou": 1431,
      "पर": 1432,
      "riti": 1433,
      "](https://en.wikipedia.org/wiki/G": 1434,
      "](https://en.wikipedia.org/wiki/R": 1435,
      "-1)": 1436,
      "-0-19": 1437,
      "4)": 1438,
      "end": 1439,
      ").\n": 1440,
      ",_": 1441,
      "Stein": 1442,
      "df": 1443,
      "ty": 1444,
      "मे": 1445,
      "డి": 1446,
      "AAQBAJ": 1447,
      "ach": 1448,
      "▁which": 1449,
      "िर": 1450,
      "ूची": 1451,
      "ोर": 1452,
      "sv": 1453,
      "दक्षिण": 1454,
      "ali": 1455,
      "india.gov": 1456,
      "77": 1457,
      "ంధ": 1458,
      "](https://en.wikipedia.org/wiki/N": 1459,
      "his": 1460,
      "స్త": 1461,
      "▁రాజ్యం": 1462,
      "MetcalfMetcalf": 1463,
      "▁సామ్రాజ్యం": 1464,
      "tates": 1465,
      "వర్గ": 1466,
      "దక్షి": 1467,
      "▁2011": 1468,
      "▁[E": 1469,
      "▁\"भारतीय": 1470,
      "ark": 1471,
      "▁क्ष": 1472,
      "ublic": 1473,
      "-p": 1474,
      "िव": 1475,
      "United": 1476,
      "iv": 1477,
      "fe": 1478,
      "ाच्या": 1479,
      "దీ": 1480,
      "▁[R": 1481,
      "ండి": 1482,
      "వర్గం:": 1483,
      "/http://": 1484,
      "8.": 1485,
      "मन": 1486,
      "▁(P": 1487,
      "▁[↑](https://hi.wikipedia.org/wiki/भारत#cite_ref-": 1488,
      "3)": 1489,
      "](https://en.wikipedia.org/wiki/List_of_": 1490,
      "क्त": 1491,
      "\"](https://web.archive.org/web/": 1492,
      "ध्ये": 1493,
      "▁[T": 1494,
      "ope": 1495,
      "तात": 1496,
      "తర": 1497,
      "ది": 1498,
      "▁బ": 1499,
      "▁li": 1500,
      "▁De": 1501,
      "ath": 1502,
      "territ": 1503,
      "ज़": 1504,
      "▁South": 1505,
      "indi": 1506,
      "्वीप": 1507,
      "gen": 1508,
      "▁has": 1509,
      "ob": 1510,
      "टक": 1511,
      "तम": 1512,
      "ange": 1513,
      "out": 1514,
      "▁India's": 1515,
      "s.": 1516,
      "मी": 1517,
      "ట్": 1518,
      "ిత": 1519,
      "्यात": 1520,
      "▁वा": 1521,
      "RICS": 1522,
      "ib": 1523,
      ".pdf": 1524,
      "_m": 1525,
      "ug": 1526,
      "rap": 1527,
      "000": 1528,
      "▁जात": 1529,
      "▁[Archived": 1530,
      "onstitution": 1531,
      "▁[Archived](https://web.archive.org/web/": 1532,
      "ult": 1533,
      "▁that": 1534,
      "ile:": 1535,
      "िन्": 1536,
      "pend": 1537,
      "rad": 1538,
      "▁क्षेत्र": 1539,
      "DP": 1540,
      "ta": 1541,
      "_చ": 1542,
      "sland": 1543,
      "ం\")": 1544,
      "▁\"మ": 1545,
      "▁आणि": 1546,
      "ింది.": 1547,
      "िल्ली": 1548,
      "cl": 1549,
      "iki": 1550,
      ".pdf)": 1551,
      "▁भा": 1552,
      "र्थ": 1553,
      "▁pro": 1554,
      "▁वर्": 1555,
      "ाम्राज्य": 1556,
      "_E": 1557,
      "hist": 1558,
      "ational_": 1559,
      "लेख": 1560,
      "ountry": 1561,
      "ties": 1562,
      "idge": 1563,
      "नुसार": 1564,
      "▁ఎ": 1565,
      "▁[మ": 1566,
      "ार्": 1567,
      "](https://mr.wikipedia.org/wiki/स": 1568,
      "10.": 1569,
      "विश": 1570,
      "▁(సా.శ.పూ.": 1571,
      "9.": 1572,
      "ove": 1573,
      "###": 1574,
      "33": 1575,
      "_न": 1576,
      "ज्": 1577,
      "ोग": 1578,
      "▁पा": 1579,
      "ration": 1580,
      "ाला": 1581,
      "हिन्": 1582,
      "logy": 1583,
      "to": 1584,
      "inist": 1585,
      "man": 1586,
      "त्": 1587,
      "त्य": 1588,
      "..": 1589,
      "DF": 1590,
      "bot": 1591,
      "File:": 1592,
      "ेला": 1593,
      "ధ్య": 1594,
      "▁గ": 1595,
      "▁శ": 1596,
      "▁ने": 1597,
      "ంద్ర": 1598,
      "cont": 1599,
      "ost": 1600,
      "शी": 1601,
      "ritish": 1602,
      "new": 1603,
      "▁un": 1604,
      "▁\"H": 1605,
      "albot": 1606,
      "ल्या": 1607,
      "पूर्व": 1608,
      "90": 1609,
      "icial": 1610,
      "12": 1611,
      "56": 1612,
      "धार": 1613,
      "ेष": 1614,
      "ైన": 1615,
      "](https://te.wikipedia.org/wiki/మ": 1616,
      "▁పే": 1617,
      "velop": 1618,
      "▁[↑](https://mr.wikipedia.org/wiki/भारत#cite_ref-": 1619,
      "पाकिस्तान": 1620,
      "यु": 1621,
      "ाष्ट्र": 1622,
      "ंग्रे": 1623,
      "43": 1624,
      "shi": 1625,
      "ome": 1626,
      "\"\n": 1627,
      "120": 1628,
      "80": 1629,
      "िन": 1630,
      "▁pe": 1631,
      "▁मो": 1632,
      "ack": 1633,
      "▁Re": 1634,
      "mpire": 1635,
      "%E0%A4%B": 1636,
      "html": 1637,
      "ree": 1638,
      "ury": 1639,
      "ansk": 1640,
      "Asher": 1641,
      "ట్ట": 1642,
      "హింద": 1643,
      "▁భారతదేశం": 1644,
      "](File:": 1645,
      "](https://mr.wikipedia.org/wiki/क": 1646,
      "ంగ్": 1647,
      "ద్ధ": 1648,
      "67": 1649,
      "▁(PDF": 1650,
      "hy": 1651,
      "▁२": 1652,
      "▁धर्म": 1653,
      "वर्ग": 1654,
      "se": 1655,
      "की": 1656,
      "▁[K": 1657,
      "्रि": 1658,
      "/c": 1659,
      "▁5": 1660,
      "▁7": 1661,
      "2007": 1662,
      "ingh": 1663,
      "▁2007": 1664,
      "anskrit": 1665,
      "लोक": 1666,
      "ించ": 1667,
      "▁3": 1668,
      "▁v": 1669,
      "▁ఒ": 1670,
      "▁at": 1671,
      "▁భాష": 1672,
      "▁[క": 1673,
      "ాల్": 1674,
      "ंगाल": 1675,
      "](https://en.wikipedia.org/wiki/India#cite_ref-FOOTNOTE": 1676,
      "▁भारतात": 1677,
      "ign": 1678,
      "श्रेणी:Harv": 1679,
      "2004": 1680,
      "▁cent": 1681,
      "-t": 1682,
      "पट": 1683,
      "श्च": 1684,
      "▁U": 1685,
      "▁\"आ": 1686,
      "▁\"The": 1687,
      "ames": 1688,
      "outh_Asia": 1689,
      "elhi": 1690,
      "AAQBAJ&pg=PA": 1691,
      "velopment": 1692,
      "हित": 1693,
      "▁\"ज": 1694,
      "ated": 1695,
      "चित्र:": 1696,
      "s\")": 1697,
      "]](https://te.wikipedia.org/wiki/భారతదేశం#cite_": 1698,
      "qu": 1699,
      "ठा": 1700,
      "रकार": 1701,
      "చ్చ": 1702,
      "జీ": 1703,
      "ేంద్ర": 1704,
      "▁\"క": 1705,
      "aste": 1706,
      "ater": 1707,
      "amil": 1708,
      "ulture": 1709,
      "▁हैं": 1710,
      "](https://te.wikipedia.org/wiki/భారతదేశం#cite_ref-": 1711,
      "_प्रदेश": 1712,
      "वर्ग:": 1713,
      "]](https://te.wikipedia.org/wiki/భారతదేశం#cite_note-": 1714,
      "▁\"K": 1715,
      "usic": 1716,
      "▁\"इ": 1717,
      "▁se": 1718,
      "▁its": 1719,
      "RC": 1720,
      "hand": 1721,
      "▁\"Indian": 1722,
      "](https://en.wikipedia.org/wiki/H": 1723,
      "▁18": 1724,
      "ograp": 1725,
      "emplate": 1726,
      "250px-": 1727,
      "_language": 1728,
      "duc": 1729,
      "world": 1730,
      "स्ट": 1731,
      "तिहास": 1732,
      "MetcalfMetcalf2006": 1733,
      "World": 1734,
      "ite": 1735,
      "द्य": 1736,
      "త్య": 1737,
      "బ్": 1738,
      "మీ": 1739,
      "▁[the": 1740,
      "isation": 1741,
      "](https://te.wikipedia.org/wiki/ద": 1742,
      "్యా": 1743,
      "▁अभ": 1744,
      "రాష్ట్ర": 1745,
      "▁./వర్గం:": 1746,
      "्रिट": 1747,
      "ood": 1748,
      "पी": 1749,
      "बा": 1750,
      "orth": 1751,
      "▁१९": 1752,
      "bridge": 1753,
      "हाराष्ट्र": 1754,
      "श्चिम": 1755,
      "▁[H": 1756,
      "_आ": 1757,
      "por": 1758,
      "गण": 1759,
      "ठी": 1760,
      "ूल": 1761,
      "▁मान": 1762,
      "▁4": 1763,
      ".sv": 1764,
      "ంక": 1765,
      "ప్": 1766,
      "యు": 1767,
      "\")*": 1768,
      "any": 1769,
      "](https://mr.wikipedia.org/wiki/भारत": 1770,
      "िका": 1771,
      "-0-5": 1772,
      "తంత్ర": 1773,
      "దక్షిణ": 1774,
      "2)": 1775,
      "_d": 1776,
      "row": 1777,
      "na": 1778,
      "हु": 1779,
      "ृष्": 1780,
      "▁st": 1781,
      "lion": 1782,
      "times": 1783,
      "roup": 1784,
      "inent": 1785,
      "lection": 1786,
      "कर": 1787,
      "ल्": 1788,
      "▁स्व": 1789,
      "्त्र": 1790,
      "जाब": 1791,
      "ज्ञ": 1792,
      "ef": 1793,
      "ms": 1794,
      "oh": 1795,
      "arg": 1796,
      "ambridge": 1797,
      "Oxford": 1798,
      "_స": 1799,
      "ave": 1800,
      "चल": 1801,
      "जरा": 1802,
      "पं": 1803,
      "ळे": 1804,
      "ैन": 1805,
      "తము": 1806,
      "వే": 1807,
      "ష్": 1808,
      "ాన్": 1809,
      "2014": 1810,
      "స్క": 1811,
      "▁आहेत.": 1812,
      "शासित": 1813,
      "ిల్లీ": 1814,
      "[![](https://upload.wikimedia.org/wikipedia/commons/thumb/": 1815,
      "hr": 1816,
      "▁[![": 1817,
      "ril": 1818,
      "▁[L": 1819,
      "erv": 1820,
      "alth": 1821,
      "ice": 1822,
      "▁reg": 1823,
      "matics": 1824,
      "-m": 1825,
      "](https://en.wikipedia.org/wiki/K": 1826,
      "▁wh": 1827,
      "shit": 1828,
      "-b": 1829,
      "थि": 1830,
      "dition": 1831,
      "2003": 1832,
      "▁languages": 1833,
      "डिया": 1834,
      "ूर": 1835,
      "జి": 1836,
      "ధాన": 1837,
      "బె": 1838,
      "ారు": 1839,
      "▁కా": 1840,
      "aint:": 1841,
      "▁రాజ": 1842,
      "AARC": 1843,
      "ृत्य": 1844,
      ".jpg/250px-": 1845,
      "ंतर": 1846,
      "mer": 1847,
      "▁cont": 1848,
      "▁were": 1849,
      "ligion": 1850,
      "doi": 1851,
      "lish": 1852,
      "वं": 1853,
      "Wiki": 1854,
      "led": 1855,
      "](https://en.wikipedia.org/wiki/Indian_": 1856,
      "▁mil": 1857,
      "uring": 1858,
      "yson": 1859,
      "_by": 1860,
      "\"](https://web.archive.org/web/201": 1861,
      "प्त": 1862,
      "सभ": 1863,
      "माण": 1864,
      "akistan": 1865,
      "ashm": 1866,
      "_F": 1867,
      "census": 1868,
      "रब": 1869,
      "దు": 1870,
      "మ్": 1871,
      "శ్": 1872,
      "temp": 1873,
      "](https://te.wikipedia.org/wiki/క": 1874,
      "ase": 1875,
      "2009": 1876,
      "్యవ": 1877,
      "ालय": 1878,
      "old": 1879,
      "ంది.": 1880,
      "Stein2010": 1881,
      "_చరిత్ర": 1882,
      "पंजाब": 1883,
      "_1": 1884,
      "lia": 1885,
      "▁le": 1886,
      "▁ad": 1887,
      "radesh": 1888,
      "ंद्र": 1889,
      "वन": 1890,
      "ारी": 1891,
      "्रिटिश": 1892,
      "alay": 1893,
      "2005": 1894,
      "urope": 1895,
      "▁2021": 1896,
      "/https://www.": 1897,
      "5)": 1898,
      "ork": 1899,
      "▁[इ": 1900,
      "▁[भारत": 1901,
      "ten": 1902,
      "ाना": 1903,
      "स्थान": 1904,
      "▁Hindu": 1905,
      "▁संस्क": 1906,
      "Indo-": 1907,
      "/p": 1908,
      "2008": 1909,
      "IN": 1910,
      "जन": 1911,
      "ఢిల్లీ": 1912,
      "పంచ": 1913,
      "▁\"L": 1914,
      "arch": 1915,
      "▁सम": 1916,
      "ారి": 1917,
      "▁sub": 1918,
      "ंगा": 1919,
      "ांची": 1920,
      "ound": 1921,
      "_की": 1922,
      ".jpg)](File:": 1923,
      "మూస": 1924,
      "57": 1925,
      "une": 1926,
      "▁2014": 1927,
      "yste": 1928,
      "िक्ष": 1929,
      "▁ति": 1930,
      "ati": 1931,
      "uary": 1932,
      "irst": 1933,
      "continent": 1934,
      "Dw": 1935,
      "द्वीप": 1936,
      "सद": 1937,
      "िर्": 1938,
      "ीर": 1939,
      "ैद": 1940,
      "▁[उ": 1941,
      "▁पू": 1942,
      "▁Ap": 1943,
      "स्था": 1944,
      "tical": 1945,
      "▁बा": 1946,
      "▁History": 1947,
      "▁[978-1": 1948,
      "vis": 1949,
      "▁8": 1950,
      "6)": 1951,
      "aw": 1952,
      "gan": 1953,
      "रु": 1954,
      "श्म": 1955,
      "వు": 1956,
      "](https://www.": 1957,
      "▁\"భారతీయ": 1958,
      "anc": 1959,
      "ese": 1960,
      "स्व": 1961,
      "▁Asian": 1962,
      "▁ये": 1963,
      "-s": 1964,
      "air": 1965,
      ".;": 1966,
      "dit": 1967,
      "pu": 1968,
      "ख्या": 1969,
      "िं": 1970,
      "▁\"उ": 1971,
      "▁**[": 1972,
      "▁2010": 1973,
      "क्षेत्र": 1974,
      "▁उप": 1975,
      "cies": 1976,
      ".\"\n": 1977,
      "के": 1978,
      "ीम": 1979,
      "ाले": 1980,
      "▁जन": 1981,
      "दी\")": 1982,
      "ंडिया": 1983,
      "\"](https://www.": 1984,
      ".nic": 1985,
      "mb": 1986,
      "65": 1987,
      "_c": 1988,
      "गातील": 1989,
      "జన": 1990,
      "టు": 1991,
      "టె": 1992,
      "▁\"F": 1993,
      "▁ch": 1994,
      "▁2019": 1995,
      "▁गण": 1996,
      "▁చె": 1997,
      "నాయ": 1998,
      "ght": 1999,
      "–సా.శ.పూ.": 2000,
      "▁ఆర్": 2001,
      "चित्रपट": 2002,
      "](http://www.": 2003,
      "పాలిత": 2004,
      "స్త్రం:": 2005,
      "▁ప్రాంత": 2006,
      "विशेष": 2007,
      "ేంద్రపాలిత": 2008,
      "](https://te.wikipedia.org/wiki/దస్త్రం:": 2009,
      "-d": 2010,
      "-g": 2011,
      "odern": 2012,
      "05": 2013,
      "िग": 2014,
      "िंध": 2015,
      "ेट": 2016,
      "▁सरकार": 2017,
      "ats": 2018,
      "inistry": 2019,
      "7)": 2020,
      "act": 2021,
      "india.gov.in/": 2022,
      "62": 2023,
      "\"))\n": 2024,
      "ise": 2025,
      "▁साम्राज्य": 2026,
      "▁हा": 2027,
      "uly": 2028,
      "न्न": 2029,
      "ission": 2030,
      "2019": 2031,
      "rate": 2032,
      "-india": 2033,
      "lass": 2034,
      "port": 2035,
      "णे": 2036,
      "धी": 2037,
      "व्य": 2038,
      "सी": 2039,
      "्ह": 2040,
      "ఖ్య": 2041,
      "గో": 2042,
      "తో": 2043,
      "బి": 2044,
      "హి": 2045,
      "ories": 2046,
      "\")**": 2047,
      "](https://en.wikipedia.org/wiki/L": 2048,
      "▁प्रदेश\")": 2049,
      "गुजरा": 2050,
      "స్కృ": 2051,
      "val": 2052,
      "on-": 2053,
      "ace": 2054,
      "ower": 2055,
      "भू": 2056,
      "ोब": 2057,
      "ौद्ध": 2058,
      "▁15": 2059,
      "ेंद्र": 2060,
      "age/": 2061,
      "ांत": 2062,
      "नेक": 2063,
      "69": 2064,
      "▁26": 2065,
      "lear": 2066,
      "rib": 2067,
      "earch": 2068,
      "34": 2069,
      "PP": 2070,
      "ीत": 2071,
      "ोन": 2072,
      "▁territ": 2073,
      "ant": 2074,
      "ari": 2075,
      "](https://hi.wikipedia.org/wiki/अ": 2076,
      "▁Comm": 2077,
      "▁अन": 2078,
      "▁अनेक": 2079,
      "hel": 2080,
      "_ప": 2081,
      "fter": 2082,
      "year": 2083,
      "मध्ये": 2084,
      "హా": 2085,
      "ి.\n": 2086,
      "▁ट": 2087,
      "▁ను": 2088,
      "▁జాతీయ": 2089,
      "ंग्र": 2090,
      "नाड": 2091,
      "ustry": 2092,
      "▁पुरा": 2093,
      "तात.": 2094,
      "్యవస్థ": 2095,
      "विशेष:": 2096,
      "Talbot": 2097,
      "▁2": 2098,
      "ister": 2099,
      "AsherTalbot": 2100,
      "ystem": 2101,
      "_the": 2102,
      "▁[न": 2103,
      "](https://hi.wikipedia.org/wiki/म": 2104,
      "▁रो": 2105,
      "330": 2106,
      "ail": 2107,
      "eneral": 2108,
      "berg": 2109,
      "Union": 2110,
      "uclear": 2111,
      "▁April": 2112,
      "1/": 2113,
      "uk": 2114,
      "▁फ": 2115,
      "्रो": 2116,
      "विध": 2117,
      "चा:": 2118,
      "0.": 2119,
      "▁[F": 2120,
      "ined": 2121,
      "usin": 2122,
      "uman": 2123,
      "58": 2124,
      "59": 2125,
      "तु": 2126,
      "धर्म": 2127,
      "ेत": 2128,
      "्स": 2129,
      "డా": 2130,
      "దా": 2131,
      "బడ": 2132,
      "మే": 2133,
      "రణ": 2134,
      "▁ri": 2135,
      "▁లో": 2136,
      "ority": 2137,
      "▁[ज": 2138,
      "▁[भारतीय": 2139,
      "](https://mr.wikipedia.org/wiki/अ": 2140,
      "](https://mr.wikipedia.org/wiki/आ": 2141,
      "197": 2142,
      "▁India,": 2143,
      "line": 2144,
      "▁కూ": 2145,
      "▁तथा": 2146,
      "ాలు,": 2147,
      "▁काळ": 2148,
      "▁రాష్ట్ర": 2149,
      "ते.": 2150,
      "%20%20": 2151,
      "కిస్తాన్": 2152,
      "▁చరిత్ర\")": 2153,
      "तमिळ": 2154,
      "ographi": 2155,
      "▁An": 2156,
      "umber": 2157,
      "/978": 2158,
      "national": 2159,
      "दे": 2160,
      "](https://en.wikipedia.org/wiki/F": 2161,
      "्री": 2162,
      "▁सर्व": 2163,
      "▁17": 2164,
      "िया\")": 2165,
      "/artic": 2166,
      "8/": 2167,
      "uch": 2168,
      "ugh": 2169,
      "wart": 2170,
      "zberg": 2171,
      "low": 2172,
      "chwart": 2173,
      "▁Asia\")": 2174,
      "late_": 2175,
      "chwartzberg": 2176,
      "-l": 2177,
      "Edit": 2178,
      "Page/": 2179,
      "म्म": 2180,
      "▁[W": 2181,
      "aman": 2182,
      "EditPage/": 2183,
      "68": 2184,
      "ctor": 2185,
      "uj": 2186,
      "yn": 2187,
      "ण्": 2188,
      "▁ఈ": 2189,
      "▁భారత": 2190,
      "edi": 2191,
      "](https://mr.wikipedia.org/wiki/ब": 2192,
      "▁par": 2193,
      "▁आशिया": 2194,
      "త్రి": 2195,
      "ాలు](https://te.wikipedia.org/wiki/": 2196,
      "पुर": 2197,
      "▁./Category:": 2198,
      "](Special:BookSources/978-1": 2199,
      "▁\"Special:BookSources/978-1": 2200,
      "▁Island": 2201,
      "emplate:": 2202,
      "-0-521": 2203,
      "▁तिथि": 2204,
      "_H": 2205,
      "kno": 2206,
      "t\\_": 2207,
      "Intern": 2208,
      "lim": 2209,
      "igh": 2210,
      "_देश": 2211,
      "गढ": 2212,
      "डी": 2213,
      "दिल्ली": 2214,
      "entre": 2215,
      "ंग्": 2216,
      "विधान": 2217,
      "ongress": 2218,
      "▁वर्ष": 2219,
      "▁संस्कृ": 2220,
      "ond": 2221,
      "\\_S": 2222,
      "▁Pro": 2223,
      "1998": 2224,
      "odi": 2225,
      "▁July": 2226,
      "ikshit": 2227,
      "100": 2228,
      "्रम": 2229,
      "्रा": 2230,
      "▁countries": 2231,
      "▁tra": 2232,
      "▁Empire": 2233,
      "▁World": 2234,
      "म्ब": 2235,
      "-c": 2236,
      "omb": 2237,
      "emb": 2238,
      ".svg": 2239,
      "ashmir": 2240,
      ".nic.in/": 2241,
      "Ar": 2242,
      "Asia": 2243,
      "_L": 2244,
      "_క": 2245,
      "a,": 2246,
      "aper": 2247,
      "ober": 2248,
      "डा": 2249,
      "मार": 2250,
      "रे": 2251,
      "ळी": 2252,
      "తు": 2253,
      "పతి": 2254,
      "▁ని": 2255,
      "▁राष्ट्र": 2256,
      "▁స్థ": 2257,
      "▁चित्रपट": 2258,
      "▁[ग": 2259,
      "▁[అ": 2260,
      "▁[ప": 2261,
      "▁\"ग": 2262,
      "▁\"భారతదేశం": 2263,
      "\").[[": 2264,
      "्यान": 2265,
      "్రి": 2266,
      "](https://mr.wikipedia.org/wiki/इ": 2267,
      "ates": 2268,
      "ర్వ": 2269,
      "న్ని": 2270,
      "▁[↑](https://te.wikipedia.org/wiki/భారతదేశం#cite_ref-": 2271,
      "▁भारताच्या": 2272,
      "1994": 2273,
      "▁भू": 2274,
      "మిళ": 2275,
      "వంశ": 2276,
      "-in": 2277,
      "eg": 2278,
      "▁25": 2279,
      "▁New": 2280,
      "brary": 2281,
      "/http://www.": 2282,
      "_अ": 2283,
      "पश्चिम": 2284,
      "००": 2285,
      "▁[आ": 2286,
      "\\_with": 2287,
      "▁अधिक": 2288,
      "▁शिक्ष": 2289,
      "_का": 2290,
      "▁not": 2291,
      "ृष्ठ": 2292,
      "ledge": 2293,
      "▁तिथि:": 2294,
      "South_Asia": 2295,
      "athe": 2296,
      "cre": 2297,
      "dom": 2298,
      "fl": 2299,
      "rof": 2300,
      "king": 2301,
      "2023": 2302,
      "▁pl": 2303,
      "▁\"South": 2304,
      "_Indian_": 2305,
      "ummit\")": 2306,
      "1,": 2307,
      "IA": 2308,
      "▁9": 2309,
      "▁\"न": 2310,
      "1947": 2311,
      "▁cons": 2312,
      "▁ही": 2313,
      "ाती": 2314,
      "▁ते": 2315,
      "ople": 2316,
      "▁विविध": 2317,
      "nglish": 2318,
      "▁पूर्व": 2319,
      "gy": 2320,
      "_4": 2321,
      "_మ": 2322,
      "_భాష": 2323,
      "hp": 2324,
      "ocial": 2325,
      "ution": 2326,
      "ves": 2327,
      "सम": 2328,
      "ाची": 2329,
      "ఫ్": 2330,
      "▁స్": 2331,
      "▁[J": 2332,
      "▁[బ": 2333,
      "▁[స": 2334,
      "▁[सं": 2335,
      "▁\"J": 2336,
      "▁\"అ": 2337,
      "er,": 2338,
      "](https://mr.wikipedia.org/wiki/ज": 2339,
      "](https://mr.wikipedia.org/wiki/चित्र:": 2340,
      "](https://hi.wikipedia.org/wiki/क": 2341,
      "ley": 2342,
      "rab": 2343,
      "ide": 2344,
      "న్నాయ": 2345,
      "▁కాల": 2346,
      "ాలు\")": 2347,
      "▁have": 2348,
      "ులు](https://te.wikipedia.org/wiki/": 2349,
      "imes": 2350,
      "▁రై": 2351,
      ".jpg)](https://te.wikipedia.org/wiki/దస్త్రం:": 2352,
      "▁language\")": 2353,
      "history": 2354,
      "హిందూ": 2355,
      "▁अभिग": 2356,
      "▁अभिगमन": 2357,
      "\")*.": 2358,
      "iron": 2359,
      "9)": 2360,
      "ph": 2361,
      "एस": 2362,
      "ूप": 2363,
      "ेक": 2364,
      "tember": 2365,
      "▁सूची": 2366,
      "eptember": 2367,
      "▁यु": 2368,
      "▁भाग": 2369,
      "्रोत": 2370,
      "\\_with\\_": 2371,
      "att": 2372,
      "ure": 2373,
      "▁year": 2374,
      "](https://en.wikipedia.org/wiki/J": 2375,
      "▁into": 2376,
      "ram": 2377,
      "idd": 2378,
      "▁ag": 2379,
      "▁government": 2380,
      "_Press": 2381,
      "engal": 2382,
      "uropean": 2383,
      "87": 2384,
      "par": 2385,
      "खंड": 2386,
      "दू": 2387,
      "ब्": 2388,
      "▁ऑ": 2389,
      "ed.": 2390,
      "urr": 2391,
      "▁En": 2392,
      "हाय": 2393,
      "also": 2394,
      "▁हैं।": 2395,
      "_re": 2396,
      "mar": 2397,
      "mund": 2398,
      "cient": 2399,
      "cience": 2400,
      "othermund": 2401,
      "rin": 2402,
      "ाचे": 2403,
      "ఆసియా": 2404,
      "ద్ర": 2405,
      "భూ": 2406,
      "మె": 2407,
      "య్య": 2408,
      "ర్య": 2409,
      "▁ల": 2410,
      "▁\"ప": 2411,
      "▁\"బ": 2412,
      "▁\"స": 2413,
      "▁their": 2414,
      "▁comp": 2415,
      "anges": 2416,
      "▁during": 2417,
      "210": 2418,
      "ember": 2419,
      "ctober": 2420,
      "త్త": 2421,
      "▁అధిక": 2422,
      "▁ప్రదేశ్": 2423,
      "▁October": 2424,
      "ప్రదేశ్": 2425,
      "पूर": 2426,
      "▁लोक": 2427,
      "ंदिर": 2428,
      "_summit": 2429,
      "news/": 2430,
      "वर्ग:CS1": 2431,
      "DwAAQBAJ&pg=PA": 2432,
      "▁నుండి": 2433,
      "▁रोजी": 2434,
      "C&pg=PA": 2435,
      "viron": 2436,
      "▁24": 2437,
      "▁con": 2438,
      "vironment": 2439,
      "](https://hi.wikipedia.org/wiki/स": 2440,
      "▁10": 2441,
      "ulke": 2442,
      "▁दक्षिण": 2443,
      "स्तक": 2444,
      "▁this": 2445,
      "▁इतिहास": 2446,
      "पुस्तक": 2447,
      "▁स्था": 2448,
      "विशेष:पुस्तक": 2449,
      "330px-": 2450,
      "्रोत/978": 2451,
      "51": 2452,
      "Dyson": 2453,
      "countries": 2454,
      "du": 2455,
      "mi": 2456,
      "pt": 2457,
      "son": 2458,
      "tra": 2459,
      "isc": 2460,
      "▁Archived": 2461,
      "▁Aug": 2462,
      "▁first": 2463,
      "ill": 2464,
      "▁Press\").": 2465,
      "outledge": 2466,
      "120px-": 2467,
      "▁August": 2468,
      "तन": 2469,
      "वाम": 2470,
      "१९": 2471,
      "▁us": 2472,
      "inister": 2473,
      "▁Pradesh": 2474,
      "▁Th": 2475,
      "ज़ी": 2476,
      "ण्ड": 2477,
      "-20": 2478,
      "_at": 2479,
      "▁[I": 2480,
      "ters": 2481,
      "argest": 2482,
      "help": 2483,
      "%28": 2484,
      "oor": 2485,
      "ote": 2486,
      "tal": 2487,
      "ंप": 2488,
      "धील": 2489,
      "ेर": 2490,
      "ణి": 2491,
      "తమిళ": 2492,
      "మైన": 2493,
      "హార": 2494,
      "ోర్": 2495,
      "▁\"ఇ": 2496,
      "▁\"భారత": 2497,
      "time": 2498,
      "](https://te.wikipedia.org/wiki/బ": 2499,
      "▁class": 2500,
      "ural": 2501,
      "rop": 2502,
      "राजस्थान": 2503,
      "▁बहु": 2504,
      "▁మొ": 2505,
      "aint": 2506,
      "▁शास": 2507,
      "నాగ": 2508,
      "త్తర": 2509,
      "ులు\")": 2510,
      "मुद्र": 2511,
      "युक्त": 2512,
      "శ్మీ": 2513,
      "మూస:": 2514,
      "नाडू": 2515,
      "▁स्थाप": 2516,
      ".html": 2517,
      "2-0)": 2518,
      "ive": 2519,
      "▁also": 2520,
      "India)": 2521,
      "▁off": 2522,
      "▁(201": 2523,
      "entral": 2524,
      "able": 2525,
      "isher": 2526,
      "बंध": 2527,
      "ाक": 2528,
      "thno": 2529,
      "ritan": 2530,
      "_सूची": 2531,
      "ffair": 2532,
      "ज्ञान": 2533,
      "/0": 2534,
      "ban": 2535,
      "jab": 2536,
      "ule": 2537,
      "wing": 2538,
      "one": 2539,
      "▁system": 2540,
      "▁September": 2541,
      "ayan": 2542,
      "rits": 2543,
      "hism": 2544,
      "-26": 2545,
      "_3": 2546,
      "_सं": 2547,
      "her": 2548,
      "गा": 2549,
      "दर्": 2550,
      "▁ओ": 2551,
      "▁\"सा": 2552,
      "▁मेला": 2553,
      "▁world": 2554,
      "▁June": 2555,
      ".php": 2556,
      "▁साहित": 2557,
      "ंबई": 2558,
      ",000": 2559,
      "_%28": 2560,
      "co": 2561,
      "ne": 2562,
      "-17": 2563,
      "▁2023": 2564,
      "ombined": 2565,
      "-19": 2566,
      "121": 2567,
      "CN": 2568,
      "_K": 2569,
      "_f": 2570,
      "rans": 2571,
      "ृष्ट": 2572,
      "శా": 2573,
      "ైనా": 2574,
      "▁wi": 2575,
      "▁[ఇ": 2576,
      "▁\"జ": 2577,
      "](https://te.wikipedia.org/wiki/ఇ": 2578,
      "](https://te.wikipedia.org/wiki/స": 2579,
      "భారత_": 2580,
      "▁प्रज": 2581,
      "రాజ": 2582,
      "లో](https://te.wikipedia.org/wiki/": 2583,
      "రిజ": 2584,
      "క్కు": 2585,
      "ండ్": 2586,
      "_and_S": 2587,
      "तेल": 2588,
      "స్కృతి": 2589,
      "तमिळनाडू": 2590,
      "ographic": 2591,
      "Dyson2018": 2592,
      "▁[t": 2593,
      "estern": 2594,
      "life": 2595,
      "ishing": 2596,
      "harat": 2597,
      "hina": 2598,
      "वार": 2599,
      "▁ड": 2600,
      "▁हु": 2601,
      "etwe": 2602,
      "chno": 2603,
      "▁इत": 2604,
      "_में": 2605,
      "▁स्थान": 2606,
      "▁region": 2607,
      "liament": 2608,
      "etween": 2609,
      "iver": 2610,
      "ls": 2611,
      "▁per": 2612,
      "Infor": 2613,
      "2024": 2614,
      "\\_and": 2615,
      "▁form": 2616,
      "University_Press": 2617,
      "▁temp": 2618,
      "gency": 2619,
      "iddle": 2620,
      "CO": 2621,
      "_भारत": 2622,
      "ok": 2623,
      "xt": 2624,
      "वस्था": 2625,
      "साम": 2626,
      "ori": 2627,
      "2000": 2628,
      "▁वे": 2629,
      "▁विक": 2630,
      "लादेश": 2631,
      "▁त्या": 2632,
      "पुरा": 2633,
      "पुरी": 2634,
      "ose": 2635,
      "error": 2636,
      ".jpg/330px-": 2637,
      "लेखित": 2638,
      "ंग्रेज़ी": 2639,
      "str": 2640,
      "auth": 2641,
      "\".": 2642,
      "2_": 2643,
      "8](https://en.wikipedia.org/wiki/India#CITEREF": 2644,
      "hol": 2645,
      "oy": 2646,
      "ం?action=edit&redlink=1": 2647,
      "చే": 2648,
      "బా": 2649,
      "▁राष्ट्रीय": 2650,
      "▁[జ": 2651,
      "▁[![](https://upload.wikimedia.org/wikipedia/commons/thumb/": 2652,
      "▁\"O": 2653,
      "omen": 2654,
      "▁India\"),": 2655,
      "ान\")": 2656,
      "▁मे": 2657,
      "raven": 2658,
      "amb": 2659,
      "adu": 2660,
      "▁పా": 2661,
      "unjab": 2662,
      "ासून": 2663,
      "ले.": 2664,
      "▁వా": 2665,
      "ండు": 2666,
      "▁काही": 2667,
      "▁చూ": 2668,
      "త్వ": 2669,
      "▁./श्रेणी:": 2670,
      "ప్రధాన": 2671,
      "मुख": 2672,
      "▁होता": 2673,
      "▁असे": 2674,
      "▁తే": 2675,
      "▁(PDF)": 2676,
      "▁संस्कृती": 2677,
      "31": 2678,
      "oast": 2679,
      "ual": 2680,
      "racy": 2681,
      "ade": 2682,
      "▁Ind": 2683,
      "▁Commission": 2684,
      "/f": 2685,
      "Combined": 2686,
      "▁Se": 2687,
      "▁मुख्य": 2688,
      "श्मीर": 2689,
      "ritannic": 2690,
      "National_": 2691,
      "_University_Press": 2692,
      "uis": 2693,
      "ya": 2694,
      "tec": 2695,
      "eser": 2696,
      "▁part": 2697,
      "ing\\_": 2698,
      "logue": 2699,
      ".jpg/120px-": 2700,
      "t\\_errors": 2701,
      "_द": 2702,
      "min": 2703,
      "pl": 2704,
      "च्": 2705,
      "जय": 2706,
      "ुव": 2707,
      "▁दे": 2708,
      "cember": 2709,
      "▁केंद्र": 2710,
      "oll": 2711,
      "resid": 2712,
      "india/": 2713,
      "depend": 2714,
      "▁been": 2715,
      "▁भी": 2716,
      "ुरू": 2717,
      "view": 2718,
      "▁प्राचीन": 2719,
      "▁subcontinent": 2720,
      "chnology": 2721,
      "ron": 2722,
      "wn": 2723,
      "▁22": 2724,
      "▁errors": 2725,
      "epublic": 2726,
      "▁([help": 2727,
      "usiness": 2728,
      "▁errors\"))\n": 2729,
      "5%": 2730,
      "6](https://en.wikipedia.org/wiki/India#CITEREF": 2731,
      "Template:": 2732,
      "_W": 2733,
      "_సా": 2734,
      "fric": 2735,
      "ibrary": 2736,
      "lad": 2737,
      "ंदी": 2738,
      "तील": 2739,
      "पाल": 2740,
      "श्र": 2741,
      "िख": 2742,
      "ంప": 2743,
      "కో": 2744,
      "గణ": 2745,
      "దిన": 2746,
      "నై": 2747,
      "రీ": 2748,
      "▁\"I": 2749,
      "▁\"W": 2750,
      "▁\"చ": 2751,
      "▁\"सं": 2752,
      "](https://te.wikipedia.org/wiki/జ": 2753,
      "ారం": 2754,
      "](https://hi.wikipedia.org/wiki/भारतीय_": 2755,
      "▁more": 2756,
      "▁most": 2757,
      "▁క్రీ": 2758,
      "క్‌": 2759,
      "నికి": 2760,
      "ల్ల": 2761,
      "ంగీ": 2762,
      "▁సి": 2763,
      "నాభా": 2764,
      "▁Jan": 2765,
      "harma": 2766,
      "జాబి": 2767,
      "Harle": 2768,
      "](https://hi.wikipedia.org/wiki/भारत_में": 2769,
      "हिन्दी": 2770,
      "▁శా": 2771,
      "पूर्वी": 2772,
      "▁భాష\")": 2773,
      "బెంగ": 2774,
      "म्मू": 2775,
      "ujar": 2776,
      "thnologue": 2777,
      "ffairs": 2778,
      "జాబితా": 2779,
      "-language": 2780,
      "81": 2781,
      "ces": 2782,
      "▁al": 2783,
      "▁ac": 2784,
      "ped": 2785,
      "\"):": 2786,
      "are": 2787,
      "edic": 2788,
      "andhi": 2789,
      "▁population": 2790,
      "▁Act": 2791,
      "loc": 2792,
      "▁For": 2793,
      "umbai": 2794,
      "ligi": 2795,
      "▁(PDF).": 2796,
      ":[": 2797,
      "CE": 2798,
      "pp": 2799,
      "ग्": 2800,
      "न\")": 2801,
      "रत": 2802,
      "–1": 2803,
      ".org/10.": 2804,
      "ारा": 2805,
      "र्ना": 2806,
      "▁आधार": 2807,
      "▁Ass": 2808,
      "▁between": 2809,
      "▁प्रकार": 2810,
      "▁नृत्य": 2811,
      "न्द्र": 2812,
      "▁गे": 2813,
      "▁उत्": 2814,
      "▁इस": 2815,
      "fficial": 2816,
      "ortal": 2817,
      "%2F": 2818,
      "स्कृत": 2819,
      "doi.org/10.": 2820,
      "embly": 2821,
      "र्नाटक": 2822,
      "/A": 2823,
      "_I": 2824,
      "fn_": 2825,
      "ology": 2826,
      "▁error": 2827,
      "▁[Indian": 2828,
      "ering": 2829,
      "no-t": 2830,
      "\\_no-t": 2831,
      "▁Sfn": 2832,
      "▁but": 2833,
      "▁targe": 2834,
      "▁music": 2835,
      "ument": 2836,
      "emple": 2837,
      "fn\\_no-t": 2838,
      "arget\\_errors": 2839,
      "▁century": 2840,
      "template_": 2841,
      "\\_Sfn\\_no-t": 2842,
      "_and_Sfn_": 2843,
      "\\_and\\_Sfn\\_no-t": 2844,
      "▁template": 2845,
      "▁error:": 2846,
      "▁target:": 2847,
      "arget\\_errors\n": 2848,
      "template_errors": 2849,
      "_and_Sfn_template_errors": 2850,
      "\\_and\\_Sfn\\_no-target\\_errors\n": 2851,
      "3-0)": 2852,
      "cog": 2853,
      "दल": 2854,
      "दार": 2855,
      "▁Y": 2856,
      "an\")": 2857,
      "▁Sh": 2858,
      "ाता": 2859,
      "िक्क": 2860,
      "▁अर्थ": 2861,
      "▁दिल्ली": 2862,
      "▁Metcalf": 2863,
      "▁विश": 2864,
      "-2)": 2865,
      "udden": 2866,
      "-f": 2867,
      "mu": 2868,
      "▁6": 2869,
      "▁state": 2870,
      "▁CITEREF": 2871,
      "▁bec": 2872,
      "▁National": 2873,
      "%29": 2874,
      "7/": 2875,
      "88": 2876,
      "_ब": 2877,
      "data": 2878,
      "गोल": 2879,
      "ङ्": 2880,
      "पती": 2881,
      "ऱ्या": 2882,
      "वरी": 2883,
      "ूळ": 2884,
      "చల్": 2885,
      "యన్": 2886,
      "షు": 2887,
      "ూర్": 2888,
      "▁'": 2889,
      "▁ला": 2890,
      "▁[చ": 2891,
      "▁[భారత": 2892,
      "▁[భారతీయ": 2893,
      "](https://te.wikipedia.org/wiki/ప": 2894,
      "](https://te.wikipedia.org/wiki/భారతీయ": 2895,
      "▁पद": 2896,
      "ార్ట": 2897,
      "▁India:": 2898,
      "ాలయ": 2899,
      "नाग": 2900,
      "▁di": 2901,
      "▁dance": 2902,
      "▁after": 2903,
      "క్క": 2904,
      "▁వ్యవస్థ": 2905,
      "▁India\")\n": 2906,
      "त्रि": 2907,
      "▁ము": 2908,
      "ली.": 2909,
      "ండో": 2910,
      "ముంబ": 2911,
      "సిన": 2912,
      "apit": 2913,
      "-81": 2914,
      "▁(identifier)\"):[": 2915,
      "ినల్": 2916,
      "ద్ద": 2917,
      "▁ఉన్న": 2918,
      "▁ఉన్నాయ": 2919,
      "▁राज्ये": 2920,
      "rick": 2921,
      "పాకిస్తాన్": 2922,
      "ompany": 2923,
      "ంధీ": 2924,
      "clud": 2925,
      "▁ఒక": 2926,
      "▁ఒరిజ": 2927,
      "गुजरात": 2928,
      "వంశం": 2929,
      "▁తేదీ": 2930,
      "ార్టీ": 2931,
      "▁ఒరిజినల్": 2932,
      "1-0)": 2933,
      "a/": 2934,
      "▁es": 2935,
      "▁21": 2936,
      "ash": 2937,
      "▁16": 2938,
      "NG": 2939,
      "ft": 2940,
      "ges": 2941,
      "pr": 2942,
      "ओड": 2943,
      "तंत्र": 2944,
      "विक": 2945,
      "ool": 2946,
      "iles/": 2947,
      "ंगीत": 2948,
      "ों_की": 2949,
      "ovement": 2950,
      "4-0)": 2951,
      "Singh": 2952,
      "ones": 2953,
      "off": 2954,
      "▁ind": 2955,
      "ourt": 2956,
      "olper": 2957,
      "▁national": 2958,
      "▁number": 2959,
      "▁Press.": 2960,
      "ganisation": 2961,
      "▁years": 2962,
      "olpert": 2963,
      "-23": 2964,
      "Rothermund": 2965,
      "imp": 2966,
      "way": 2967,
      "दु": 2968,
      "सभा": 2969,
      "▁23": 2970,
      "▁over": 2971,
      "▁all": 2972,
      "▁टक": 2973,
      "asia": 2974,
      "▁comm": 2975,
      "▁Constitution": 2976,
      "स्ला": 2977,
      "▁ab": 2978,
      "▁तक": 2979,
      "▁तर": 2980,
      "ांक": 2981,
      "ामु": 2982,
      "ार्थ": 2983,
      "_नदी": 2984,
      "_19": 2985,
      "be": 2986,
      "rish": 2987,
      "▁other": 2988,
      "iation": 2989,
      "ttar": 2990,
      "ince": 2991,
      "amp": 2992,
      "▁Census": 2993,
      "▁1.": 2994,
      "▁East": 2995,
      "ake": 2996,
      "avid": 2997,
      "▁[978-0-": 2998,
      "cyc": 2999,
      "▁[Archived](https://web.archive.org/web/20": 3000,
      "%7": 3001,
      "ID": 3002,
      "fic": 3003,
      "lag": 3004,
      "sl": 3005,
      "डो": 3006,
      "జ్": 3007,
      "వరి": 3008,
      "శ్చ": 3009,
      "ిన్న": 3010,
      "ెల": 3011,
      "▁28": 3012,
      "ia\")": 3013,
      "pear": 3014,
      "peration": 3015,
      "encies": 3016,
      "▁\"భారతదేశ": 3017,
      "్రె": 3018,
      "](https://mr.wikipedia.org/wiki/ग": 3019,
      "](https://hi.wikipedia.org/wiki/ब": 3020,
      "icy": 3021,
      "▁मिळ": 3022,
      "▁म्ह": 3023,
      "-06": 3024,
      "rime": 3025,
      "▁maint:": 3026,
      "anglad": 3027,
      "▁May": 3028,
      "ांच्या": 3029,
      "ాలు\n": 3030,
      "▁बन": 3031,
      "నిస్తాన్": 3032,
      "क्षा": 3033,
      "▁మధ్య": 3034,
      "▁2024": 3035,
      "त्तरा": 3036,
      "](https://te.wikipedia.org/wiki/భారతదేశంలో": 3037,
      "స్థాన్": 3038,
      "_De": 3039,
      "▁नाम": 3040,
      "▁झाले": 3041,
      "▁పేజీ": 3042,
      "మ్మూ": 3043,
      "▁\"భారతదేశంలో": 3044,
      "्यानमार": 3045,
      "वामान": 3046,
      "▁చూసిన": 3047,
      "च्छ": 3048,
      "▁January": 3049,
      "▁తేదీ:": 3050,
      "శ్చి": 3051,
      "▁म्हण": 3052,
      "angladesh": 3053,
      "▁పేజీని": 3054,
      "-re": 3055,
      "44": 3056,
      "Kulke": 3057,
      "country": 3058,
      "▁Ar": 3059,
      "▁Congress": 3060,
      "ird": 3061,
      "ode": 3062,
      "ustral": 3063,
      ".gov/": 3064,
      "▁Development": 3065,
      "▁December": 3066,
      "AsherTalbot2008": 3067,
      "07": 3068,
      "डे": 3069,
      "पे": 3070,
      "लय": 3071,
      "ूच": 3072,
      "ोर्": 3073,
      "▁थ": 3074,
      "](https://en.wikipedia.org/wiki/W": 3075,
      "्याया": 3076,
      "▁Ch": 3077,
      "▁Population": 3078,
      "नाथ": 3079,
      "भाग": 3080,
      "संख्य": 3081,
      "▁2011.\n": 3082,
      "oth": 3083,
      "y\")": 3084,
      "theast": 3085,
      "rahm": 3086,
      "▁sfn": 3087,
      "▁tw": 3088,
      "ched": 3089,
      "come": 3090,
      "union": 3091,
      "ticles": 3092,
      "▁election": 3093,
      "▁[South": 3094,
      "▁[978-0-19": 3095,
      "](Special:BookSources/978-0-": 3096,
      "▁\"Special:BookSources/978-0-": 3097,
      "▁[2](https://en.wikipedia.org/wiki/India#cite_ref-FOOTNOTE": 3098,
      "▁[1](https://en.wikipedia.org/wiki/India#cite_ref-FOOTNOTE": 3099,
      "▁territories": 3100,
      "2/": 3101,
      "8)": 3102,
      "Vi": 3103,
      "zed": 3104,
      "ओं": 3105,
      "र्य": 3106,
      "लि": 3107,
      "▁लेख": 3108,
      "India_": 3109,
      "▁मंदिर": 3110,
      "▁spe": 3111,
      "ross": 3112,
      "▁निर्": 3113,
      "▁*The": 3114,
      "संख्या": 3115,
      "under": 3116,
      "%E0%A4%A": 3117,
      "]](https://hi.wikipedia.org/wiki/भारत#cite_note-FOOTNOTE": 3118,
      "हासा": 3119,
      "ैदिक": 3120,
      "व्यवस्था": 3121,
      "▁सूची\")": 3122,
      "दर्भ": 3123,
      "cogni": 3124,
      "-21": 3125,
      "86": 3126,
      "ned": 3127,
      "oin": 3128,
      "▁[3": 3129,
      "arb": 3130,
      "▁states": 3131,
      "obb": 3132,
      "known": 3133,
      "ritannica": 3134,
      "2-": 3135,
      "_territ": 3136,
      "cent": 3137,
      "d/": 3138,
      "lations": 3139,
      "कल": 3140,
      "ख्": 3141,
      "च्च": 3142,
      "ण्यात": 3143,
      "मधील": 3144,
      "ीस": 3145,
      "ॉल": 3146,
      "షన్": 3147,
      "హ్": 3148,
      "ెలు": 3149,
      "▁up": 3150,
      "▁[Metcalf": 3151,
      "arh": 3152,
      "▁किया": 3153,
      "▁सु": 3154,
      "](https://te.wikipedia.org/wiki/అ": 3155,
      "2016": 3156,
      "2001": 3157,
      "ातंत्र": 3158,
      "_of_the": 3159,
      "wealth": 3160,
      "▁2016": 3161,
      "రియా": 3162,
      "indust": 3163,
      "agar": 3164,
      "▁English": 3165,
      "▁మార్": 3166,
      "118": 3167,
      "aksh": 3168,
      "▁2006](https://en.wikipedia.org/wiki/India#CITEREF": 3169,
      "▁इंडिया": 3170,
      "▁1950": 3171,
      "▁Oxford": 3172,
      "ndaman": 3173,
      "ప్రపంచ": 3174,
      "मुळे": 3175,
      "](https://hi.wikipedia.org/wiki/भारत_के_": 3176,
      "िशा": 3177,
      "olitical": 3178,
      "▁సంస్కృతి": 3179,
      "Stein1998": 3180,
      "దీవ": 3181,
      "ovember": 3182,
      "▁येथ": 3183,
      "िंधू": 3184,
      "actbook": 3185,
      "ोनेश": 3186,
      "▁शिक्षण": 3187,
      "▁युद्ध": 3188,
      "▁प्रजाती": 3189,
      "श्रील": 3190,
      "Singh2009": 3191,
      "▁टक्क": 3192,
      "4/": 3193,
      "orther": 3194,
      "▁[e": 3195,
      "▁[v": 3196,
      "alley": 3197,
      "ased": 3198,
      "riod": 3199,
      "▁2020": 3200,
      "▁tradition": 3201,
      "KulkeRothermund": 3202,
      "1–": 3203,
      "bal": 3204,
      "back": 3205,
      "ze": 3206,
      "](https://doi.org/10.": 3207,
      "ar,": 3208,
      "ारे": 3209,
      "ानुसार": 3210,
      "▁Cambridge": 3211,
      "ताज": 3212,
      "▁उत्तर": 3213,
      ".gov.in/": 3214,
      "मेर": 3215,
      "िवस": 3216,
      "▁गणराज्य": 3217,
      "98": 3218,
      "UCN": 3219,
      "▁k": 3220,
      "▁ro": 3221,
      "▁res": 3222,
      "▁[O": 3223,
      "▁[s": 3224,
      "onwealth": 3225,
      "eration": 3226,
      "ised": 3227,
      "ough": 3228,
      "ics": 3229,
      "2012": 3230,
      "ilg": 3231,
      "olicy": 3232,
      "▁March": 3233,
      "emoc": 3234,
      "▁Budd": 3235,
      "▁BCE": 3236,
      "1997": 3237,
      "fore": 3238,
      "_Centre": 3239,
      ".png": 3240,
      "▁[2](https://en.wikipedia.org/wiki/India#cite_ref-": 3241,
      "▁[1](https://en.wikipedia.org/wiki/India#cite_ref-": 3242,
      "ports": 3243,
      "Wikipedia": 3244,
      "▁2010](https://en.wikipedia.org/wiki/India#CITEREF": 3245,
      "countries_by": 3246,
      "79": 3247,
      "_उ": 3248,
      "_धर्म": 3249,
      "oci": 3250,
      "द्या": 3251,
      "लाल": 3252,
      "ोह": 3253,
      "▁३": 3254,
      "▁[च": 3255,
      "ofindia": 3256,
      "▁कि": 3257,
      "▁कार": 3258,
      "▁सब": 3259,
      "1950": 3260,
      "▁India.": 3261,
      "▁आक": 3262,
      "▁जा": 3263,
      "▁had": 3264,
      "हिम": 3265,
      "▁[मूल": 3266,
      "-80": 3267,
      "▁खाना": 3268,
      "बाद": 3269,
      "censusindia.gov.in/": 3270,
      "vision": 3271,
      "ेंद्रशासित": 3272,
      "ed.).": 3273,
      "▁साहित्य": 3274,
      "resident": 3275,
      "ligious": 3276,
      "ों_की_सूची": 3277,
      "53": 3278,
      "500": 3279,
      "bi": 3280,
      "how": 3281,
      "ini": 3282,
      "ale": 3283,
      "high": 3284,
      "andard": 3285,
      "ama": 3286,
      "term": 3287,
      "1996": 3288,
      "times.com/": 3289,
      ",[[": 3290,
      "1_": 3291,
      "1]](https://en.wikipedia.org/wiki/India#cite_note-FOOTNOTE": 3292,
      "7-1": 3293,
      "_వ": 3294,
      "han": 3295,
      "ru": 3296,
      "van": 3297,
      "wal": 3298,
      "ाचा": 3299,
      "िपी": 3300,
      "५०": 3301,
      "ం\"),": 3302,
      "ంత్రి": 3303,
      "ఆఫ్": 3304,
      "కత": 3305,
      "కై": 3306,
      "క్య": 3307,
      "దాయ": 3308,
      "రే": 3309,
      "లంక": 3310,
      "వీ": 3311,
      "శ్రీ": 3312,
      "షి": 3313,
      "సు": 3314,
      "▁ई": 3315,
      "▁ఏ": 3316,
      "▁en": 3317,
      "▁[సి": 3318,
      "▁[doi": 3319,
      "enn": 3320,
      "Ins": 3321,
      "](https://te.wikipedia.org/wiki/చ": 3322,
      "స్సా": 3323,
      "▁పరి": 3324,
      "▁పార్టీ": 3325,
      "िकी": 3326,
      "▁me": 3327,
      "న్‌": 3328,
      "change": 3329,
      "olk": 3330,
      "▁కు": 3331,
      "▁तसे": 3332,
      "▁ब्रिटिश": 3333,
      "▁వచ్చ": 3334,
      "▁गया": 3335,
      "वाद": 3336,
      "abad": 3337,
      "ముద్ర": 3338,
      "▁संविधान": 3339,
      "▁यां": 3340,
      "▁It": 3341,
      "గాంధీ": 3342,
      "▁राज्यों": 3343,
      "oi_(identifier)": 3344,
      "▁\"Doi": 3345,
      "నేపాల": 3346,
      "olitics": 3347,
      "▁పేరు": 3348,
      "హిందీ": 3349,
      "▁చెయ్య": 3350,
      "▁కూడా": 3351,
      "ughal": 3352,
      "हाय्य": 3353,
      "Informatics": 3354,
      "ంగీతం": 3355,
      "ముంబై": 3356,
      "▁(identifier)\"):[10.": 3357,
      "శ్చిమ": 3358,
      "▁two": 3359,
      "▁మార్గ": 3360,
      "▁तसेच": 3361,
      "▁చెయ్యబడ": 3362,
      "Fisher": 3363,
      "pa": 3364,
      "kim": 3365,
      "▁[U": 3366,
      "ict": 3367,
      "▁13": 3368,
      "▁dec": 3369,
      "▁Hindi": 3370,
      "▁Reg": 3371,
      "▁became": 3372,
      "orthern": 3373,
      "Fisher2018": 3374,
      "ंका": 3375,
      "४७": 3376,
      "▁27": 3377,
      "▁[प": 3378,
      "र्ण": 3379,
      "स्थ": 3380,
      "ियों": 3381,
      "द्योग": 3382,
      "▁ऑफ": 3383,
      "4–": 3384,
      "5-0)": 3385,
      "Hindi": 3386,
      "cord": 3387,
      "ehr": 3388,
      "if": 3389,
      "oon": 3390,
      "pur": 3391,
      "ran": 3392,
      "▁we": 3393,
      "▁end": 3394,
      "▁Union": 3395,
      "pect": 3396,
      "](https://en.wikipedia.org/wiki/The": 3397,
      "read": 3398,
      "eds.": 3399,
      "omin": 3400,
      "▁includ": 3401,
      "▁summit\")": 3402,
      "ussia": 3403,
      "adi": 3404,
      "illion": 3405,
      "▁2025": 3406,
      "▁general": 3407,
      "](Special:BookSources/978-0-19": 3408,
      "▁\"Special:BookSources/978-0-19": 3409,
      "Indus": 3410,
      "▁\"Economy": 3411,
      "](https://en.wikipedia.org/wiki/Economy": 3412,
      "ouse": 3413,
      "ivil": 3414,
      "ujarat": 3415,
      "-28": 3416,
      "110": 3417,
      "5–": 3418,
      "76": 3419,
      "9-0)": 3420,
      "_पर": 3421,
      "has": 3422,
      "टा": 3423,
      "िवा": 3424,
      "िहार": 3425,
      "ीन": 3426,
      "ेड": 3427,
      "teen": 3428,
      "ann": 3429,
      "](https://hi.wikipedia.org/wiki/चित्र:": 3430,
      "▁व्य": 3431,
      "istan": 3432,
      "▁द्वीप": 3433,
      "▁जय": 3434,
      "▁2012": 3435,
      "▁बंगाल": 3436,
      "दीव": 3437,
      "-40": 3438,
      "▁[Stein": 3439,
      "_साम्राज्य": 3440,
      "▁होती": 3441,
      "ikh": 3442,
      "शास्त्र": 3443,
      "तमिल": 3444,
      "▁period": 3445,
      "%E0%A4%BE": 3446,
      "-to-": 3447,
      "ervation": 3448,
      "mbol": 3449,
      "▁पुरालेखित": 3450,
      "ंग्ल": 3451,
      "▁official": 3452,
      "▁विश्व": 3453,
      "हासागर": 3454,
      "▁सबसे": 3455,
      "censusindia.gov.in/2011": 3456,
      "▁पुरालेखित।": 3457,
      ".india": 3458,
      "BC": 3459,
      "▁time": 3460,
      "▁Plate": 3461,
      "▁2014.\n": 3462,
      ".as": 3463,
      "32": 3464,
      "73": 3465,
      "_या": 3466,
      "ebr": 3467,
      "rganisation": 3468,
      "s.[[": 3469,
      "गत": 3470,
      "पृष्ठ": 3471,
      "ळ\")": 3472,
      "सि": 3473,
      "ूटी": 3474,
      "గర": 3475,
      "టక": 3476,
      "టా": 3477,
      "దార": 3478,
      "నీ": 3479,
      "రో": 3480,
      "సభ": 3481,
      "ెద్ద": 3482,
      "▁j": 3483,
      "▁[India": 3484,
      "tel": 3485,
      "▁\"ह": 3486,
      "▁\"సి": 3487,
      "](https://en.wikipedia.org/wiki/O": 3488,
      "eral_": 3489,
      "city": 3490,
      "](https://te.wikipedia.org/wiki/భారత_": 3491,
      "](https://mr.wikipedia.org/wiki/उ": 3492,
      "](https://mr.wikipedia.org/wiki/भारतीय_": 3493,
      "राण": 3494,
      "राठी": 3495,
      "ooperation": 3496,
      "▁caste": 3497,
      "▁आज": 3498,
      "atar": 3499,
      "▁పు": 3500,
      "ेश्व": 3501,
      "ंगलादेश": 3502,
      "రాజ్య": 3503,
      "▁जु": 3504,
      "▁కేంద్రపాలిత": 3505,
      "▁BRICS": 3506,
      "_(India)": 3507,
      "न्स": 3508,
      "24)": 3509,
      "▁మా": 3510,
      "▁2022": 3511,
      "▁చే": 3512,
      "ము\")": 3513,
      "▁group": 3514,
      "త్స": 3515,
      "▁संसद": 3516,
      "▁రాజ్య": 3517,
      "▁[\"India": 3518,
      "▁[*A": 3519,
      "వాతంత్ర": 3520,
      "▁होत": 3521,
      ".jpg)](https://mr.wikipedia.org/wiki/चित्र:": 3522,
      "▁దేశాల": 3523,
      "](https://en.wikipedia.org/wiki/Doi_(identifier)": 3524,
      "▁खास": 3525,
      "లాదేశ్": 3526,
      "articles": 3527,
      "స్తు": 3528,
      "▁సామ్రాజ్యం](https://te.wikipedia.org/wiki/": 3529,
      "ంగ్లాదేశ్": 3530,
      "▁భాషలు": 3531,
      "ారు.": 3532,
      "_ప్రా": 3533,
      "ंग्रजी": 3534,
      "్రిటి": 3535,
      "rofile": 3536,
      "▁అధికార": 3537,
      "ూర్పు": 3538,
      "संख्ये": 3539,
      "श्रीलंका": 3540,
      "▁टक्के": 3541,
      "కైవు": 3542,
      "▁[doi](https://en.wikipedia.org/wiki/Doi_(identifier)": 3543,
      "Informatics_Centre": 3544,
      "_यादी": 3545,
      "ebruary": 3546,
      "ेश्वर": 3547,
      "En": 3548,
      "_O": 3549,
      "ae": 3550,
      "cri": 3551,
      "vol": 3552,
      "work": 3553,
      "ered": 3554,
      "▁incre": 3555,
      "-14": 3556,
      "▁Times": 3557,
      "cond": 3558,
      "▁War": 3559,
      "cognized": 3560,
      "-B": 3561,
      "टन": 3562,
      "बर": 3563,
      "ूह": 3564,
      "्ट": 3565,
      "।[[": 3566,
      "▁।": 3567,
      "▁ले": 3568,
      "▁पठ": 3569,
      "▁मा": 3570,
      "▁प्रमाण": 3571,
      "ियाँ": 3572,
      "▁dis": 3573,
      "▁जिस": 3574,
      "▁Talbot": 3575,
      "▁नदी": 3576,
      "akh": 3577,
      "▁संघ": 3578,
      "हिमा": 3579,
      "▁रूप": 3580,
      "र्थिक": 3581,
      "ओडिशा": 3582,
      ".n": 3583,
      "Craven": 3584,
      "NC": 3585,
      "Pages": 3586,
      "ect": 3587,
      "nam": 3588,
      "rar": 3589,
      "ton": 3590,
      "war": 3591,
      "yayan": 3592,
      "▁ref": 3593,
      "▁30": 3594,
      "▁rate": 3595,
      "tes": 3596,
      "](https://en.wikipedia.org/wiki/I": 3597,
      "arn": 3598,
      "reat": 3599,
      "▁sup": 3600,
      "rim": 3601,
      "▁Schwartzberg": 3602,
      "loy": 3603,
      "▁modern": 3604,
      "istrar": 3605,
      "▁war": 3606,
      "al_P": 3607,
      "▁one": 3608,
      "▁than": 3609,
      "▁Press](https://en.wikipedia.org/wiki/": 3610,
      "induism": 3611,
      "ultan": 3612,
      "atsyayan": 3613,
      "International": 3614,
      "ainting": 3615,
      "tecture": 3616,
      "Harle1994": 3617,
      "ricket": 3618,
      "slam": 3619,
      "Craven1997": 3620,
      "-le": 3621,
      "C).": 3622,
      "JP": 3623,
      "_प": 3624,
      "press": 3625,
      "तां": 3626,
      "धु": 3627,
      "▁history": 3628,
      "recognized": 3629,
      "्यता": 3630,
      "▁साम": 3631,
      "▁व्या": 3632,
      "▁हिम": 3633,
      "▁Sanskrit": 3634,
      "ung": 3635,
      "23)": 3636,
      "▁Nations": 3637,
      "चेरी": 3638,
      "प्रधान": 3639,
      "imalay": 3640,
      "▁लि": 3641,
      "](https://hi.wikipedia.org/wiki/भारत#CITEREF": 3642,
      "ublishing": 3643,
      "onstituent": 3644,
      "▁साथ": 3645,
      "▁है।\n": 3646,
      "*,": 3647,
      "tionary": 3648,
      "▁St": 3649,
      "lobal": 3650,
      "▁2017": 3651,
      "▁[\"C": 3652,
      "eport": 3653,
      ".indiatimes.com/": 3654,
      ".स": 3655,
      "2]](https://en.wikipedia.org/wiki/India#cite_note-FOOTNOTE": 3656,
      "Main": 3657,
      "ahar": 3658,
      "cul": 3659,
      "hang": 3660,
      "rg": 3661,
      "vatsyayan": 3662,
      "ढ़": 3663,
      "ण्या": 3664,
      "पति": 3665,
      "िझ": 3666,
      "ीमा": 3667,
      "ो.": 3668,
      "ంజా": 3669,
      "గి": 3670,
      "టీ": 3671,
      "టాన్": 3672,
      "మంత్రి": 3673,
      "లను": 3674,
      "వె": 3675,
      "వరణ": 3676,
      "హదార": 3677,
      "ూచ": 3678,
      "▁హ": 3679,
      "▁ra": 3680,
      "▁am": 3681,
      "▁భారతదేశ": 3682,
      "▁था": 3683,
      "▁emp": 3684,
      "▁\"प": 3685,
      "▁\"ल": 3686,
      "▁\"श्रेणी:Harv": 3687,
      "esearch": 3688,
      "్రమ": 3689,
      "▁समा": 3690,
      "](https://mr.wikipedia.org/wiki/न": 3691,
      "▁पुर": 3692,
      "](https://hi.wikipedia.org/wiki/श्रेणी:Harv": 3693,
      "र्क": 3694,
      "2017": 3695,
      "▁such": 3696,
      "-00": 3697,
      "ammu": 3698,
      "▁हवामान": 3699,
      "▁प्रत्य": 3700,
      "नाम": 3701,
      "▁केले": 3702,
      "భారతదేశ_": 3703,
      "ासत्त": 3704,
      "▁కొ": 3705,
      "▁नि": 3706,
      "▁వ్యా": 3707,
      "▁later": 3708,
      "▁మత": 3709,
      "▁మతము": 3710,
      "▁आहे.\n": 3711,
      "▁आहे.[[": 3712,
      "ains": 3713,
      "తావరణ": 3714,
      "▁2009": 3715,
      "నాడు": 3716,
      "▁there": 3717,
      "▁February": 3718,
      "साय": 3719,
      "osed": 3720,
      "तिश": 3721,
      "ंडोनेश": 3722,
      "▁./श्रेणी:Harv": 3723,
      "](https://en.wikipedia.org/wiki/South_Asia": 3724,
      "▁ఉంది.": 3725,
      "ालीन": 3726,
      "▁ఇతర": 3727,
      "्यांची": 3728,
      "ंध्र": 3729,
      "ాయి": 3730,
      "▁[Dikshit": 3731,
      "ंत्री": 3732,
      "▁नाव": 3733,
      "▁झाला": 3734,
      "_BRICS": 3735,
      "ణాసియా": 3736,
      "athak": 3737,
      "▁मोठ": 3738,
      "▁million": 3739,
      "▁2021.\n": 3740,
      "▁बाद": 3741,
      "టెడ్": 3742,
      "▁ఆర్కైవు": 3743,
      "inistry_of_": 3744,
      "-lord": 3745,
      "▁రైలు": 3746,
      "భూటాన్": 3747,
      "▁classical": 3748,
      "▁इतर": 3749,
      "▁([help](https://hi.wikipedia.org/wiki/श्रेणी:Harv": 3750,
      "_సామ్రాజ్యం": 3751,
      "_Island": 3752,
      "_and_Sfn_template_errors?action=edit&redlink=1": 3753,
      "त्रिपुरा": 3754,
      "ातंत्र्य": 3755,
      "हिमालय": 3756,
      "ehru": 3757,
      "వాతంత్ర్య": 3758,
      ".स.": 3759,
      "vatsyayan-lord": 3760,
      "ासत्ताक": 3761,
      "▁./श्रेणी:Harv\\_and\\_Sfn\\_no-target\\_errors\n": 3762,
      "▁([help](https://hi.wikipedia.org/wiki/श्रेणी:Harv_and_Sfn_template_errors?action=edit&redlink=1": 3763,
      "2).": 3764,
      "55": 3765,
      "II": 3766,
      "ee": 3767,
      "fr": 3768,
      "minist": 3769,
      "oa": 3770,
      "yan": 3771,
      "▁[[": 3772,
      "errit": 3773,
      "ical_": 3774,
      "▁States": 3775,
      "▁Pe": 3776,
      "ild": 3777,
      "00)": 3778,
      "1990": 3779,
      "▁northern": 3780,
      "▁[*The": 3781,
      "duction": 3782,
      "&s": 3783,
      "/ind": 3784,
      "IM": 3785,
      "s-": 3786,
      "tro": 3787,
      "ंती": 3788,
      "नि": 3789,
      "मह": 3790,
      "िने": 3791,
      "ुल": 3792,
      "०१": 3793,
      "▁४": 3794,
      "▁(eds.": 3795,
      "](https://hi.wikipedia.org/wiki/उ": 3796,
      "atus": 3797,
      "▁British": 3798,
      "साँ": 3799,
      "imf": 3800,
      "▁K.": 3801,
      "▁धर्म\")": 3802,
      "how/": 3803,
      ".b": 3804,
      "85": 3805,
      "8-0)": 3806,
      "_for": 3807,
      "c=": 3808,
      "ele": 3809,
      "lor": 3810,
      "ning": 3811,
      "ria": 3812,
      "ras": 3813,
      "ures": 3814,
      "va": 3815,
      "▁[m": 3816,
      "▁[United": 3817,
      "▁\"U": 3818,
      "than": 3819,
      "arly": 3820,
      "arna": 3821,
      "alore": 3822,
      "astern": 3823,
      "rac": 3824,
      "▁south": 3825,
      "▁some": 3826,
      "right": 3827,
      "atak": 3828,
      "etail": 3829,
      "▁mathe": 3830,
      "angalore": 3831,
      "▁Per": 3832,
      "rol": 3833,
      "olle": 3834,
      "▁2018](https://en.wikipedia.org/wiki/India#CITEREF": 3835,
      "▁GDP": 3836,
      "owland": 3837,
      "ocument": 3838,
      "▁union": 3839,
      "rowth": 3840,
      "▁who": 3841,
      "▁2019.": 3842,
      "limate": 3843,
      "odiversity": 3844,
      "Articles": 3845,
      "_at_the": 3846,
      "National_Informatics_Centre": 3847,
      "](https://en.wikipedia.org/wiki/Economy_of_": 3848,
      "erritory": 3849,
      "National_Informatics_Centre2005": 3850,
      "2–": 3851,
      "89": 3852,
      "99": 3853,
      "New": 3854,
      "_V": 3855,
      "_इ": 3856,
      "_ए": 3857,
      "वली": 3858,
      "हरी": 3859,
      "▁[19": 3860,
      "text": 3861,
      "▁\"भ": 3862,
      "religion": 3863,
      "omas": 3864,
      "▁सर्": 3865,
      "▁सुर": 3866,
      "ould": 3867,
      "uslim": 3868,
      "▁हिन्": 3869,
      "▁Chin": 3870,
      "▁अप": 3871,
      "ticle": 3872,
      "▁नदी\")": 3873,
      "क्षण": 3874,
      "विष": 3875,
      "▁यह": 3876,
      "▁स्थ": 3877,
      "erala": 3878,
      "णाचल": 3879,
      "_के_राज्य": 3880,
      "रुणाचल": 3881,
      "गढ़": 3882,
      "3/": 3883,
      "6).": 3884,
      "6-0)": 3885,
      "cms": 3886,
      "ealth": 3887,
      "utt": 3888,
      "▁0.": 3889,
      "cean": 3890,
      "230": 3891,
      "ankar": 3892,
      "olden": 3893,
      "▁Commissioner": 3894,
      "3]](https://en.wikipedia.org/wiki/India#cite_note-FOOTNOTE": 3895,
      "7-0)": 3896,
      "Dikshit": 3897,
      "Empire": 3898,
      "European": 3899,
      "Schwartzberg": 3900,
      "TR": 3901,
      "Taj": 3902,
      "Wolpert": 3903,
      "_J": 3904,
      "_और": 3905,
      "a-": 3906,
      "can": 3907,
      "eb": 3908,
      "gram": 3909,
      "ho": 3910,
      "men": 3911,
      "खन": 3912,
      "फ़": 3913,
      "ल\")": 3914,
      "ంశ": 3915,
      "ఆర్": 3916,
      "ఉత్తర": 3917,
      "ఒడి": 3918,
      "కీయ": 3919,
      "గలు": 3920,
      "చు": 3921,
      "జరా": 3922,
      "తూర్పు": 3923,
      "భు": 3924,
      "మన్": 3925,
      "యి": 3926,
      "లస": 3927,
      "ీన": 3928,
      "ేక": 3929,
      "▁డ": 3930,
      "▁2.": 3931,
      "▁జాబితా": 3932,
      "▁[ल": 3933,
      "▁[భారతదేశ": 3934,
      "▁[दक्षिण": 3935,
      "▁\"V": 3936,
      "▁\"दक्षिण": 3937,
      "](https://en.wikipedia.org/wiki/V": 3938,
      "Indian_": 3939,
      "ारिक": 3940,
      "▁किल्": 3941,
      "▁पश्चिम": 3942,
      "▁मध्ये": 3943,
      "rative": 3944,
      "ingdom": 3945,
      "▁आहार": 3946,
      "\\_देश": 3947,
      "▁పట్ట": 3948,
      "िकोब": 3949,
      "▁अरब": 3950,
      "ర్\")": 3951,
      "▁many": 3952,
      "roj": 3953,
      "▁**జాతీయ": 3954,
      "ांचा": 3955,
      "ांधी": 3956,
      "▁न्याया": 3957,
      "నిక": 3958,
      "▁long": 3959,
      "▁large": 3960,
      "न्द": 3961,
      "क्षद्वीप": 3962,
      "ంగ్రె": 3963,
      "▁సభ": 3964,
      ".com/news/": 3965,
      "संदर्भ": 3966,
      "తాబ్": 3967,
      "प्रदेश": 3968,
      "▁2003": 3969,
      "ast_Asia": 3970,
      "नेपा": 3971,
      "साठी": 3972,
      "▁ప్రపంచ": 3973,
      "▁ప్రభు": 3974,
      "▁art": 3975,
      "▁ఆసియా": 3976,
      "utra": 3977,
      "▁होते.": 3978,
      "%E0%A5%": 3979,
      "▁original](https://": 3980,
      "▁original](https://www.": 3981,
      "మ్రాజ్య": 3982,
      "Indones": 3983,
      "▁*[The": 3984,
      "्यांच्या": 3985,
      "▁\"बा": 3986,
      "▁rule": 3987,
      "గుజరా": 3988,
      "▁झाली": 3989,
      "india.gov.in": 3990,
      "▁సామ్రాజ్యం\")": 3991,
      "विश्व": 3992,
      "▁people": 3993,
      "త్యేక": 3994,
      "రాష్ట్రపతి": 3995,
      "ప్ప": 3996,
      "](https://mr.wikipedia.org/wiki/भारत#": 3997,
      "▁కాశ్మీ": 3998,
      "▁రాజవంశం": 3999,
      "▁2021.": 4000,
      "▁చెంద": 4001,
      "▁ఆర్ధిక": 4002,
      "▁స్థాన": 4003,
      "తమిళనాడు": 4004,
      "ప్రధానమంత్రి": 4005,
      "▁होता.": 4006,
      "గణతంత్ర": 4007,
      "▁క్రీడ": 4008,
      "िक्कीम": 4009,
      "▁ఉన్నాయి.": 4010,
      "▁industry": 4011,
      "_Development": 4012,
      "ఆఫ్ఘ": 4013,
      "శ్రీలంక": 4014,
      "షియా": 4015,
      "న్‌ఫ": 4016,
      "నేపాల్": 4017,
      "संख्येनुसार": 4018,
      "▁among": 4019,
      "▁(eds.).": 4020,
      "DikshitSchwartzberg": 4021,
      "gramme": 4022,
      "िकोबार": 4023,
      "తాబ్ద": 4024,
      "DikshitSchwartzberg2023": 4025,
      "7_": 4026,
      "South": 4027,
      "a.": 4028,
      "aus": 4029,
      "site": 4030,
      "▁under": 4031,
      "tig": 4032,
      "▁Ac": 4033,
      "▁14": 4034,
      "▁Economic": 4035,
      "form": 4036,
      "...": 4037,
      "tent": 4038,
      "cat": 4039,
      "voy": 4040,
      "एं": 4041,
      "क्र": 4042,
      "छत्त": 4043,
      "टि": 4044,
      "निक": 4045,
      "नगर": 4046,
      "ुंबई": 4047,
      "ोष": 4048,
      "▁high": 4049,
      "▁[ह": 4050,
      "▁समुद्र": 4051,
      "▁पक्ष": 4052,
      "▁जो": 4053,
      "26)": 4054,
      "▁कोर": 4055,
      "IMF": 4056,
      "छत्तीस": 4057,
      "129": 4058,
      "72": 4059,
      "EO": 4060,
      "Qu": 4061,
      "Spear": 4062,
      "WEO": 4063,
      "_11": 4064,
      "ck": 4065,
      "ner": 4066,
      "tar": 4067,
      "▁$": 4068,
      "▁em": 4069,
      "orest": 4070,
      "pee": 4071,
      "▁\"India": 4072,
      "▁\"United": 4073,
      "▁\"Indo-": 4074,
      "\");": 4075,
      "](https://en.wikipedia.org/wiki/Indo-": 4076,
      "asing": 4077,
      "rade": 4078,
      "achin": 4079,
      "▁Arab": 4080,
      "▁Afric": 4081,
      "\\_us": 4082,
      "▁CE": 4083,
      "▁Cons": 4084,
      "chool": 4085,
      "urch": 4086,
      "▁Pakistan": 4087,
      "ments": 4088,
      ".[[3": 4089,
      "▁land": 4090,
      "▁economic": 4091,
      "▁General": 4092,
      "_in_South_Asia": 4093,
      "_Summit": 4094,
      "▁1947": 4095,
      "ineering": 4096,
      "key": 4097,
      "arket": 4098,
      "MetcalfMetcalf2006),": 4099,
      "ynast": 4100,
      "▁Islands": 4101,
      "ritsch": 4102,
      "ast_Asia_Summit": 4103,
      "3_": 4104,
      "6/": 4105,
      ":CS1": 4106,
      "ie": 4107,
      "vid": 4108,
      "y,": 4109,
      "ymbol": 4110,
      "आई": 4111,
      "क्स": 4112,
      "वान": 4113,
      "२६": 4114,
      "▁29": 4115,
      "▁out": 4116,
      "▁[पाकिस्तान": 4117,
      "▁\"पाकिस्तान": 4118,
      "▁\"विशेष:पुस्तक": 4119,
      "arliament": 4120,
      "▁स्रोत/978": 4121,
      "▁पर्व": 4122,
      "](https://hi.wikipedia.org/wiki/ISBN_(identifier)": 4123,
      "](https://hi.wikipedia.org/wiki/विशेष:पुस्तक": 4124,
      "etary": 4125,
      "▁अनुसार": 4126,
      "▁प्रमुख": 4127,
      "्षिक": 4128,
      "लाई": 4129,
      "ासा": 4130,
      "▁2013": 4131,
      "▁Bank": 4132,
      "upta": 4133,
      "वाधिक": 4134,
      "▁उदा": 4135,
      "ection": 4136,
      "▁\"मध्य": 4137,
      "_स्रोत/978": 4138,
      "-90": 4139,
      "पाद": 4140,
      "▁[ISBN](https://hi.wikipedia.org/wiki/ISBN_(identifier)": 4141,
      "own": 4142,
      "वेब": 4143,
      "_के_आ": 4144,
      "hrist": 4145,
      "वंट": 4146,
      "▁समय": 4147,
      "▁साम्राज्य\")": 4148,
      "-in-": 4149,
      "▁Environment": 4150,
      "▁अर्थव्यवस्था": 4151,
      "teenth": 4152,
      "](https://hi.wikipedia.org/wiki/विशेष:पुस्तक_स्रोत/978": 4153,
      "/S": 4154,
      "UN": 4155,
      "languages": 4156,
      "rd": 4157,
      "ara": 4158,
      "itz": 4159,
      "▁since": 4160,
      "\\_m": 4161,
      "-15": 4162,
      "▁R.": 4163,
      "resent": 4164,
      "ources": 4165,
      "\"](https://books.google.com/books?id=": 4166,
      "ances": 4167,
      "/auth": 4168,
      "124": 4169,
      "5/": 4170,
      "6]](https://en.wikipedia.org/wiki/India#cite_note-": 4171,
      "84": 4172,
      "94": 4173,
      "Pro": 4174,
      "_t": 4175,
      "_घ": 4176,
      "_with": 4177,
      "_ప్రదేశ్": 4178,
      "fgh": 4179,
      "ii": 4180,
      "iri": 4181,
      "k:": 4182,
      "pic": 4183,
      "ura": 4184,
      "west": 4185,
      "zation": 4186,
      "कल्": 4187,
      "झार": 4188,
      "फ्र": 4189,
      "महा": 4190,
      "रण": 4191,
      "ळवंट": 4192,
      "वळ": 4193,
      "स\")": 4194,
      "ुट": 4195,
      "ैकी": 4196,
      "ोड़": 4197,
      "ం,": 4198,
      "ఉప": 4199,
      "కొ": 4200,
      "కేంద్రపాలిత": 4201,
      "జె": 4202,
      "ఢ్": 4203,
      "ది.": 4204,
      "నాల": 4205,
      "లే": 4206,
      "ళు": 4207,
      "ౌద్ధ": 4208,
      "▁५": 4209,
      "▁he": 4210,
      "▁భా": 4211,
      "dian": 4212,
      "▁[V": 4213,
      "▁[द": 4214,
      "▁[వి": 4215,
      "▁\"Oxford": 4216,
      "▁\"पंजाब": 4217,
      "ines": 4218,
      "inance": 4219,
      "ally": 4220,
      "▁क्र": 4221,
      "▁क्रम": 4222,
      "itary": 4223,
      "▁सण": 4224,
      "▁पार": 4225,
      "1967": 4226,
      "▁social": 4227,
      "entr": 4228,
      "▁power": 4229,
      "ాలీ": 4230,
      "inguis": 4231,
      "▁आप": 4232,
      "▁All": 4233,
      "ర్చ": 4234,
      "▁mi": 4235,
      "▁maj": 4236,
      "▁minister": 4237,
      "urton": 4238,
      "▁11": 4239,
      "ility": 4240,
      "state": 4241,
      "▁total": 4242,
      "ాలు?action=edit&redlink=1": 4243,
      "pecial:EditPage/": 4244,
      "al_in_": 4245,
      "▁her": 4246,
      "▁Nadu": 4247,
      "ainism": 4248,
      "-317": 4249,
      "▁2004": 4250,
      "हिंदी": 4251,
      "–సా.శ.18": 4252,
      "▁అత్య": 4253,
      "overe": 4254,
      "▁article": 4255,
      "▁./वर्ग:": 4256,
      "▁यादी": 4257,
      "णिपुरी": 4258,
      "▁ఆధ": 4259,
      "logo": 4260,
      "ffer": 4261,
      "మాఖ్య": 4262,
      "వాణా": 4263,
      "▁पर्य": 4264,
      "ligence": 4265,
      "leshow/": 4266,
      "ంటి": 4267,
      "▁depend": 4268,
      "▁దేశం": 4269,
      "▁area": 4270,
      "▁\"National": 4271,
      "%2C_": 4272,
      "డ్డ": 4273,
      "▁జనాభా": 4274,
      "దక్షిణాసియా": 4275,
      "▁[Archived](https://web.archive.org/web/201": 4276,
      "▁पाहि": 4277,
      "▁గల": 4278,
      "ंग्रेजी": 4279,
      "▁భారతదేశంలో": 4280,
      "ంగ్లీ": 4281,
      "_आणि": 4282,
      "యునై": 4283,
      "ష్ణ": 4284,
      "_చరిత్ర?action=edit&redlink=1": 4285,
      "ांची_यादी": 4286,
      "▁రాష్ట్రాలు,": 4287,
      "%20%20%20%20": 4288,
      "/articleshow/": 4289,
      "_మతము": 4290,
      "▁మొద": 4291,
      "▁विकास": 4292,
      "▁Assembly": 4293,
      "▁लाग": 4294,
      "NGDP": 4295,
      "ustralia": 4296,
      "ूचना": 4297,
      "union_territ": 4298,
      "▁येथील": 4299,
      "िपीडिया": 4300,
      "▁చెయ్యబడింది.": 4301,
      "censusindia.gov.in/2011census": 4302,
      "telligence": 4303,
      "arnatak": 4304,
      "Spear1990": 4305,
      "fghan": 4306,
      "pecial:EditPage/Template:": 4307,
      "యునైటెడ్": 4308,
      "-25": 4309,
      "1-1": 4310,
      "4-7": 4311,
      "7,": 4312,
      ";\n": 4313,
      "Ludden": 4314,
      "t-": 4315,
      "▁imp": 4316,
      "tition": 4317,
      "▁Al": 4318,
      "003": 4319,
      ".svg/": 4320,
      "visions": 4321,
      "▁territory": 4322,
      ".svg.png": 4323,
      "parame": 4324,
      "_श": 4325,
      "_राज": 4326,
      "c/c": 4327,
      "lang": 4328,
      "nal": 4329,
      "बी": 4330,
      "ुप": 4331,
      "▁[भ": 4332,
      "▁\"हिन्": 4333,
      "ins": 4334,
      "them": 4335,
      "▁पृष्ठ": 4336,
      "196": 4337,
      "▁मध्य": 4338,
      "▁हि": 4339,
      "ालदीव": 4340,
      "▁दि": 4341,
      "ास्त": 4342,
      "▁निव": 4343,
      "25)": 4344,
      "_Sh": 4345,
      "▁[Asher": 4346,
      "काश": 4347,
      "▁Kashmir": 4348,
      "▁एशिया": 4349,
      "ffice": 4350,
      "पूर्ण": 4351,
      "_मेला": 4352,
      "ड़ी": 4353,
      "▁[बा": 4354,
      "पर्य": 4355,
      "▁जाते": 4356,
      "िन्हे": 4357,
      "धार_पर": 4358,
      "meric": 4359,
      "/article": 4360,
      "तन्त्र": 4361,
      ".html)": 4362,
      "हिमाचल": 4363,
      "▁प्रत्येक": 4364,
      "िनेमा": 4365,
      "_के_आधार_पर": 4366,
      "-of": 4367,
      "az": 4368,
      "e/": 4369,
      "hal": 4370,
      "henn": 4371,
      "iodiversity": 4372,
      "jan": 4373,
      "my": 4374,
      "owe": 4375,
      "olog": 4376,
      "ront": 4377,
      "rdu": 4378,
      "▁ci": 4379,
      "▁oc": 4380,
      "reed": 4381,
      "hip": 4382,
      "ominal": 4383,
      "▁(1,": 4384,
      "1970": 4385,
      "icon": 4386,
      "oot": 4387,
      "\\_articles": 4388,
      "▁SAARC": 4389,
      "▁found": 4390,
      "ada": 4391,
      "▁both": 4392,
      "▁trans": 4393,
      "umar": 4394,
      "urban": 4395,
      "ilk": 4396,
      "ight": 4397,
      "▁largest": 4398,
      "▁India\").": 4399,
      "industry": 4400,
      "ayback": 4401,
      "▁2026": 4402,
      "verse": 4403,
      "](https://en.wikipedia.org/wiki/South": 4404,
      "▁[*India": 4405,
      "_Temple": 4406,
      "riculture": 4407,
      "▁1994": 4408,
      "▁\"History": 4409,
      "reek": 4410,
      "qual": 4411,
      "](https://en.wikipedia.org/wiki/History": 4412,
      "ography": 4413,
      "▁play": 4414,
      "▁world's": 4415,
      "▁Act,": 4416,
      "▁2006](https://en.wikipedia.org/wiki/India#CITEREFMetcalfMetcalf2006),": 4417,
      "\\_using\\_": 4418,
      "▁article:": 4419,
      "hennai": 4420,
      "▁occ": 4421,
      "2,": 4422,
      "545": 4423,
      "=`": 4424,
      "`|": 4425,
      "len": 4426,
      "pib": 4427,
      "uth": 4428,
      "जे": 4429,
      "मर": 4430,
      "रो": 4431,
      "वारी": 4432,
      "िप": 4433,
      "ेन": 4434,
      "ोच्च": 4435,
      "▁term": 4436,
      "▁[Oxford": 4437,
      "▁\"द": 4438,
      "▁\"व": 4439,
      "tis": 4440,
      "aran": 4441,
      "▁सद": 4442,
      "▁they": 4443,
      "र्दू": 4444,
      "▁महा": 4445,
      "▁वन": 4446,
      "ety": 4447,
      "▁दर": 4448,
      "▁Modern": 4449,
      "▁**राष्ट्रीय": 4450,
      "▁है,": 4451,
      "सागर": 4452,
      "धानी": 4453,
      "-pro": 4454,
      "क्षेत्रफ": 4455,
      "_भारत_के_राज्य": 4456,
      "▁estim": 4457,
      "▁पुरालेखित।.": 4458,
      ".aspx": 4459,
      "▁जुलाई": 4460,
      "ildlife": 4461,
      "▁सर्वाधिक": 4462,
      "voyage": 4463,
      "_के_आधार_पर_भारत_के_राज्य": 4464,
      "1-3": 4465,
      "127": 4466,
      "tice": 4467,
      "ictionary": 4468,
      "▁Science": 4469,
      "tical_": 4470,
      "109": 4471,
      "ubcontinent": 4472,
      "osi": 4473,
      "epart": 4474,
      "▁used": 4475,
      "-language\\_": 4476,
      "epartment": 4477,
      "5).": 4478,
      "6–": 4479,
      "6]](https://en.wikipedia.org/wiki/India#cite_note-FOOTNOTE": 4480,
      ":EditPage/": 4481,
      "Ag": 4482,
      "Ary": 4483,
      "LA": 4484,
      "Robb": 4485,
      "Sharma": 4486,
      "_n": 4487,
      "_న": 4488,
      "_2004": 4489,
      "_क्षेत्र": 4490,
      "election": 4491,
      "hind": 4492,
      "ili": 4493,
      "les/": 4494,
      "lack": 4495,
      "mrits": 4496,
      "ris": 4497,
      "ua": 4498,
      "तान": 4499,
      "पन्न": 4500,
      "पासून": 4501,
      "लया": 4502,
      "ौर्य": 4503,
      "ఖండ": 4504,
      "గం": 4505,
      "టిక": 4506,
      "డే": 4507,
      "ద్య": 4508,
      "మార్": 4509,
      "మాలయ": 4510,
      "లలో": 4511,
      "లకు": 4512,
      "ళ్": 4513,
      "వ](https://te.wikipedia.org/wiki/": 4514,
      "ానికి": 4515,
      "ాళు": 4516,
      "ీర్": 4517,
      "▁ठ": 4518,
      "▁భ": 4519,
      "▁యు": 4520,
      "](Category:": 4521,
      "▁[पंजाब": 4522,
      "▁\"[": 4523,
      "▁\"च": 4524,
      "▁\"వి": 4525,
      "](https://en.wikipedia.org/wiki/U": 4526,
      "reme": 4527,
      "hib": 4528,
      "omes": 4529,
      "▁सभ": 4530,
      "▁(India": 4531,
      "](https://mr.wikipedia.org/wiki/सा": 4532,
      "▁पड": 4533,
      "▁मार": 4534,
      "▁मूल": 4535,
      "ాలో": 4536,
      "▁वैदिक": 4537,
      "्तर": 4538,
      "▁Company": 4539,
      "స్వ": 4540,
      "స్లా": 4541,
      "▁Summit\")": 4542,
      "▁పాల": 4543,
      "▁अज": 4544,
      "los": 4545,
      "▁member": 4546,
      "▁movement": 4547,
      "న్\")": 4548,
      "urve": 4549,
      "road": 4550,
      "states": 4551,
      "▁Mon": 4552,
      "ष्ण": 4553,
      "▁కార": 4554,
      "▁కలి": 4555,
      "emale": 4556,
      "▁Bengal": 4557,
      "రిహ": 4558,
      "రికత": 4559,
      "క్నాల": 4560,
      "ంది.\n": 4561,
      "నిమా": 4562,
      "▁Delhi": 4563,
      "▁economy": 4564,
      "▁సంగీతం": 4565,
      "▁Gandhi": 4566,
      "▁చి": 4567,
      "▁शै": 4568,
      "प्रा": 4569,
      "▁...": 4570,
      "ులు\"),": 4571,
      "–సా.శ.13": 4572,
      "▁అయ": 4573,
      "▁ప్రధాన": 4574,
      "epal": 4575,
      "▁\"Category:": 4576,
      "▁\"महाराष्ट्र": 4577,
      "avi": 4578,
      "▁Language": 4579,
      "ప్రదాయ": 4580,
      "ప్రత్యేక": 4581,
      "ద్వీ": 4582,
      "▁ఉప": 4583,
      "▁రె": 4584,
      "▁began": 4585,
      "ock": 4586,
      "న్నడ": 4587,
      "ंदू": 4588,
      "ंदमान": 4589,
      "▁असले": 4590,
      "▁असून": 4591,
      "ంటు": 4592,
      "▁देशों": 4593,
      "वेर": 4594,
      "हरिया": 4595,
      "▁దేశంలో": 4596,
      "viol": 4597,
      "वरील": 4598,
      "uddhism": 4599,
      "కాశ్మీ": 4600,
      "▁प्राणी": 4601,
      "ంధు": 4602,
      "వర్గం:Harv": 4603,
      "▁[↑](https://hi.wikipedia.org/wiki/भारत#cite_ref-FOOTNOTE": 4604,
      "क्ति": 4605,
      "ibet": 4606,
      "ultural": 4607,
      "▁भाष": 4608,
      "_नृत्य": 4609,
      "ద్ధం": 4610,
      "ద్ధి": 4611,
      "ాల్దీవ": 4612,
      "చ్చే": 4613,
      "ducation": 4614,
      "_आशिया": 4615,
      "దక్షిణ_": 4616,
      "ohn": 4617,
      "Oxford_University_Press": 4618,
      "▁కాంగ్రె": 4619,
      "Stein2010),": 4620,
      "िंह": 4621,
      "టెక్నాల": 4622,
      "▁ప్రాంతాలు": 4623,
      "హిమాలయ": 4624,
      "गुजराती": 4625,
      "▁काळात": 4626,
      "देव": 4627,
      "्राट": 4628,
      "▁Empire\")": 4629,
      "▁లే": 4630,
      "త్తరా": 4631,
      "నాగరికత": 4632,
      "క్కువ": 4633,
      "तेलंग": 4634,
      "esert": 4635,
      "క్‌సభ": 4636,
      "▁శాస్త్ర": 4637,
      "apita": 4638,
      "स्लामी": 4639,
      "ెలుగు": 4640,
      "▁2010](https://en.wikipedia.org/wiki/India#CITEREFStein2010),": 4641,
      "▁వచ్చింది.": 4642,
      "हाय्य:CS1": 4643,
      "_ప్రాంత": 4644,
      "▁Press](https://en.wikipedia.org/wiki/Oxford_University_Press": 4645,
      "ultanate": 4646,
      "rgani": 4647,
      "ministrative": 4648,
      "yanmar": 4649,
      "Wolpert2003": 4650,
      "▁\"पाकिस्तान\")": 4651,
      "झारखंड": 4652,
      "inguistic": 4653,
      "ర్చ:": 4654,
      "Spear199024": 4655,
      ":EditPage/మూస:": 4656,
      "ాళుక్య": 4657,
      "ప్రత్యేక:EditPage/మూస:": 4658,
      "టెక్నాలజీ": 4659,
      "_13": 4660,
      "b/": 4661,
      "bank": 4662,
      "economic": 4663,
      "itt": 4664,
      "tl": 4665,
      "win": 4666,
      "ancy": 4667,
      "ed/": 4668,
      "inger": 4669,
      "ulti": 4670,
      "▁north": 4671,
      "▁3,": 4672,
      "rown": 4673,
      "\"](https://web.archive.org/web/20160": 4674,
      "▁left": 4675,
      ".htm": 4676,
      ".IN": 4677,
      ".fr": 4678,
      "300": 4679,
      "RL": 4680,
      "_38": 4681,
      "ao": 4682,
      "cess": 4683,
      "गान": 4684,
      "त्या": 4685,
      "नत": 4686,
      "में": 4687,
      "योग": 4688,
      "ुक": 4689,
      "ोप": 4690,
      "▁50": 4691,
      "▁पान": 4692,
      "र्जा": 4693,
      "rature": 4694,
      "▁sp": 4695,
      "▁आर्थिक": 4696,
      "▁दो": 4697,
      "ंगल": 4698,
      "ित्त": 4699,
      "▁Raj": 4700,
      "▁तट": 4701,
      "-30": 4702,
      "▁[मध्य": 4703,
      "harm": 4704,
      "▁एवं": 4705,
      "E0%A4%": 4706,
      "मुख्य": 4707,
      "%E0%A4%9": 4708,
      "ex.php": 4709,
      "गणना": 4710,
      "करण": 4711,
      "pura": 4712,
      "-gl": 4713,
      "▁अन्य": 4714,
      "ताजमह": 4715,
      "▁पठार": 4716,
      "IMFWEO": 4717,
      "महाद्वीप": 4718,
      "langoff": 4719,
      "IMFWEO.IN": 4720,
      "\"[[": 4721,
      "*](https://web.archive.org/web/": 4722,
      "318": 4723,
      "4]](https://en.wikipedia.org/wiki/India#cite_note-": 4724,
      "7]](https://en.wikipedia.org/wiki/India#cite_note-FOOTNOTE": 4725,
      "Con": 4726,
      "IB": 4727,
      "March": 4728,
      "_26": 4729,
      "ball": 4730,
      "hai": 4731,
      "nominal": 4732,
      "s\n": 4733,
      "▁/": 4734,
      "orical": 4735,
      "▁[c": 4736,
      "anor": 4737,
      "thnic": 4738,
      "eries": 4739,
      "arl": 4740,
      "aldi": 4741,
      "cip": 4742,
      "its": 4743,
      "▁ins": 4744,
      "▁prime": 4745,
      "▁country": 4746,
      "ament": 4747,
      "▁Affairs": 4748,
      "▁S.": 4749,
      "lopedia": 4750,
      "lowing": 4751,
      "vel": 4752,
      "▁1,": 4753,
      "▁western": 4754,
      "21)": 4755,
      "▁Min": 4756,
      "▁2015": 4757,
      "ly,": 4758,
      "▁rep": 4759,
      "▁relations": 4760,
      "aputra": 4761,
      "▁Fund": 4762,
      "-88": 4763,
      "udi": 4764,
      "dik": 4765,
      "otals": 4766,
      "_Mah": 4767,
      "ommonwealth": 4768,
      "order": 4769,
      "rough": 4770,
      "](https://en.wikipedia.org/wiki/List_of_countries_by": 4771,
      "_East_Asia_Summit": 4772,
      "AARC_summit": 4773,
      "▁lead": 4774,
      "flu": 4775,
      ".html).": 4776,
      "▁York": 4777,
      "cyclopedia": 4778,
      "rahmaputra": 4779,
      "emocracy": 4780,
      "quality": 4781,
      "Aryan": 4782,
      "omestic": 4783,
      "▁(India)\")": 4784,
      "rganization": 4785,
      "aldives": 4786,
      "-29": 4787,
      "Bharat": 4788,
      "Library": 4789,
      "St": 4790,
      "_g": 4791,
      "_भारतीय_": 4792,
      "ix": 4793,
      "ihar": 4794,
      "ott": 4795,
      "खा": 4796,
      "घालय": 4797,
      "मंत्री": 4798,
      "लम": 4799,
      "वेश": 4800,
      "ीया": 4801,
      "ैक": 4802,
      "20)": 4803,
      "▁सभा": 4804,
      "▁संगीत": 4805,
      "▁(इ": 4806,
      "as,": 4807,
      "▁India*](https://books.google.com/books?id=": 4808,
      "lect": 4809,
      "▁महासागर": 4810,
      "ams": 4811,
      "▁वै": 4812,
      "▁C.": 4813,
      "▁अग": 4814,
      "▁made": 4815,
      "urn": 4816,
      "▁Pl": 4817,
      "▁दोन": 4818,
      "ournal": 4819,
      "ेंज": 4820,
      "▁2011.": 4821,
      "▁D.": 4822,
      "▁human": 4823,
      "▁इम": 4824,
      "राष्ट्रपति": 4825,
      "▁विद्य": 4826,
      "def": 4827,
      "engali": 4828,
      "गुप्त": 4829,
      "ivis": 4830,
      "onstitutional": 4831,
      "वंश": 4832,
      "▁\"उत्तर": 4833,
      "edie": 4834,
      "मेरिक": 4835,
      "▁उदाहर": 4836,
      "34)": 4837,
      "63": 4838,
      "dr": 4839,
      "ities": 4840,
      "▁—": 4841,
      "hief": 4842,
      "tions": 4843,
      "▁12": 4844,
      "▁Di": 4845,
      "akhand": 4846,
      "22)": 4847,
      "rief": 4848,
      "▁Valley": 4849,
      "olitical_": 4850,
      "▁[National": 4851,
      "-india-": 4852,
      "-largest": 4853,
      "ttarakhand": 4854,
      ".పూ.": 4855,
      "0)": 4856,
      "119": 4857,
      "All": 4858,
      "Rowland": 4859,
      "_-": 4860,
      "_9": 4861,
      "af": 4862,
      "aury": 4863,
      "detail": 4864,
      "ey": 4865,
      "kar": 4866,
      "mal": 4867,
      "ple": 4868,
      "एँ": 4869,
      "घल": 4870,
      "चिन्हे": 4871,
      "जिं": 4872,
      "द्व": 4873,
      "ध्या": 4874,
      "मृत": 4875,
      "य.": 4876,
      "यार": 4877,
      "रस्व": 4878,
      "शोक": 4879,
      "सर": 4880,
      "ाय": 4881,
      "ोज": 4882,
      "ంతం": 4883,
      "ఆగ": 4884,
      "కళ": 4885,
      "ఖండ్": 4886,
      "గ్": 4887,
      "గిన": 4888,
      "గఢ్": 4889,
      "జో": 4890,
      "ట్ర": 4891,
      "తెలుగు": 4892,
      "ద్రా": 4893,
      "పద": 4894,
      "భి": 4895,
      "యో": 4896,
      "లక్ష": 4897,
      "వర": 4898,
      "శో": 4899,
      "షా": 4900,
      "హు": 4901,
      "హార్": 4902,
      "హాయ": 4903,
      "ాష్ట్ర": 4904,
      "ీక": 4905,
      "ీహార్": 4906,
      "ుల": 4907,
      "ుల్": 4908,
      "ోల్": 4909,
      "ోత్స": 4910,
      "ౌర్య": 4911,
      "▁ऊ": 4912,
      "▁रा": 4913,
      "▁his": 4914,
      "oral": 4915,
      "▁[p": 4916,
      "▁[श": 4917,
      "▁[హ": 4918,
      "▁\"హ": 4919,
      "▁\"ఢిల్లీ": 4920,
      "\")[[": 4921,
      "onom": 4922,
      "India_G": 4923,
      "hild": 4924,
      "్రూ": 4925,
      "▁सैन": 4926,
      "](https://te.wikipedia.org/wiki/సి": 4927,
      "](https://mr.wikipedia.org/wiki/ल": 4928,
      "leg": 4929,
      "र्ज": 4930,
      "र्ष": 4931,
      "▁मस": 4932,
      "▁sh": 4933,
      "ాలా": 4934,
      "ాలలో": 4935,
      "-0-4": 4936,
      "rig": 4937,
      "్యం": 4938,
      "▁वृ": 4939,
      "ata_": 4940,
      "▁अतिश": 4941,
      "ालया": 4942,
      "ర్ణా": 4943,
      "ర్మే": 4944,
      "▁mar": 4945,
      "ists": 4946,
      "ISO": 4947,
      "▁दिस": 4948,
      "olon": 4949,
      "▁River": 4950,
      "లోక్‌సభ": 4951,
      "ष्ठ": 4952,
      "emic": 4953,
      "ांध": 4954,
      "ांमध्ये": 4955,
      ".[[4": 4956,
      "▁వంశ": 4957,
      "sian": 4958,
      "aylor": 4959,
      "▁Ge": 4960,
      "ండర్": 4961,
      "force": 4962,
      "abha": 4963,
      "asting": 4964,
      "త్మా": 4965,
      "0%E0%A4%": 4966,
      "▁non-": 4967,
      "▁అతి": 4968,
      "▁[महाराष्ट्र": 4969,
      "▁[\"The": 4970,
      "overty": 4971,
      "ికి": 4972,
      "407": 4973,
      "▁./वर्ग:CS1": 4974,
      "▁विष": 4975,
      "▁सेना": 4976,
      "ద్దు": 4977,
      "o-ope": 4978,
      "▁రహదార": 4979,
      "మాచల్": 4980,
      "▁సామ్రాజ్య": 4981,
      "రువా": 4982,
      "రుణా": 4983,
      "▁१२": 4984,
      "న్నో": 4985,
      ".jpg)](https://hi.wikipedia.org/wiki/चित्र:": 4986,
      "▁असते.": 4987,
      "ंतप्रधान": 4988,
      "▁देश\")": 4989,
      "▁देशांची": 4990,
      "ड़ा": 4991,
      "మిజో": 4992,
      "▁ఇది": 4993,
      "्यांमध्ये": 4994,
      "irect": 4995,
      "_and_depend": 4996,
      "▁घा": 4997,
      "▁घे": 4998,
      "▁జరి": 4999,
      "▁విస్త": 5000,
      "मेन": 5001,
      "मेव": 5002,
      "ोरम": 5003,
      "त्यमेव": 5004,
      "▁శతాబ్ద": 5005,
      "ట్టు": 5006,
      "▁2007](https://mr.wikipedia.org/wiki/भारत#": 5007,
      "▁\"जगातील": 5008,
      "▁second": 5009,
      "రాష్ట్రాలు": 5010,
      "వేద": 5011,
      "shit),": 5012,
      "▁రాజకీయ": 5013,
      "template": 5014,
      "गातील_देश": 5015,
      "హిమాచల్": 5016,
      "హాత్మా": 5017,
      "म्बर": 5018,
      "](https://mr.wikipedia.org/wiki/जगातील_देश": 5019,
      "▁ప్రదేశ్\")": 5020,
      "duct": 5021,
      "హారాష్ట్ర": 5022,
      "శాస్త్ర": 5023,
      "రాజస్థాన్": 5024,
      "तेलु": 5025,
      "वार्षिक": 5026,
      "▁स्थानिक": 5027,
      "▁వాతావరణ": 5028,
      "దినోత్స": 5029,
      "బెంగాలీ": 5030,
      "యన్మార్": 5031,
      "नागाल": 5032,
      "▁ముఖ్య": 5033,
      "विकिपीडिया": 5034,
      "त्तराखंड": 5035,
      "ilgrim": 5036,
      "ంజాబ్": 5037,
      "▁వ్యాస": 5038,
      "▁मोठ्या": 5039,
      "_Islands": 5040,
      "Taj_Mah": 5041,
      "▁किल्ला": 5042,
      "Indonesia": 5043,
      "గుజరాత్": 5044,
      "ఆఫ్ఘనిస్తాన్": 5045,
      "న్‌ఫర్మే": 5046,
      "achine": 5047,
      "entral_": 5048,
      "al_in_March": 5049,
      ".svg.png)": 5050,
      "వ](https://te.wikipedia.org/wiki/List_of_": 5051,
      "urvey": 5052,
      "రిహద్దు": 5053,
      "वेरूळ": 5054,
      "हरियाणा": 5055,
      "చ్చేరి": 5056,
      "nominal)": 5057,
      "dikshit),": 5058,
      "▁विद्यार्थ": 5059,
      "Rowland1970": 5060,
      "जिंठा": 5061,
      "रस्वती": 5062,
      "ర్ణాటక": 5063,
      "రుణాచల్": 5064,
      "▁2007](https://mr.wikipedia.org/wiki/भारत#dikshit),": 5065,
      "विकिपीडिया:": 5066,
      "Taj_Mahal_in_March": 5067,
      "న్‌ఫర్మేషన్": 5068,
      "Taj_Mahal_in_March_2004": 5069,
      "/P": 5070,
      "577": 5071,
      "Congress": 5072,
      "_14": 5073,
      "ate_": 5074,
      "i,": 5075,
      "ser": 5076,
      "▁6.": 5077,
      "▁ed.).": 5078,
      "▁(*": 5079,
      "▁(20": 5080,
      "rain": 5081,
      "▁Publishing": 5082,
      "onsoon": 5083,
      "▁Tamil": 5084,
      "▁Republic": 5085,
      "identifiers": 5086,
      "▁Ex": 5087,
      "ounci": 5088,
      "▁Himalay": 5089,
      "imach": 5090,
      "endra": 5091,
      "ingham": 5092,
      "urrent": 5093,
      "ociety": 5094,
      ",NGDP": 5095,
      "3TR": 5096,
      "82": 5097,
      "ling": 5098,
      "sci": 5099,
      "ward": 5100,
      "दरा": 5101,
      "प्": 5102,
      "पान": 5103,
      "र\")": 5104,
      "शन": 5105,
      "शि": 5106,
      "हान": 5107,
      "ेस": 5108,
      "।\n": 5109,
      "208": 5110,
      "्राम": 5111,
      "▁काल": 5112,
      "▁स्म": 5113,
      "▁पह": 5114,
      "2013": 5115,
      "ing_": 5116,
      "▁Centre": 5117,
      "adhy": 5118,
      "िया](https://mai.wikipedia.org/wiki/": 5119,
      "▁जी": 5120,
      "emon": 5121,
      "india-gl": 5122,
      "▁शहर": 5123,
      "▁2005": 5124,
      "▁gre": 5125,
      "▁[978-0-521": 5126,
      "▁परंत": 5127,
      "ाजिक": 5128,
      "वेली": 5129,
      "ार्टी": 5130,
      "timesofindia": 5131,
      "▁शासन": 5132,
      "▁नृत्य\")": 5133,
      "rishn": 5134,
      "fication": 5135,
      "ंडोनेशिया": 5136,
      "3TRt": 5137,
      "india-glance": 5138,
      "▁परंतु": 5139,
      "timesofindia.indiatimes.com/": 5140,
      "-world": 5141,
      "09": 5142,
      "1200": 5143,
      "5]](https://en.wikipedia.org/wiki/India#cite_note-FOOTNOTE": 5144,
      "_20": 5145,
      "cise": 5146,
      "ez": 5147,
      "f/": 5148,
      "ham": 5149,
      "hat": 5150,
      "lurton": 5151,
      "ots": 5152,
      "que": 5153,
      "rust": 5154,
      "s_of_India": 5155,
      "tle": 5156,
      "ym": 5157,
      "▁lo": 5158,
      "▁urban": 5159,
      "▁[Indo-": 5160,
      "](https://en.wikipedia.org/wiki/United": 5161,
      "erry": 5162,
      "▁them": 5163,
      "▁(2018": 5164,
      "outheast": 5165,
      "▁India](https://en.wikipedia.org/wiki/G": 5166,
      "icob": 5167,
      "▁influ": 5168,
      "ravi": 5169,
      "▁summit": 5170,
      "▁pre": 5171,
      "▁painting": 5172,
      "ature": 5173,
      "▁Sec": 5174,
      "etra": 5175,
      "lief": 5176,
      "-16": 5177,
      "▁billion": 5178,
      "▁man": 5179,
      "chin": 5180,
      "789": 5181,
      "▁disc": 5182,
      "▁Territory": 5183,
      "▁Research": 5184,
      "▁app": 5185,
      "▁M.": 5186,
      "nium": 5187,
      "iger": 5188,
      "▁Data": 5189,
      "▁eastern": 5190,
      "apan": 5191,
      "18)": 5192,
      "▁Incre": 5193,
      "uduch": 5194,
      "▁([link": 5195,
      "▁Kingdom": 5196,
      "▁Lank": 5197,
      "▁[↑](https://en.wikipedia.org/wiki/India#cite_ref-FOOTNOTEMetcalfMetcalf2006": 5198,
      "ternational": 5199,
      "overnment_of_India": 5200,
      "ikkim": 5201,
      "-107": 5202,
      "general_": 5203,
      "_maint:": 5204,
      "aint:\\_": 5205,
      "▁contrib": 5206,
      "_Indian_general_": 5207,
      "struc": 5208,
      "%7C": 5209,
      "%7c": 5210,
      "Wikipedia\\_articles": 5211,
      "cording": 5212,
      "volution": 5213,
      "JPG": 5214,
      "▁employ": 5215,
      "](https://en.wikipedia.org/wiki/South_Asian_": 5216,
      "/index.php": 5217,
      "\\_maint:\\_": 5218,
      "fferent": 5219,
      "reedom": 5220,
      "uducherry": 5221,
      "_Indian_general_election": 5222,
      "-S": 5223,
      "-50": 5224,
      ".world": 5225,
      "4).": 5226,
      "4-3": 5227,
      "Re": 5228,
      "_राज्य": 5229,
      "bc": 5230,
      "ime": 5231,
      "m.nic.in/": 5232,
      "ncl": 5233,
      "rial": 5234,
      "ंट": 5235,
      "ंची": 5236,
      "क्": 5237,
      "तिक": 5238,
      "धि": 5239,
      "भर": 5240,
      "वै": 5241,
      "वसाय": 5242,
      "हू": 5243,
      "ैस": 5244,
      "ोवा": 5245,
      "▁छ": 5246,
      "▁९": 5247,
      "▁[ओ": 5248,
      "▁[लोक": 5249,
      "▁\"य": 5250,
      "▁\"लोक": 5251,
      "on,": 5252,
      "▁सो": 5253,
      "▁संग्र": 5254,
      "▁Con": 5255,
      "url": 5256,
      "▁P.": 5257,
      "▁दी": 5258,
      "▁दु": 5259,
      "नाव": 5260,
      "▁नगर": 5261,
      "▁निकोबार": 5262,
      "वादी": 5263,
      "वाहर": 5264,
      "ews": 5265,
      "द्रा": 5266,
      "▁J.": 5267,
      "160": 5268,
      ".gov.in": 5269,
      "_Delhi": 5270,
      "ियन": 5271,
      "](https://hi.wikipedia.org/wiki/भारत_की": 5272,
      "▁प्राप्त": 5273,
      "▁life": 5274,
      "▁जाता": 5275,
      "शीन": 5276,
      "▁[उत्तर": 5277,
      "International_": 5278,
      "/files/": 5279,
      "pringer": 5280,
      "तंत्रता": 5281,
      "▁थी": 5282,
      "pectancy": 5283,
      "hasha": 5284,
      "ंग्लिश": 5285,
      "साँचा:": 5286,
      "▁पर्वत": 5287,
      "uthority": 5288,
      "nclm.nic.in/": 5289,
      "वाहरलाल": 5290,
      "-on-": 5291,
      "125": 5292,
      "123": 5293,
      "122": 5294,
      "Ass": 5295,
      "CIA": 5296,
      "fob": 5297,
      "map": 5298,
      "ox": 5299,
      "ving": 5300,
      "aries": 5301,
      "arath": 5302,
      "educ": 5303,
      "19.": 5304,
      "108": 5305,
      "▁David": 5306,
      "avy": 5307,
      "48)": 5308,
      "▁dispu": 5309,
      "mritsar": 5310,
      "education": 5311,
      "*)": 5312,
      "-n": 5313,
      "-India": 5314,
      ".ni": 5315,
      "2]](https://en.wikipedia.org/wiki/India#cite_note-": 5316,
      "B0%": 5317,
      "DD": 5318,
      "IUCN": 5319,
      "SAARC_summit": 5320,
      "_en": 5321,
      "_languages": 5322,
      "britannica": 5323,
      "go": 5324,
      "iz": 5325,
      "lood": 5326,
      "m2": 5327,
      "oard": 5328,
      "ranc": 5329,
      "tw": 5330,
      "काल": 5331,
      "जात": 5332,
      "जासत्ताक": 5333,
      "त्क": 5334,
      "दि": 5335,
      "पैकी": 5336,
      "माल": 5337,
      "रवरी": 5338,
      "ल्य": 5339,
      "ळख": 5340,
      "हरा": 5341,
      "ह्या": 5342,
      "ूण": 5343,
      "ेघालय": 5344,
      "ैथि": 5345,
      "१८": 5346,
      "ంతి": 5347,
      "కాల": 5348,
      "కారం": 5349,
      "ఖ్": 5350,
      "గంగా": 5351,
      "టో": 5352,
      "డిన": 5353,
      "తీ": 5354,
      "ధి": 5355,
      "ధించ": 5356,
      "నల్": 5357,
      "మన": 5358,
      "మర": 5359,
      "ర్యా": 5360,
      "లం": 5361,
      "లతో": 5362,
      "లమె": 5363,
      "ీస్": 5364,
      "ూప": 5365,
      "ూరు": 5366,
      "ెనీ": 5367,
      "ౌక": 5368,
      "▁ద": 5369,
      "▁ఫ": 5370,
      "▁im": 5371,
      "▁దక్షిణ": 5372,
      "▁హిందూ": 5373,
      "▁గాంధీ": 5374,
      "ortheast": 5375,
      "▁[ड": 5376,
      "▁[భారతదేశం": 5377,
      "▁[ఢిల్లీ": 5378,
      "▁[हिन्दी": 5379,
      "ency": 5380,
      "▁\"ओ": 5381,
      "▁\"In": 5382,
      "▁\"19": 5383,
      "\")),": 5384,
      "erg": 5385,
      "esti": 5386,
      "ess/": 5387,
      "▁साम्राज": 5388,
      "](https://mr.wikipedia.org/wiki/ह": 5389,
      "](https://mr.wikipedia.org/wiki/सं": 5390,
      "▁पासून": 5391,
      "ారస": 5392,
      "र्चा:": 5393,
      "राठा": 5394,
      "2015": 5395,
      "ాలను": 5396,
      "▁वार": 5397,
      "\\_cont": 5398,
      "\\_identifiers": 5399,
      "స్](https://te.wikipedia.org/wiki/": 5400,
      "▁far": 5401,
      "adwe": 5402,
      "▁పెద్ద": 5403,
      "ర్లు": 5404,
      "ver,": 5405,
      "ular": 5406,
      "uled": 5407,
      "hell": 5408,
      "▁द्व": 5409,
      "ंगे": 5410,
      "లు\")": 5411,
      "▁women": 5412,
      "▁केली": 5413,
      "00–సా.శ.పూ.": 5414,
      "▁जे": 5415,
      "▁जून": 5416,
      "▁जगातील": 5417,
      "fir": 5418,
      "▁B.": 5419,
      "ంది": 5420,
      "▁बांध": 5421,
      "253": 5422,
      ".[[23": 5423,
      ".[[40": 5424,
      "▁వే": 5425,
      "्वे": 5426,
      "tures": 5427,
      "1999": 5428,
      "irth": 5429,
      "▁Gu": 5430,
      "विज्ञान": 5431,
      "▁November": 5432,
      "▁Nehru": 5433,
      "स्तन": 5434,
      "▁गेट": 5435,
      "वाघ": 5436,
      "త్తం": 5437,
      "architecture": 5438,
      "नेय": 5439,
      "▁new": 5440,
      "_Affairs": 5441,
      "▁(సా.శ.15": 5442,
      "▁(సా.శ.13": 5443,
      "त्त्व": 5444,
      "्रेल": 5445,
      "▁అనే": 5446,
      "▁ప్రజ": 5447,
      "▁forest": 5448,
      "తం\")": 5449,
      "ecu": 5450,
      "](https://mai.wikipedia.org/wiki/ब": 5451,
      "ంచి": 5452,
      "▁Official": 5453,
      "aves": 5454,
      "णिपूर": 5455,
      "▁ఆఫ్": 5456,
      "▁[Ministry": 5457,
      "▁సాం": 5458,
      "arty": 5459,
      "ummer": 5460,
      "ార్లమె": 5461,
      "▁\"British": 5462,
      "ternal": 5463,
      "undament": 5464,
      "oreign": 5465,
      "iley": 5466,
      "](https://hi.wikipedia.org/wiki/भारत_का": 5467,
      "కిస్థాన్": 5468,
      "ड़े": 5469,
      "▁ext": 5470,
      "▁extra": 5471,
      "▁నే": 5472,
      "▁నగర": 5473,
      "ext": 5474,
      "extra": 5475,
      "▁technology": 5476,
      "▁करून": 5477,
      "_GDP": 5478,
      "ాయి.": 5479,
      "ानेवारी": 5480,
      "hmed": 5481,
      "టిబె": 5482,
      "दादरा": 5483,
      "▁[Government": 5484,
      "్రీ.పూ.": 5485,
      "वरून": 5486,
      "-108": 5487,
      "](https://en.wikipedia.org/wiki/National_": 5488,
      "ండియా": 5489,
      "](https://en.wikipedia.org/wiki/List_of_SAARC_summit": 5490,
      "athura": 5491,
      "▁produc": 5492,
      "▁ఎక్కువ": 5493,
      "▁ఎన్నో": 5494,
      "स्ट्रेल": 5495,
      "▁./వర్గం:Wikipedia\\_articles": 5496,
      "](https://mr.wikipedia.org/wiki/भारत#CITEREF": 5497,
      "_సం": 5498,
      "▁regions": 5499,
      "ారు.\n": 5500,
      "ashmiri": 5501,
      "▁Hinduism": 5502,
      "ैदान": 5503,
      "स्थाप": 5504,
      "awahar": 5505,
      "టుంబ": 5506,
      "usiness/": 5507,
      "▁सर्वांत": 5508,
      "▁భారత్": 5509,
      "▁वर्षां": 5510,
      "kingdom": 5511,
      "మెరి": 5512,
      "▁మొత్తం": 5513,
      "▁ओळख": 5514,
      "ृष्ट्या": 5515,
      "orities": 5516,
      "▁वेग": 5517,
      "బాద్": 5518,
      "eserve": 5519,
      "▁केंद्रशासित": 5520,
      "ంపెనీ": 5521,
      "ग्नेय": 5522,
      "హ్మ": 5523,
      "industan": 5524,
      "industani": 5525,
      "akshadwe": 5526,
      "▁ఏర్": 5527,
      "▁groups": 5528,
      "్రిటిషు": 5529,
      "cript": 5530,
      "तांशी": 5531,
      "▁निर्म": 5532,
      "_BRICS_summit": 5533,
      "▁Persian": 5534,
      "omason": 5535,
      "▁स्थित": 5536,
      "ymbols": 5537,
      "Provision": 5538,
      "कल्प": 5539,
      "▁అత్యధిక": 5540,
      "overeign": 5541,
      "ांची_यादी_(": 5542,
      "fghanistan": 5543,
      "▁निवड": 5544,
      "ootball": 5545,
      "ీర్ణ": 5546,
      "దక్షిణ_ఆసియా": 5547,
      "▁इमारत": 5548,
      "▁अतिशय": 5549,
      "](https://mr.wikipedia.org/wiki/जगातील_देशांची_यादी_(": 5550,
      "विकिपीडिया:संदर्भ": 5551,
      "प्पा": 5552,
      "icobar": 5553,
      "▁summits\")": 5554,
      "britannica.com/": 5555,
      "rancis": 5556,
      "ह्याद्र": 5557,
      "ैथिली": 5558,
      "\\_contain": 5559,
      "_GDP_(": 5560,
      "](https://en.wikipedia.org/wiki/List_of_SAARC_summits": 5561,
      "awaharl": 5562,
      "akshadweep": 5563,
      "130": 5564,
      "2)\n": 5565,
      "3-8": 5566,
      "Sanskrit": 5567,
      "_24": 5568,
      "_17": 5569,
      "bbc": 5570,
      "gra": 5571,
      "hra": 5572,
      "nf": 5573,
      "202": 5574,
      "▁(2006": 5575,
      "▁popul": 5576,
      "▁co": 5577,
      "▁culture": 5578,
      "\\_parame": 5579,
      "ource": 5580,
      "28)": 5581,
      "1162": 5582,
      "▁only": 5583,
      "dex": 5584,
      "ublication": 5585,
      "▁status": 5586,
      "ditional": 5587,
      "▁Indus": 5588,
      "edieval": 5589,
      "\\_parameters": 5590,
      "-and": 5591,
      ".uk": 5592,
      "/g": 5593,
      "66": 5594,
      "9,": 5595,
      "Se": 5596,
      "_ह": 5597,
      "_on": 5598,
      "ks": 5599,
      "yam": 5600,
      "गी": 5601,
      "जान": 5602,
      "यल": 5603,
      "िज़": 5604,
      "ैल": 5605,
      "ोस": 5606,
      "१५": 5607,
      ".org": 5608,
      "▁[4": 5609,
      "▁\"ड": 5610,
      "▁\"श": 5611,
      "](https://hi.wikipedia.org/wiki/इ": 5612,
      "](https://hi.wikipedia.org/wiki/ग": 5613,
      "](https://hi.wikipedia.org/wiki/न": 5614,
      "](https://hi.wikipedia.org/wiki/सं": 5615,
      "्ता": 5616,
      "▁आर": 5617,
      "▁अथ": 5618,
      "▁अव": 5619,
      "▁दिवस": 5620,
      "▁des": 5621,
      "▁त्र": 5622,
      "▁बौद्ध": 5623,
      "विद्या": 5624,
      "ोंड": 5625,
      "वाह": 5626,
      "elang": 5627,
      "akes": 5628,
      "▁2008": 5629,
      "▁संबंध": 5630,
      "▁([स": 5631,
      "मुंबई": 5632,
      "anipur": 5633,
      "%2C_India": 5634,
      "▁चु": 5635,
      "▁क्षेत्र\")": 5636,
      "▁२०१": 5637,
      "india.gov.in/india-glance": 5638,
      "20190": 5639,
      "्रीका": 5640,
      "▁हुई": 5641,
      "cyclop": 5642,
      "▁लेख:": 5643,
      "▁आक्रम": 5644,
      "▁जयंती": 5645,
      "▁सामाजिक": 5646,
      "3TRtDwAAQBAJ&pg=PA": 5647,
      ".\")\n": 5648,
      ".](https://upload.wikimedia.org/wikipedia/commons/thumb/": 5649,
      "4]](https://en.wikipedia.org/wiki/India#cite_note-FOOTNOTE": 5650,
      "75": 5651,
      "Ethnologue": 5652,
      "MC": 5653,
      "Mon": 5654,
      "MID": 5655,
      "Ministry_of_": 5656,
      "_h": 5657,
      "aul": 5658,
      "ced": 5659,
      "code": 5660,
      "casting": 5661,
      "dish": 5662,
      "ece": 5663,
      "hu": 5664,
      "had": 5665,
      "ij": 5666,
      "ker": 5667,
      "ncient": 5668,
      "pture": 5669,
      "rid": 5670,
      "yy": 5671,
      "yle": 5672,
      "▁z": 5673,
      "▁ge": 5674,
      "▁7.": 5675,
      "▁low": 5676,
      "iam": 5677,
      "orn": 5678,
      "▁[f": 5679,
      "▁[World": 5680,
      "tection": 5681,
      "ants": 5682,
      "th_BRICS_summit": 5683,
      "arth": 5684,
      "arlo": 5685,
      "arsh": 5686,
      "araj": 5687,
      "arendra": 5688,
      "aland": 5689,
      "alli": 5690,
      "icha": 5691,
      "rat": 5692,
      "▁sq": 5693,
      "▁caus": 5694,
      "uss": 5695,
      "▁Civil": 5696,
      "loth": 5697,
      "▁tree": 5698,
      "▁Punjab": 5699,
      "_of_2011": 5700,
      "▁This": 5701,
      "ema": 5702,
      "emographic": 5703,
      "▁Be": 5704,
      "1017": 5705,
      "266": 5706,
      "agari": 5707,
      "1993": 5708,
      "▁hum": 5709,
      "▁house": 5710,
      "▁Government": 5711,
      "ained": 5712,
      "-3)": 5713,
      "115": 5714,
      "oples": 5715,
      "▁rem": 5716,
      "](https://en.wikipedia.org/wiki/India#CITEREFB": 5717,
      "▁these": 5718,
      "_of_India.svg": 5719,
      "_Paper": 5720,
      "ogue": 5721,
      "▁[↑](https://en.wikipedia.org/wiki/India#cite_ref-FOOTNOTEB": 5722,
      "ociation": 5723,
      "ockey": 5724,
      "▁[British": 5725,
      "ligions": 5726,
      "emplate_": 5727,
      "▁Press](https://en.wikipedia.org/wiki/C": 5728,
      "_Totals": 5729,
      "▁language\"),": 5730,
      "▁tex": 5731,
      "▁text": 5732,
      "▁def": 5733,
      "▁development": 5734,
      "opulation_Totals": 5735,
      "ikhism": 5736,
      "▁[Dyson": 5737,
      "▁\"Government": 5738,
      "_Nadu": 5739,
      "▁\"Re": 5740,
      "](https://en.wikipedia.org/wiki/Re": 5741,
      "ibcode": 5742,
      "904-7": 5743,
      "amil_Nadu": 5744,
      "▁[![A": 5745,
      "▁when": 5746,
      "▁languages\")": 5747,
      "▁control": 5748,
      "_1_of_2011": 5749,
      "▁2019.\n": 5750,
      "8/8": 5751,
      "▁Islands\")": 5752,
      "ighth": 5753,
      "ondon": 5754,
      "▁Programme": 5755,
      "gypt": 5756,
      "phere": 5757,
      "▁composed": 5758,
      "▁wide": 5759,
      "uisine": 5760,
      "dependence": 5761,
      "▁along": 5762,
      "oint": 5763,
      "KulkeRothermund2004": 5764,
      "▁km2": 5765,
      "-80904-7": 5766,
      "vanagari": 5767,
      "▁Registrar": 5768,
      "Pages\\_using\\_": 5769,
      "al_Population_Totals": 5770,
      "arnatic": 5771,
      "Articles\\_contain": 5772,
      "ynasty": 5773,
      "](https://en.wikipedia.org/wiki/History_of_": 5774,
      "roadcasting": 5775,
      "o-operation": 5776,
      "▁Increase": 5777,
      "Provisional_Population_Totals": 5778,
      "ichael": 5779,
      "_Paper_1_of_2011": 5780,
      "Provisional_Population_Totals_Paper_1_of_2011": 5781,
      "Provisional_Population_Totals_Paper_1_of_2011_India": 5782,
      "\"](http://www.": 5783,
      "-C": 5784,
      ".co": 5785,
      "/D": 5786,
      "/india": 5787,
      "3–": 5788,
      "7).": 5789,
      "AS": 5790,
      "C-0": 5791,
      "National": 5792,
      "PE": 5793,
      "Raj": 5794,
      "Report": 5795,
      "_2": 5796,
      "_v": 5797,
      "_ख": 5798,
      "_43": 5799,
      "aut": 5800,
      "ek": 5801,
      "most": 5802,
      "ues": 5803,
      "ंक": 5804,
      "कि": 5805,
      "कालीन": 5806,
      "चि": 5807,
      "पद": 5808,
      "यो": 5809,
      "व्या": 5810,
      "व्ह": 5811,
      "ा\")": 5812,
      "ो-": 5813,
      "▁,": 5814,
      "▁United": 5815,
      "▁9.": 5816,
      "▁Qu": 5817,
      "▁`|": 5818,
      "▁[य": 5819,
      "en,": 5820,
      "▁\"पश्चिम": 5821,
      "▁\"राजस्थान": 5822,
      "arli": 5823,
      "es,": 5824,
      "▁कम": 5825,
      "▁काम": 5826,
      "▁किन": 5827,
      "▁सर": 5828,
      "lem": 5829,
      "राक": 5830,
      "raj": 5831,
      "\\_अ": 5832,
      "▁China": 5833,
      "urity": 5834,
      "▁दिया": 5835,
      "ियां": 5836,
      "FOOTNOTENational_Informatics_Centre2005": 5837,
      "▁जल": 5838,
      "▁नद": 5839,
      "▁बदल": 5840,
      "▁बढ़": 5841,
      "्वज": 5842,
      "28.": 5843,
      "▁गु": 5844,
      "▁religious": 5845,
      "▁name": 5846,
      "▁Wiki": 5847,
      "▁१८": 5848,
      "▁भवन": 5849,
      "▁घोष": 5850,
      "युद्ध": 5851,
      "▁sector": 5852,
      "ंतरराष्ट्रीय": 5853,
      "▁उपमहाद्वीप": 5854,
      "▁अनु": 5855,
      "knowin": 5856,
      "▁भूम": 5857,
      "1947)": 5858,
      "एस.": 5859,
      "ब्दी": 5860,
      "१९४७": 5861,
      "ंपनी": 5862,
      "ेरळ": 5863,
      "▁हुआ": 5864,
      "स्लाम": 5865,
      "View": 5866,
      "_उत्": 5867,
      "ेंद्रशासित_प्रदेश": 5868,
      "द्योगिकी": 5869,
      "▁Plateau": 5870,
      "धुनिक": 5871,
      "▁हिमालय": 5872,
      "▁लिए": 5873,
      "छत्तीसगढ": 5874,
      "hristian": 5875,
      "tlas": 5876,
      "▁अगस्त": 5877,
      "मेरिकन": 5878,
      "▁उदाहरण": 5879,
      "_maint:_": 5880,
      "्ता:": 5881,
      "knowindia": 5882,
      "-D": 5883,
      "350": 5884,
      "52": 5885,
      "7.\n": 5886,
      "Census": 5887,
      "LO": 5888,
      "QAAQBAJ&pg=PA": 5889,
      "S.": 5890,
      "_0": 5891,
      "-13": 5892,
      "▁14.": 5893,
      "0000": 5894,
      "217": 5895,
      "▁2018": 5896,
      "26.": 5897,
      "▁1960": 5898,
      "exis": 5899,
      "_population": 5900,
      "4/4": 5901,
      "-e": 5902,
      "-पाकिस्तान": 5903,
      "/ark": 5904,
      "91": 5905,
      ":**": 5906,
      "Home": 5907,
      "IF": 5908,
      "IJ": 5909,
      "Kashmir": 5910,
      "_ग": 5911,
      "_pe": 5912,
      "_In": 5913,
      "_జాబితా": 5914,
      "ax": 5915,
      "cia": 5916,
      "epend": 5917,
      "hindu": 5918,
      "mand": 5919,
      "s:": 5920,
      "yd": 5921,
      "ंच": 5922,
      "ंचा": 5923,
      "ंनी": 5924,
      "एन": 5925,
      "काता": 5926,
      "गू": 5927,
      "गरा": 5928,
      "गस्ट": 5929,
      "णारे": 5930,
      "तो": 5931,
      "पदी": 5932,
      "फगा": 5933,
      "बेट": 5934,
      "रवि": 5935,
      "लेश": 5936,
      "वृत": 5937,
      "ाप": 5938,
      "ूड": 5939,
      "ॅक": 5940,
      "ोडिया": 5941,
      "ोळी": 5942,
      "ौपदी": 5943,
      "्मा": 5944,
      "१६": 5945,
      "१]](https://mr.wikipedia.org/wiki/भारत#cite_note-": 5946,
      "६-": 5947,
      "ఆంధ": 5948,
      "కీ": 5949,
      "కాలు": 5950,
      "క్రమ": 5951,
      "గర్": 5952,
      "డో": 5953,
      "థి": 5954,
      "నె": 5955,
      "నాలు": 5956,
      "పించ": 5957,
      "బడ్డ": 5958,
      "భర": 5959,
      "మహ": 5960,
      "మై": 5961,
      "యన": 5962,
      "రంగ": 5963,
      "లయా": 5964,
      "వార": 5965,
      "శీ": 5966,
      "షనల్": 5967,
      "స్య": 5968,
      "ృద్ధి": 5969,
      "ెంగ": 5970,
      "ేర": 5971,
      "–4": 5972,
      "–24": 5973,
      "▁hist": 5974,
      "▁దా": 5975,
      "▁నాగరికత": 5976,
      "▁టెక్నాలజీ": 5977,
      "iary": 5978,
      "orce": 5979,
      "](Template:": 5980,
      ":/121": 5981,
      "▁[पु": 5982,
      "▁[चीन": 5983,
      "▁[गण": 5984,
      "▁\"दिल्ली": 5985,
      "▁\"वर्ग:CS1": 5986,
      "▁\"तमिळनाडू": 5987,
      "aro": 5988,
      "ala": 5989,
      "ester": 5990,
      "ed,": 5991,
      "anda": 5992,
      "్రై": 5993,
      "్రప్రదేశ్": 5994,
      "▁सीमा": 5995,
      "▁(क": 5996,
      "](https://te.wikipedia.org/wiki/ఢిల్లీ": 5997,
      "asi": 5998,
      "ashi": 5999,
      "](https://mr.wikipedia.org/wiki/द": 6000,
      "](https://mr.wikipedia.org/wiki/बा": 6001,
      "](https://mr.wikipedia.org/wiki/वर्ग:CS1": 6002,
      "](https://mr.wikipedia.org/wiki/तमिळनाडू": 6003,
      "▁India](https://en.wikipedia.org/wiki/C": 6004,
      "▁मत": 6005,
      "rak": 6006,
      "raz": 6007,
      "idy": 6008,
      "**\n": 6009,
      "▁colle": 6010,
      "am\")": 6011,
      "▁आढ": 6012,
      "▁आले": 6013,
      "\\_template": 6014,
      "▁हर": 6015,
      "▁Cooperation": 6016,
      "దేశం": 6017,
      "దేశాల": 6018,
      "దేశాలు": 6019,
      "స్\")": 6020,
      "▁fam": 6021,
      "adras": 6022,
      "ात्मा": 6023,
      "-135": 6024,
      "ర్‌": 6025,
      "\"),[[": 6026,
      "▁Park": 6027,
      "comm": 6028,
      "▁प्रामु": 6029,
      "uns": 6030,
      "లు?action=edit&redlink=1": 6031,
      "రాఠ": 6032,
      "]](https://en.wikipedia.org/wiki/India#cite_note-Combined": 6033,
      "लाओ": 6034,
      "▁att": 6035,
      "▁కి": 6036,
      "▁కో": 6037,
      "▁तरी": 6038,
      "▁तयार": 6039,
      "ांस": 6040,
      "ign_": 6041,
      "igarh": 6042,
      "క్టో": 6043,
      ".[[३": 6044,
      ".[[४": 6045,
      "ले.\n": 6046,
      "105": 6047,
      "నియా": 6048,
      "▁వర్": 6049,
      "▁వారస": 6050,
      "indus": 6051,
      "ల్వే": 6052,
      "pecially": 6053,
      "▁సరిహద్దు": 6054,
      "▁మన": 6055,
      "▁మూ": 6056,
      "ldlife": 6057,
      "▁Games": 6058,
      "ండమా": 6059,
      "चेन्न": 6060,
      "▁చిన్న": 6061,
      "▁शत": 6062,
      "తాన": 6063,
      "ability": 6064,
      "ముఖ": 6065,
      "▁growth": 6066,
      "▁religion": 6067,
      "▁through": 6068,
      "త్వం": 6069,
      "द्रौपदी": 6070,
      "चा_": 6071,
      "नेपाल": 6072,
      "▁Factbook": 6073,
      "▁(సా.శ.17": 6074,
      "▁(సా.శ.14": 6075,
      "22-9": 6076,
      "ులు,": 6077,
      "–సా.శ.15": 6078,
      "–సా.శ.17": 6079,
      "osphere": 6080,
      "▁[\"H": 6081,
      "▁ప్రతి": 6082,
      "▁ప్రస్తు": 6083,
      "▁ప్రకారం": 6084,
      "▁ప్రముఖ": 6085,
      "िलि": 6086,
      "eccan": 6087,
      "AAJ": 6088,
      "▁विस्त": 6089,
      "ంచిన": 6090,
      "కుడు": 6091,
      "నుమ": 6092,
      "E0%B0%": 6093,
      "matic": 6094,
      "र्मू": 6095,
      "ింది.\n": 6096,
      "▁\"Mughal": 6097,
      "▁రో": 6098,
      "▁రంగ": 6099,
      "▁రవాణా": 6100,
      "्मिक": 6101,
      "▁సాధించ": 6102,
      "a_N": 6103,
      "a_Empire": 6104,
      "](https://en.wikipedia.org/wiki/Mugh": 6105,
      "▁परि": 6106,
      "ష్టు": 6107,
      "शियातील": 6108,
      "▁within": 6109,
      "](https://en.wikipedia.org/wiki/British": 6110,
      "िश्च": 6111,
      "ంతో": 6112,
      "▁exp": 6113,
      "▁\"Template:": 6114,
      "ुरु": 6115,
      "▁తరువా": 6116,
      "▁[बौद्ध": 6117,
      "పాలన": 6118,
      "48/c": 6119,
      "ोलकाता": 6120,
      "▁राज्यात": 6121,
      "▁राजधानी": 6122,
      "ीपी": 6123,
      "ం](https://te.wikipedia.org/wiki/భారతీయ": 6124,
      "▁नावा": 6125,
      "ख्याने": 6126,
      "वी_": 6127,
      "issing": 6128,
      "గుర్": 6129,
      "నేషనల్": 6130,
      "](https://mr.wikipedia.org/wiki/महाराष्ट्र": 6131,
      "▁[2](https://mr.wikipedia.org/wiki/भारत#cite_ref-": 6132,
      "_proj": 6133,
      "▁[1](https://mr.wikipedia.org/wiki/भारत#cite_ref-": 6134,
      "▁ప్రాంతం": 6135,
      "ंबेड": 6136,
      "వందే": 6137,
      ",_కేంద్రపాలిత": 6138,
      "▁రాజ్యం](https://te.wikipedia.org/wiki/": 6139,
      "▁బా": 6140,
      "▁బహు": 6141,
      "▁బెంగ": 6142,
      "▁जातो.": 6143,
      "ंग्रेस": 6144,
      "▁मोठा": 6145,
      "html).": 6146,
      "लोकसंख्येनुसार": 6147,
      "ాల్లో": 6148,
      "handigarh": 6149,
      "माणु": 6150,
      "శ్వా": 6151,
      "ారిటీ": 6152,
      "स्वातंत्र्य": 6153,
      "ीमबेट": 6154,
      "धीश": 6155,
      "గోళ": 6156,
      "▁फ़": 6157,
      "ेतील": 6158,
      "బడిన": 6159,
      "▁right": 6160,
      "ediff": 6161,
      "▁आशिया\")": 6162,
      "ंग्ला": 6163,
      "తున్న": 6164,
      "▁राष्ट्रपती": 6165,
      "న్నిక": 6166,
      "▁अधिकार": 6167,
      "समूह": 6168,
      "▁స్వాతంత్ర్య": 6169,
      "▁కాలంలో": 6170,
      "ेकड": 6171,
      "▁भागात": 6172,
      "▁ago": 6173,
      "countries_and_depend": 6174,
      "mitt": 6175,
      "ote:": 6176,
      "▁बहुतांशी": 6177,
      "Dyson2018),": 6178,
      "▁देख": 6179,
      "ంపి": 6180,
      "బెంగాల్": 6181,
      "▁उत्पाद": 6182,
      "ortal:": 6183,
      "▁especially": 6184,
      "rishna": 6185,
      "ెలవు": 6186,
      "encies_by": 6187,
      "](https://te.wikipedia.org/wiki/భారతదేశంలో_": 6188,
      "पेक्ष": 6189,
      "ोर्ड": 6190,
      "ख्खन": 6191,
      "▁Buddhist": 6192,
      "▁खाना\")": 6193,
      "olkata": 6194,
      "िवाजी": 6195,
      "-4020": 6196,
      "▁खासदार": 6197,
      "▁అధికారిక": 6198,
      "▁increased": 6199,
      "▁लेणी": 6200,
      "culpture": 6201,
      ".bnf": 6202,
      "▁2018](https://en.wikipedia.org/wiki/India#CITEREFDyson2018),": 6203,
      "▁सुरुव": 6204,
      "▁हिन्दी": 6205,
      "ఆర్ధిక": 6206,
      "▁పట్టణ": 6207,
      "▁झाली.": 6208,
      "▁కాశ్మీరు": 6209,
      "▁dependencies": 6210,
      "ంగ్లీషు": 6211,
      "arnataka": 6212,
      "क्षेत्रफळ": 6213,
      "▁अजून": 6214,
      "▁అయిన": 6215,
      "▁\"महाराष्ट्र\")": 6216,
      "▁రెండు": 6217,
      "violence": 6218,
      "ాల్దీవులు": 6219,
      ".fr/ark": 6220,
      "ట్రో": 6221,
      "ుల్తాన": 6222,
      "▁दिसम्बर": 6223,
      "▁./वर्ग:CS1\\_maint:\\_": 6224,
      "రాష్ట్రాలు,_కేంద్రపాలిత": 6225,
      "దినోత్సవం": 6226,
      "▁వ్యాసం:": 6227,
      "▁([link](https://mr.wikipedia.org/wiki/वर्ग:CS1": 6228,
      "ార్లమెంట": 6229,
      "▁./వర్గం:Wikipedia\\_articles\\_with\\_": 6230,
      "▁ఏర్ప": 6231,
      "ह्याद्री": 6232,
      "▁Quote:": 6233,
      "वृतीय": 6234,
      "ఆంధ్రప్రదేశ్": 6235,
      "లయాళ": 6236,
      ":/12148/c": 6237,
      "▁प्रामुख्याने": 6238,
      "चेन्नई": 6239,
      "](https://en.wikipedia.org/wiki/Mughal_": 6240,
      "ंबेडकर": 6241,
      "ीमबेटका": 6242,
      "countries_and_dependencies_by": 6243,
      ".bnf.fr/ark": 6244,
      "రాష్ట్రాలు,_కేంద్రపాలిత_ప్రాంత": 6245,
      "▁([link](https://mr.wikipedia.org/wiki/वर्ग:CS1_maint:_": 6246,
      ":/12148/cb": 6247,
      ".bnf.fr/ark:/12148/cb": 6248,
      "-78": 6249,
      ".in_": 6250,
      "/India": 6251,
      "338": 6252,
      "54": 6253,
      "Pakistan": 6254,
      "_10": 6255,
      "_2011": 6256,
      "garh": 6257,
      "hut": 6258,
      "here": 6259,
      "ption": 6260,
      "▁old": 6261,
      ".org/w": 6262,
      "tered": 6263,
      "an,": 6264,
      "of\\_": 6265,
      "198": 6266,
      "▁prom": 6267,
      "\\_of\\_": 6268,
      "▁Central": 6269,
      "-11": 6270,
      "▁2001": 6271,
      "▁near": 6272,
      "▁[\"A": 6273,
      "17.": 6274,
      "▁Ocean": 6275,
      "india.gov.in_": 6276,
      "MetcalfMetcalf2012": 6277,
      "1971": 6278,
      "▁use": 6279,
      "▁estimate": 6280,
      ".aspx?": 6281,
      ")\"),": 6282,
      "-with": 6283,
      "1-4": 6284,
      "AG": 6285,
      "ES": 6286,
      "Vu": 6287,
      "ZVu": 6288,
      "e,": 6289,
      "glia": 6290,
      "i-": 6291,
      "kZVu": 6292,
      "nc": 6293,
      "}}": 6294,
      "इल": 6295,
      "एशिया": 6296,
      "ऑस्ट्रेल": 6297,
      "तृत": 6298,
      "धन": 6299,
      "फे": 6300,
      "बे": 6301,
      "यी": 6302,
      "रेंद्र": 6303,
      "हम": 6304,
      "ुष्": 6305,
      "ैव": 6306,
      "ैंड": 6307,
      "▁ऋ": 6308,
      "▁७": 6309,
      "\")\"": 6310,
      "infob": 6311,
      "ars": 6312,
      "▁कु": 6313,
      "▁(2014": 6314,
      "](https://hi.wikipedia.org/wiki/प": 6315,
      "▁मह": 6316,
      "▁महाराष्ट्र": 6317,
      "\\_country": 6318,
      "\\_पृष्ठ": 6319,
      "unrecognized": 6320,
      "▁भारत\")": 6321,
      "▁ज्या": 6322,
      "▁top": 6323,
      "ांड": 6324,
      "▁2012.": 6325,
      "10)": 6326,
      "23.": 6327,
      "267": 6328,
      "▁गा": 6329,
      "ताब्दी": 6330,
      "_Act": 6331,
      "पुत्र": 6332,
      "▁1965": 6333,
      "▁[\"G": 6334,
      "15)": 6335,
      "▁विभाग": 6336,
      "कारी": 6337,
      "▁१५": 6338,
      "ियर": 6339,
      "वर्ष": 6340,
      "हीं": 6341,
      "489": 6342,
      "▁\"बंगाल": 6343,
      "▁\"बौद्ध": 6344,
      "धिकारिक": 6345,
      "िरपेक्ष": 6346,
      "▁नेहर": 6347,
      "▁unrecognized": 6348,
      "▁\"आसाम": 6349,
      "िंधु": 6350,
      "PPP": 6351,
      "एसिया": 6352,
      "▁\"साँ": 6353,
      "▁डॉल": 6354,
      "official": 6355,
      "पेक्षा": 6356,
      "वेबैक": 6357,
      "▁मार्च": 6358,
      "▁स्मार": 6359,
      "adhya": 6360,
      "etraglia": 6361,
      "▁द्वारा": 6362,
      "▁अथवा": 6363,
      "▁फ़रवरी": 6364,
      "ुष्क": 6365,
      "infobox": 6366,
      "\\_पृष्ठसभ": 6367,
      "-T": 6368,
      "-an": 6369,
      "-se": 6370,
      "/).": 6371,
      "219": 6372,
      "3,": 6373,
      "3.\n": 6374,
      "677": 6375,
      "7%": 6376,
      "74": 6377,
      "7C": 6378,
      "9]](https://en.wikipedia.org/wiki/India#cite_note-": 6379,
      "9]](https://en.wikipedia.org/wiki/India#cite_note-FOOTNOTE": 6380,
      "Ex": 6381,
      "Flag": 6382,
      "Forest": 6383,
      "Gua": 6384,
      "JIJ": 6385,
      "NA": 6386,
      "Paki": 6387,
      "Zva": 6388,
      "_&": 6389,
      "_2024": 6390,
      "ative": 6391,
      "baki": 6392,
      "jpe": 6393,
      "ka": 6394,
      "khand": 6395,
      "oes": 6396,
      "page": 6397,
      "rance": 6398,
      "subcontinent": 6399,
      "tou": 6400,
      "top": 6401,
      "vil": 6402,
      "wana": 6403,
      "▁4.": 6404,
      "▁5.": 6405,
      "▁eng": 6406,
      "▁8.": 6407,
      "▁[n": 6408,
      "ences": 6409,
      "▁\"World": 6410,
      "](https://en.wikipedia.org/wiki/World": 6411,
      "erved": 6412,
      "ern_": 6413,
      "erman": 6414,
      "artition": 6415,
      "2025": 6416,
      "alit": 6417,
      "ederal": 6418,
      "▁(ed.).": 6419,
      "ichell": 6420,
      "ately": 6421,
      "▁political": 6422,
      "-07": 6423,
      "▁coast": 6424,
      "▁As": 6425,
      "atna": 6426,
      "▁Comp": 6427,
      "▁Singh": 6428,
      "▁bu": 6429,
      "ango": 6430,
      "rowing": 6431,
      "iland": 6432,
      "stani": 6433,
      "▁direct": 6434,
      "▁work": 6435,
      "ourts": 6436,
      "ourbaki": 6437,
      "oln": 6438,
      "▁Man": 6439,
      "▁2014.": 6440,
      "▁By": 6441,
      "24.": 6442,
      "▁Europe": 6443,
      "ell": 6444,
      "▁gen": 6445,
      "▁From": 6446,
      "ghts": 6447,
      "oss": 6448,
      "2905": 6449,
      "▁International": 6450,
      "harkhand": 6451,
      "▁\"Cambridge": 6452,
      "16)": 6453,
      "eck": 6454,
      "_Comm": 6455,
      "▁[Cambridge": 6456,
      "_Pro": 6457,
      "▁[↑](https://en.wikipedia.org/wiki/India#cite_ref-FOOTNOTEStein2010": 6458,
      "orship": 6459,
      "▁before": 6460,
      "a_d": 6461,
      "▁original](http://www.": 6462,
      "-53": 6463,
      "arden": 6464,
      "▁range": 6465,
      "aking": 6466,
      "vention": 6467,
      "_November": 6468,
      "-107-1": 6469,
      "ender": 6470,
      "svg": 6471,
      "▁lite": 6472,
      "angetic": 6473,
      "onstitution_of_India": 6474,
      "class": 6475,
      "▁2007](https://en.wikipedia.org/wiki/India#CITEREF": 6476,
      "▁vill": 6477,
      "orthographic": 6478,
      "_des": 6479,
      "ambridge_University_Press": 6480,
      "erves": 6481,
      "▁leg": 6482,
      "aceu": 6483,
      "_Lank": 6484,
      "hola": 6485,
      "ollingham": 6486,
      "▁different": 6487,
      "cheduled": 6488,
      "d/d": 6489,
      "▁including": 6490,
      "▁[India](https://en.wikipedia.org/wiki/India": 6491,
      "vatsyayan-lord-4": 6492,
      "vatsyayan-lord_43": 6493,
      "olden_Temple": 6494,
      "nergy": 6495,
      "▁Conservation": 6496,
      "ield": 6497,
      "6]](https://en.wikipedia.org/wiki/India#cite_note-vatsyayan-lord-4": 6498,
      "▁mi)": 6499,
      "owever,": 6500,
      "ological": 6501,
      "harmaceu": 6502,
      "-882905": 6503,
      "olonial": 6504,
      "/index.php?": 6505,
      "hmedabad": 6506,
      "1162-2": 6507,
      "▁Press](https://en.wikipedia.org/wiki/Cambridge_University_Press": 6508,
      "_projection": 6509,
      "GuaJIJ": 6510,
      "Pakistani": 6511,
      "ZvaGuaJIJ": 6512,
      "-107-11162-2": 6513,
      "orthographic_projection": 6514,
      "-882905-8": 6515,
      "ZvaGuaJIJgo": 6516,
      "3-": 6517,
      ";[[": 6518,
      "_ज": 6519,
      "_त्र": 6520,
      "_36": 6521,
      "_जय": 6522,
      "bhasha": 6523,
      "ds": 6524,
      "eth": 6525,
      "kb": 6526,
      "p?": 6527,
      "इट": 6528,
      "इन": 6529,
      "खण्ड": 6530,
      "चर": 6531,
      "टे": 6532,
      "रान": 6533,
      "शक": 6534,
      "हात्मा": 6535,
      "िरा": 6536,
      "ी_भाषा": 6537,
      "ोड": 6538,
      "ौद्योगिकी": 6539,
      "▁[व": 6540,
      "▁[पश्चिम": 6541,
      "▁[राजस्थान": 6542,
      "▁\"पु": 6543,
      "▁\"चीन": 6544,
      "▁\"गण": 6545,
      "ared/": 6546,
      "2022": 6547,
      "ार्क": 6548,
      "▁सिनेमा": 6549,
      "▁(c": 6550,
      "](https://hi.wikipedia.org/wiki/आ": 6551,
      "र्द्र": 6552,
      "▁मन": 6553,
      "▁मि": 6554,
      "\\_स": 6555,
      "▁हिं": 6556,
      "▁Chand": 6557,
      "ets": 6558,
      "78.": 6559,
      "linkim": 6560,
      "ults": 6561,
      "▁दिन": 6562,
      "▁Muslim": 6563,
      "ांति": 6564,
      "▁Br": 6565,
      "aith": 6566,
      "▁Dictionary": 6567,
      "agen": 6568,
      "ages/": 6569,
      "content": 6570,
      "विजय": 6571,
      "shared/": 6572,
      "▁शा": 6573,
      "▁शहरी": 6574,
      "ablish": 6575,
      "aryana": 6576,
      "_के": 6577,
      "1857": 6578,
      "▁उद्य": 6579,
      "त्तरी": 6580,
      "29.": 6581,
      "ustrial": 6582,
      "▁रह": 6583,
      "▁रहा": 6584,
      "▁\"मुंबई": 6585,
      "द्दा": 6586,
      "ndhra": 6587,
      "o-d": 6588,
      "स्तान\")": 6589,
      "lative": 6590,
      "](https://hi.wikipedia.org/wiki/भारत#cite_ref-FOOTNOTE": 6591,
      "ोलन": 6592,
      "▁जाती": 6593,
      "%E0%A4%B8": 6594,
      "html)": 6595,
      "▁२६": 6596,
      "▁हैं,": 6597,
      "रबी": 6598,
      "▁संस्कृत": 6599,
      "न्नड": 6600,
      "रेल": 6601,
      "▁पूर्वी": 6602,
      "ureau": 6603,
      "▁शासित": 6604,
      "पालिका": 6605,
      "▁इसके": 6606,
      "िक्किम": 6607,
      "▁संविधान\")": 6608,
      "troduction": 6609,
      "टिबंध": 6610,
      "▁\"हिन्दी\")": 6611,
      "aranth": 6612,
      "bank.org/": 6613,
      "ouncil": 6614,
      "nclm.nic.in/shared/": 6615,
      "ublications/": 6616,
      "▁\"राजस्थान\")": 6617,
      "▁(2014).": 6618,
      "linkimages/": 6619,
      "nclm.nic.in/shared/linkimages/": 6620,
      ",9": 6621,
      "0/0": 6622,
      "1-0": 6623,
      "2%": 6624,
      "9/": 6625,
      "Alig": 6626,
      "ault": 6627,
      "hl": 6628,
      "hak": 6629,
      "lm": 6630,
      "lue": 6631,
      "round": 6632,
      "tary": 6633,
      "vent": 6634,
      "{{": 6635,
      "asht": 6636,
      "entury": 6637,
      "atab": 6638,
      "21.": 6639,
      "▁H.": 6640,
      "166": 6641,
      "archive.org/detail": 6642,
      "27)": 6643,
      "iance": 6644,
      "type": 6645,
      "on-Alig": 6646,
      "bi.n": 6647,
      "catal": 6648,
      ".nih": 6649,
      "existen": 6650,
      "ncbi.n": 6651,
      "lm.nih": 6652,
      "archive.org/details/": 6653,
      "on-Aligned": 6654,
      "ncbi.nlm.nih": 6655,
      "*](https://": 6656,
      "-R": 6657,
      "-no": 6658,
      "-27": 6659,
      "-वेरूळ": 6660,
      "/in": 6661,
      "1.\n": 6662,
      "1]](https://en.wikipedia.org/wiki/India#cite_note-": 6663,
      "2-4": 6664,
      "2)[[": 6665,
      "5]](https://en.wikipedia.org/wiki/India#cite_note-": 6666,
      "8+": 6667,
      "Biodiversity": 6668,
      "Chennai": 6669,
      "Collingham": 6670,
      "Front": 6671,
      "S$": 6672,
      "Template": 6673,
      "Tarlo": 6674,
      "Un": 6675,
      "Web": 6676,
      "_15": 6677,
      "_వి": 6678,
      "_industry": 6679,
      "_కాశ్మీ": 6680,
      "aos": 6681,
      "dis": 6682,
      "eat": 6683,
      "each": 6684,
      "ethnologue": 6685,
      "equality": 6686,
      "evanagari": 6687,
      "gu": 6688,
      "lar": 6689,
      "mill": 6690,
      "odia": 6691,
      "oti": 6692,
      "rh": 6693,
      "ren": 6694,
      "rune": 6695,
      "tandard": 6696,
      "yer": 6697,
      "zer": 6698,
      "ंपी": 6699,
      "आणि": 6700,
      "इप्र": 6701,
      "ओ.": 6702,
      "गध": 6703,
      "छि": 6704,
      "ण\")": 6705,
      "णात": 6706,
      "पाली": 6707,
      "बट": 6708,
      "भु": 6709,
      "मण": 6710,
      "मत": 6711,
      "षभ": 6712,
      "ुने": 6713,
      "ॉग": 6714,
      "्हा": 6715,
      "०]](https://mr.wikipedia.org/wiki/भारत#cite_note-": 6716,
      "४]](https://mr.wikipedia.org/wiki/भारत#cite_note-": 6717,
      "ంస్కృ": 6718,
      "ఉత్తరా": 6719,
      "ఖో": 6720,
      "ఘాలయ": 6721,
      "చ్": 6722,
      "టై": 6723,
      "టర్": 6724,
      "డమ్": 6725,
      "డఖ్": 6726,
      "ణే": 6727,
      "ణంగా": 6728,
      "తే": 6729,
      "తెల": 6730,
      "దరంగ": 6731,
      "నో": 6732,
      "నంద": 6733,
      "బర్": 6734,
      "బార్": 6735,
      "యె": 6736,
      "రె": 6737,
      "లడఖ్": 6738,
      "ళా": 6739,
      "ళి": 6740,
      "శు": 6741,
      "హించ": 6742,
      "ుకు": 6743,
      "ెన్న": 6744,
      "ెట్రో": 6745,
      "ేతి": 6746,
      "ేఘాలయ": 6747,
      "ైనిక": 6748,
      "ొగలు": 6749,
      "ోళ": 6750,
      "‌కా": 6751,
      "‌మహ": 6752,
      "▁६": 6753,
      "▁ఐ": 6754,
      "▁ఖ": 6755,
      "▁ki": 6756,
      "▁–సా.శ.": 6757,
      "▁భారతీయ": 6758,
      "▁3.": 6759,
      "▁kingdom": 6760,
      "iated": 6761,
      "orm": 6762,
      "ored": 6763,
      "tter": 6764,
      "▁[Y": 6765,
      "▁[In": 6766,
      "▁[రాష్ట్ర": 6767,
      "▁[జన": 6768,
      "▁[గో": 6769,
      "▁[तमिळनाडू": 6770,
      "▁[पुरा": 6771,
      "▁[गुजरात": 6772,
      "tex": 6773,
      "en:": 6774,
      "ene": 6775,
      "▁\"పా": 6776,
      "▁\"జన": 6777,
      "▁\"గో": 6778,
      "▁\"మూస:": 6779,
      "▁\"गुजरात": 6780,
      "ino-": 6781,
      "inema": 6782,
      "tile": 6783,
      "ers,": 6784,
      "ारचे": 6785,
      "ार्मिक": 6786,
      "reater": 6787,
      "्रुने": 6788,
      "ofker": 6789,
      "्ये": 6790,
      "him": 6791,
      "thehindu": 6792,
      "भारत\n": 6793,
      "▁कॉ": 6794,
      "▁कमी": 6795,
      "omo": 6796,
      "itation": 6797,
      "▁सह": 6798,
      "▁सुरू": 6799,
      "▁सध्या": 6800,
      "▁(पूर्वी": 6801,
      "](https://te.wikipedia.org/wiki/B": 6802,
      "](https://te.wikipedia.org/wiki/G": 6803,
      "](https://te.wikipedia.org/wiki/భారతదేశ": 6804,
      "](https://te.wikipedia.org/wiki/గో": 6805,
      "](https://te.wikipedia.org/wiki/మూస:": 6806,
      "asu": 6807,
      "](https://mr.wikipedia.org/wiki/च": 6808,
      "](https://mr.wikipedia.org/wiki/पाकिस्तान": 6809,
      "](https://mr.wikipedia.org/wiki/पंजाब": 6810,
      "▁पहि": 6811,
      "▁पंतप्रधान": 6812,
      "ారస్వ": 6813,
      "▁India\n": 6814,
      "▁India*.": 6815,
      "ानंतर": 6816,
      "▁महार": 6817,
      "▁मैदान": 6818,
      "▁inte": 6819,
      "ratic": 6820,
      "्याच्या": 6821,
      "▁sty": 6822,
      "ాలె": 6823,
      "यास": 6824,
      "-0-3": 6825,
      "acmill": 6826,
      "▁can": 6827,
      "▁capita": 6828,
      "ingap": 6829,
      "▁आण": 6830,
      "ating": 6831,
      "▁हवेली": 6832,
      "స్ట": 6833,
      "స్వాతంత్ర్య": 6834,
      "▁Sabha": 6835,
      "etry": 6836,
      "▁four": 6837,
      "▁fol": 6838,
      "▁fig": 6839,
      "▁పర": 6840,
      "▁పండు": 6841,
      "िकिस्तान": 6842,
      "▁अशी": 6843,
      "▁अछि": 6844,
      "▁main": 6845,
      "angam": 6846,
      "angered": 6847,
      "chang": 6848,
      "urk": 6849,
      "▁प्रस": 6850,
      "▁प्रां": 6851,
      "well": 6852,
      "ily": 6853,
      "లు](https://te.wikipedia.org/wiki/": 6854,
      "▁would": 6855,
      "िती": 6856,
      "రాన్": 6857,
      "రాస్య": 6858,
      "▁भारताने": 6859,
      "▁भारताचे": 6860,
      "▁जास्त": 6861,
      "▁Temple": 6862,
      "▁Routledge": 6863,
      "लां": 6864,
      "स्कार": 6865,
      "▁Machine": 6866,
      "▁కే": 6867,
      "▁కోర్": 6868,
      "▁तिस": 6869,
      "ांनी": 6870,
      "ांवर": 6871,
      "త్రిక": 6872,
      "igration": 6873,
      "క్స్": 6874,
      "క్కి": 6875,
      "लेब": 6876,
      "1016": 6877,
      "▁వె": 6878,
      "▁వంట": 6879,
      "▁led": 6880,
      "▁\"Sanskrit": 6881,
      "indhi": 6882,
      "्वाल": 6883,
      "▁[↑](https://en.wikipedia.org/wiki/India#cite_ref-4": 6884,
      "agore": 6885,
      "▁*India": 6886,
      "ంగో": 6887,
      "▁సముద్ర": 6888,
      "▁సూచ": 6889,
      "▁సౌక": 6890,
      "tudi": 6891,
      "1991": 6892,
      "▁आहे,": 6893,
      "upt": 6894,
      "్రామ": 6895,
      "▁Greek": 6896,
      "ండా": 6897,
      "ండీ": 6898,
      "ండ్య": 6899,
      "▁N.": 6900,
      "▁Nicobar": 6901,
      "▁काश्मीर": 6902,
      "▁शे": 6903,
      "తాజ్": 6904,
      "प्रजासत्ताक": 6905,
      "నాథ": 6906,
      "▁third": 6907,
      "త్వా": 6908,
      "aph": 6909,
      "नेपाली": 6910,
      "_A7C": 6911,
      "▁(సా.శ.16": 6912,
      "हिंदू": 6913,
      "▁[SAARC": 6914,
      "ులు?action=edit&redlink=1": 6915,
      "▁అభి": 6916,
      "▁[मूळ": 6917,
      "माय": 6918,
      "▁[\"P": 6919,
      "▁ప్రజా": 6920,
      "తం?action=edit&redlink=1": 6921,
      "▁\"Chin": 6922,
      "ूनि": 6923,
      "](https://mai.wikipedia.org/wiki/क": 6924,
      "](https://mai.wikipedia.org/wiki/भारत": 6925,
      "▁रंग": 6926,
      "द्दु": 6927,
      "▁Organization": 6928,
      "పూర్": 6929,
      "▁[Central": 6930,
      "ngineering": 6931,
      "▁Languages": 6932,
      "ప్రిల్": 6933,
      "_Pradesh": 6934,
      "ogri": 6935,
      "ogam": 6936,
      "▁ఉంట": 6937,
      "▁ఉత్తర": 6938,
      "▁[978-81": 6939,
      "▁సామా": 6940,
      "వాద": 6941,
      "విధ": 6942,
      "ార్ఖండ్": 6943,
      "క్షరాస్య": 6944,
      "](Special:BookSources/978-0-521": 6945,
      "](Special:BookSources/978-81": 6946,
      "▁\"Special:BookSources/978-0-521": 6947,
      "▁\"Special:BookSources/978-81": 6948,
      "](https://books.google.com/books?id=3TRtDwAAQBAJ&pg=PA": 6949,
      "hailand": 6950,
      "otal": 6951,
      "ंदर": 6952,
      "िये": 6953,
      "▁धार्मिक": 6954,
      "_मंदिर": 6955,
      "_Map": 6956,
      "పుర": 6957,
      "orden": 6958,
      "▁నడి": 6959,
      "ुरोप": 6960,
      "law": 6961,
      "▁ఇండియా": 6962,
      "▁[बंगाल": 6963,
      "्यांना": 6964,
      "्यांचा": 6965,
      "▁करण्यात": 6966,
      "_and_union_territ": 6967,
      "▁areas": 6968,
      "▁now": 6969,
      "े_आणि": 6970,
      "▁नाटक": 6971,
      "▁एकूण": 6972,
      "वीं": 6973,
      "▁Ved": 6974,
      "ameez": 6975,
      "గుప్": 6976,
      "డుకు": 6977,
      "నేషియా": 6978,
      "▁मुघल": 6979,
      "ంగాణ": 6980,
      "_River": 6981,
      "▁घड": 6982,
      "▁झाल": 6983,
      "▁జన": 6984,
      "](https://mr.wikipedia.org/wiki/मध्य": 6985,
      "िळक": 6986,
      "లియా": 6987,
      "▁चळ": 6988,
      "▁ప్రాచ": 6989,
      "▁విభ": 6990,
      "▁వివిధ": 6991,
      "▁1997": 6992,
      "▁प्राण": 6993,
      "▁సంఘ": 6994,
      "िवूड": 6995,
      "ండిచ్చేరి": 6996,
      "▁like": 6997,
      "▁वापर": 6998,
      "▁वाळवंट": 6999,
      "uggle": 7000,
      "33-7": 7001,
      "हिन्द": 7002,
      "674": 7003,
      "▁२००": 7004,
      "ignored": 7005,
      "हित.": 7006,
      "▁\"जम्मू": 7007,
      "జీరియా": 7008,
      "▁१९५०": 7009,
      "ported": 7010,
      "▁मानवी": 7011,
      "ంకేతి": 7012,
      "\")*,": 7013,
      "▁स्वातंत्र्य": 7014,
      "వేలీ": 7015,
      "[![](https://upload.wikimedia.org/wikipedia/commons/thumb/7/": 7016,
      "▁[![The": 7017,
      "_Fund": 7018,
      "alayal": 7019,
      "alaysia": 7020,
      "DwAAQBAJ": 7021,
      "िर्ग": 7022,
      "▁change": 7023,
      "▁ప్రాంతాలు\")": 7024,
      "rates": 7025,
      "బియా": 7026,
      "भूतान": 7027,
      "ोबत": 7028,
      "ukesh": 7029,
      "तुर्क": 7030,
      "డామన్": 7031,
      "▁river": 7032,
      "](https://mr.wikipedia.org/wiki/आसाम": 7033,
      "▁రాష్ట్రపతి": 7034,
      "ographical": 7035,
      "national-language": 7036,
      "▁सर्वोच्च": 7037,
      "త్రిపుర": 7038,
      "_కాల": 7039,
      "डाख": 7040,
      "▁भूगोल": 7041,
      "egistrar": 7042,
      "▁News": 7043,
      "athematics": 7044,
      "▁రైల్వే": 7045,
      "attle": 7046,
      "▁agriculture": 7047,
      "हायता": 7048,
      "య్యూ": 7049,
      "త్తీస్": 7050,
      "▁ప్రదేశ్](https://te.wikipedia.org/wiki/": 7051,
      "▁Pradesh\")": 7052,
      "▁These": 7053,
      "నాగాలా": 7054,
      "▁\"జమ్మూ": 7055,
      "osey": 7056,
      "लेखित](https://web.archive.org/web/": 7057,
      "ambodia": 7058,
      "▁పాకిస్తాన్": 7059,
      "ually": 7060,
      "tected": 7061,
      "▁subcontinent\")": 7062,
      "ंदीगढ": 7063,
      "కోవ": 7064,
      "కోబార్": 7065,
      "](https://te.wikipedia.org/wiki/జమ్మూ": 7066,
      "ల్లవ": 7067,
      "▁Force": 7068,
      "–123": 7069,
      "▁[Archived](https://web.archive.org/web/20210": 7070,
      "▁म्हणून": 7071,
      "chedule": 7072,
      "▁species": 7073,
      "▁निर्माण": 7074,
      "ॉलिवूड": 7075,
      "ताजिकिस्तान": 7076,
      "▁गणराज्यचे": 7077,
      "▁rock": 7078,
      "emocratic": 7079,
      "Wikipedia:": 7080,
      "రేబియా": 7081,
      "▁ईस्ट": 7082,
      "Insur": 7083,
      "ominion": 7084,
      "▁2025.": 7085,
      "▁द्वीपसमूह": 7086,
      "▁जयते": 7087,
      "▁होती.": 7088,
      "టాక్": 7089,
      "](https://mr.wikipedia.org/wiki/उत्तर": 7090,
      "ataraj": 7091,
      "▁మాత్ర": 7092,
      "్రిటిష్": 7093,
      "-lead": 7094,
      "ण्यास": 7095,
      "िझोरम": 7096,
      "వెను": 7097,
      "ూచి": 7098,
      "భారతదేశ_రాష్ట్రాలు,_కేంద్రపాలిత_ప్రాంత": 7099,
      "विषुव": 7100,
      "▁न्यायालय": 7101,
      "नेपाळ": 7102,
      "%E0%A5%8": 7103,
      "%E0%A5%87": 7104,
      "ప్పటిక": 7105,
      "sites/": 7106,
      "▁emerg": 7107,
      "urchasing": 7108,
      "లేషియా": 7109,
      "▁क्रमांक": 7110,
      "▁majority": 7111,
      "▁पाहिले.\n": 7112,
      "▁మొదల": 7113,
      "▁जाते.": 7114,
      "janta": 7115,
      "▁occup": 7116,
      "Sharma2007": 7117,
      "ద్యు": 7118,
      "▁ठिका": 7119,
      "▁చిత్ర": 7120,
      "ద్వీప్": 7121,
      "▁ఉపఖండ": 7122,
      "▁దేశంలోని": 7123,
      "▁కాంగ్రెసు": 7124,
      "ताजमहाल": 7125,
      "▁वैशि": 7126,
      "ेंजो": 7127,
      "य.एस.": 7128,
      "ोजपुरी": 7129,
      "ఆగష్టు": 7130,
      "లక్షద్వీప్": 7131,
      "హాయం:": 7132,
      "ీకరణ": 7133,
      "ోల్‌కా": 7134,
      "India_Goa": 7135,
      "-0-415": 7136,
      "మిజోరా": 7137,
      "मेनिस्तान": 7138,
      "तेलुगू": 7139,
      "जिंठा-वेरूळ": 7140,
      "ravidian": 7141,
      "▁employed": 7142,
      "▁संग्रहित.": 7143,
      "ర్యానా": 7144,
      "▁[ఢిల్లీ](https://te.wikipedia.org/wiki/ఢిల్లీ": 7145,
      "టిబెట్": 7146,
      "మెరికా": 7147,
      "ोंडवन": 7148,
      "elangana": 7149,
      "lothing": 7150,
      "▁widely": 7151,
      "Home_Affairs": 7152,
      "IFT": 7153,
      "फगाणि": 7154,
      "బడ్డీ": 7155,
      "ేరళ": 7156,
      "▁\"तमिळनाडू\")": 7157,
      "్రైస్త": 7158,
      "razil": 7159,
      "▁आढळ": 7160,
      "ండమాన్": 7161,
      "ेकडील": 7162,
      "ెలవుదిన": 7163,
      "क्षेत्रफळानुसार": 7164,
      "बेकिस्तान": 7165,
      "olnar": 7166,
      "_Commission": 7167,
      "ZvaGuaJIJgoC&pg=PA": 7168,
      "विजयनगर": 7169,
      "Tarlo1996": 7170,
      "ethnologue.com/": 7171,
      "runei": 7172,
      "తెలంగాణ": 7173,
      "ెన్నై": 7174,
      "‌మహల్": 7175,
      "▁[पुरालेखित](https://web.archive.org/web/": 7176,
      "▁\"गुजरात\")": 7177,
      "्रुनेई": 7178,
      "acmillan": 7179,
      "ingapore": 7180,
      "tudies": 7181,
      "తాజ్‌మహల్": 7182,
      "द्दुचेरी": 7183,
      "క్షరాస్యత": 7184,
      "_and_union_territories": 7185,
      "तुर्कमेनिस्तान": 7186,
      "నాగాలాండ్": 7187,
      "](https://te.wikipedia.org/wiki/జమ్మూ_కాశ్మీ": 7188,
      "▁वैशिष्ट": 7189,
      "य.एस.ओ.": 7190,
      "ోల్‌కాతా": 7191,
      "जिंठा-वेरूळची": 7192,
      "-ex": 7193,
      "/s": 7194,
      "6)\n": 7195,
      "OV": 7196,
      "TO": 7197,
      "day": 7198,
      "hindi": 7199,
      "tation": 7200,
      "▁36": 7201,
      "orial": 7202,
      "ica": 7203,
      "aten": 7204,
      "-05": 7205,
      "▁Ad": 7206,
      "ator": 7207,
      "▁Society": 7208,
      "library": 7209,
      "-1\").\n": 7210,
      "loped": 7211,
      "▁Public": 7212,
      "▁Minister": 7213,
      "260": 7214,
      "bert": 7215,
      "▁report": 7216,
      "ody": 7217,
      "establish": 7218,
      "▁[Ar": 7219,
      "▁On": 7220,
      "▁Linguistic": 7221,
      "article": 7222,
      "▁contin": 7223,
      "▁commun": 7224,
      "▁2020.": 7225,
      "...]": 7226,
      "▁(2006).": 7227,
      "arliest": 7228,
      "\"](http://": 7229,
      "%3": 7230,
      ".P": 7231,
      "64": 7232,
      "_ऑ": 7233,
      "hdr": 7234,
      "ject": 7235,
      "ट्ट": 7236,
      "तर": 7237,
      "फा": 7238,
      "फ्रीका": 7239,
      "मरी": 7240,
      "ये": 7241,
      "ल](https://hi.wikipedia.org/wiki/": 7242,
      "ल्त": 7243,
      "लिक": 7244,
      "स्य": 7245,
      "ह्य": 7246,
      "्न": 7247,
      "५७": 7248,
      "▁:": 7249,
      "▁औ": 7250,
      "▁[राज्य": 7251,
      "203": 7252,
      "▁पार्टी": 7253,
      "र्त": 7254,
      "▁मिल": 7255,
      "▁मशीन": 7256,
      "ripura": 7257,
      "▁वर": 7258,
      "▁आम": 7259,
      "▁आधिकारिक": 7260,
      "\\_(": 7261,
      "\\_link": 7262,
      "▁अस्त": 7263,
      "▁अप्र": 7264,
      "ेशन": 7265,
      "▁प्रति": 7266,
      "▁प्रधान": 7267,
      "▁प्रांत": 7268,
      "▁तो": 7269,
      "jpg": 7270,
      "▁नी": 7271,
      "▁बना": 7272,
      "238": 7273,
      "न्दा": 7274,
      "▁ele": 7275,
      "क्षर": 7276,
      "▁Health": 7277,
      "▁शताब्दी": 7278,
      "22.": 7279,
      "ंडी": 7280,
      "▁रुप": 7281,
      "14.": 7282,
      "ध्यम": 7283,
      "▁१०": 7284,
      "▁भाषाओं": 7285,
      "▁\"केर": 7286,
      "▁\"कर्नाटक": 7287,
      "वर्ण": 7288,
      "▁[कर्नाटक": 7289,
      "▁करने": 7290,
      "2011religion": 7291,
      "▁\"ब्रिटिश": 7292,
      "▁नेतृत": 7293,
      "%E0%A4%B0%E0%A4%": 7294,
      "▁१९९": 7295,
      "ैदरा": 7296,
      "▁जनगणना": 7297,
      "नाडु": 7298,
      "▁संस्कृति": 7299,
      "▁स्थापत्य": 7300,
      "▁मेला\")": 7301,
      "▁हुए": 7302,
      "▁इत्या": 7303,
      "local_": 7304,
      "▁व्याप": 7305,
      "▁Chinese": 7306,
      "पर्यटन": 7307,
      "▁शैली": 7308,
      "धिराज्य": 7309,
      "▁[हिन्दी](https://hi.wikipedia.org/wiki/": 7310,
      "rajbhasha": 7311,
      "Census2011religion": 7312,
      "kZVuDwAAQBAJ&pg=PA": 7313,
      "▁\"चीन\")": 7314,
      "मायण": 7315,
      "ल्तनत": 7316,
      "&action=edit": 7317,
      "-H": 7318,
      "-k": 7319,
      "-II": 7320,
      ".ern": 7321,
      "223": 7322,
      "3).": 7323,
      "313": 7324,
      "5-3": 7325,
      "6.\n": 7326,
      "7]](https://en.wikipedia.org/wiki/India#cite_note-": 7327,
      "8]](https://en.wikipedia.org/wiki/India#cite_note-FOOTNOTE": 7328,
      "Ali": 7329,
      "Countries": 7330,
      "Constituent": 7331,
      "Economic": 7332,
      "Map": 7333,
      "SE": 7334,
      "San": 7335,
      "States": 7336,
      "Sikh": 7337,
      "Wright": 7338,
      "_per": 7339,
      "_Union": 7340,
      "a)": 7341,
      "aci": 7342,
      "ather": 7343,
      "ahib": 7344,
      "cu": 7345,
      "cod": 7346,
      "ctive": 7347,
      "eitz": 7348,
      "f/f": 7349,
      "hā": 7350,
      "iisc": 7351,
      "mation": 7352,
      "mall": 7353,
      "po": 7354,
      "rban": 7355,
      "ui": 7356,
      "uries": 7357,
      "upee": 7358,
      "vin": 7359,
      "yth": 7360,
      "–10": 7361,
      "▁ob": 7362,
      "▁known": 7363,
      "org": 7364,
      "orpor": 7365,
      "pen": 7366,
      ".wikipedia.org/w": 7367,
      "enj": 7368,
      "enous": 7369,
      "▁\"International": 7370,
      "inated": 7371,
      "ties/": 7372,
      "title": 7373,
      "](https://en.wikipedia.org/wiki/List": 7374,
      "er-": 7375,
      "aria": 7376,
      "alace": 7377,
      "alk:": 7378,
      "reen": 7379,
      "rest": 7380,
      "andoor": 7381,
      "itar": 7382,
      "▁(in": 7383,
      "▁(2007": 7384,
      "▁(India)": 7385,
      "aste-": 7386,
      "▁independence": 7387,
      "raman": 7388,
      "▁prac": 7389,
      "-08": 7390,
      "-0\").\n": 7391,
      "acred": 7392,
      "ation,": 7393,
      "▁cre": 7394,
      "▁census": 7395,
      "▁Agency": 7396,
      "atyam": 7397,
      "[[14": 7398,
      "▁Sub": 7399,
      "etwork": 7400,
      "lite": 7401,
      "lima": 7402,
      "▁based": 7403,
      "lose": 7404,
      "▁talk:": 7405,
      "umeration": 7406,
      "chay": 7407,
      "urry": 7408,
      "very": 7409,
      "▁Prin": 7410,
      "_of_South_Asia": 7411,
      "_of_Congress": 7412,
      "rove": 7413,
      "rocod": 7414,
      "unc": 7415,
      "▁domestic": 7416,
      "▁divis": 7417,
      "ourism": 7418,
      "](https://en.wikipedia.org/wiki/India#cite_ref-vatsyayan-lord_43": 7419,
      "ola": 7420,
      "▁Trade": 7421,
      "ficient": 7422,
      "igenous": 7423,
      "▁last": 7424,
      "▁Dance": 7425,
      "▁\"Special:EditPage/Template:": 7426,
      "269,": 7427,
      "▁east": 7428,
      "ager": 7429,
      "lymp": 7430,
      "▁Emer": 7431,
      "ional": 7432,
      "upreme": 7433,
      "beral": 7434,
      "ir_S": 7435,
      "Univers": 7436,
      "▁Ganges": 7437,
      "▁Gujarat": 7438,
      "287,": 7439,
      "forest": 7440,
      "-4\").\n": 7441,
      "-459": 7442,
      "_in_A": 7443,
      "akers": 7444,
      "](https://en.wikipedia.org/wiki/India#CITEREFM": 7445,
      "50th": 7446,
      "▁though": 7447,
      "▁Francis": 7448,
      "_Ass": 7449,
      "▁1962": 7450,
      "ountain": 7451,
      "osa": 7452,
      "-85": 7453,
      "40px-": 7454,
      "▁\"Central": 7455,
      "▁\"Climate": 7456,
      "_and_Development": 7457,
      "▁[China": 7458,
      "▁London": 7459,
      "](https://en.wikipedia.org/wiki/China": 7460,
      "](https://en.wikipedia.org/wiki/Central_": 7461,
      "▁\"Ministry": 7462,
      "](Special:EditPage/Template:": 7463,
      "Harmand": 7464,
      "▁become": 7465,
      "a_M": 7466,
      "](https://en.wikipedia.org/wiki/Ministry_of_": 7467,
      "-2\").\n": 7468,
      "hatt": 7469,
      "undarb": 7470,
      "orea": 7471,
      "rchitecture": 7472,
      "lled": 7473,
      "_Times": 7474,
      "▁\"Template": 7475,
      "398": 7476,
      "▁tea": 7477,
      "▁ancient": 7478,
      "_Golden_Temple": 7479,
      "▁\"Delhi": 7480,
      "Harv\\_and\\_Sfn\\_no-target\\_errors\n": 7481,
      "](https://en.wikipedia.org/wiki/Template_": 7482,
      "▁Vedic": 7483,
      "](https://en.wikipedia.org/wiki/Delhi": 7484,
      "_pilgrim": 7485,
      "_Nations": 7486,
      "▁\"Routledge": 7487,
      "](https://en.wikipedia.org/wiki/Routledge": 7488,
      "▁2011](https://en.wikipedia.org/wiki/India#CITEREF": 7489,
      "▁[Routledge": 7490,
      "▁[Tamil": 7491,
      "_Economic": 7492,
      "▁centuries": 7493,
      "▁US$": 7494,
      "▁sever": 7495,
      "▁[History": 7496,
      "▁str": 7497,
      "ervice": 7498,
      "▁milk": 7499,
      "▁military": 7500,
      "▁millen": 7501,
      "▁adop": 7502,
      "▁2014](https://en.wikipedia.org/wiki/India#CITEREF": 7503,
      "▁[Fisher": 7504,
      "▁parliament": 7505,
      "▁plain": 7506,
      "talk:": 7507,
      "▁(2017).": 7508,
      "▁[t](https://en.wikipedia.org/wiki/Template_": 7509,
      "Information": 7510,
      "▁Indo-": 7511,
      "lock": 7512,
      "▁numbers": 7513,
      "▁upper": 7514,
      "▁[e](Special:EditPage/Template:": 7515,
      "▁[v](Template:": 7516,
      "▁Buddha": 7517,
      "Fisher2018),": 7518,
      "▁2025.\n": 7519,
      "Environment": 7520,
      "-level": 7521,
      "hanghai": 7522,
      "▁mathematics": 7523,
      "▁2018](https://en.wikipedia.org/wiki/India#CITEREFFisher2018),": 7524,
      "_at_the_Golden_Temple": 7525,
      "arliamentary": 7526,
      "merican": 7527,
      "▁(1,269,": 7528,
      "▁1994](https://en.wikipedia.org/wiki/India#CITEREF": 7529,
      "-language\\_text": 7530,
      "▁Monetary": 7531,
      "ibetan": 7532,
      "b/b": 7533,
      "▁3,287,": 7534,
      "▁republic": 7535,
      "default": 7536,
      "forcement": 7537,
      "▁India](https://en.wikipedia.org/wiki/Government_of_India": 7538,
      "▁appro": 7539,
      "struction": 7540,
      "first": 7541,
      "disha": 7542,
      "▁zone": 7543,
      "rakash": 7544,
      "▁Games\")": 7545,
      "touch": 7546,
      "▁engineering": 7547,
      "▁village": 7548,
      "/index.php?title": 7549,
      "8+5": 7550,
      ".ernet": 7551,
      "Sikh_pilgrim": 7552,
      "Wright2010": 7553,
      "eitzman": 7554,
      "iisc.ernet": 7555,
      ".wikipedia.org/w/index.php?title": 7556,
      "▁(2007).": 7557,
      "limate_": 7558,
      "ir_Sahib": 7559,
      "▁[China](https://en.wikipedia.org/wiki/China": 7560,
      "Harmandir_Sahib": 7561,
      "undarbans": 7562,
      "▁\"Routledge\").": 7563,
      "▁[Routledge](https://en.wikipedia.org/wiki/Routledge": 7564,
      "▁millennium": 7565,
      "▁[t](https://en.wikipedia.org/wiki/Template_talk:": 7566,
      "Sikh_pilgrim_at_the_Golden_Temple": 7567,
      ".wikipedia.org/w/index.php?title=": 7568,
      "-F": 7569,
      "-the": 7570,
      "1)\n": 7571,
      "226": 7572,
      "2nd": 7573,
      "Atlas": 7574,
      "_त": 7575,
      "_28": 7576,
      "_युद्ध": 7577,
      "dy": 7578,
      "ँच": 7579,
      "ंभ": 7580,
      "को": 7581,
      "कीय": 7582,
      "क\\_पृष्ठसभ": 7583,
      "न्या": 7584,
      "फल": 7585,
      "बौ": 7586,
      "भरत": 7587,
      "म्राट": 7588,
      "रूप": 7589,
      "िज": 7590,
      "ी\")": 7591,
      "ृती": 7592,
      "ोडो": 7593,
      "ौर": 7594,
      "्ले": 7595,
      "▁46": 7596,
      "▁establish": 7597,
      "▁[घ": 7598,
      "▁[सा": 7599,
      "▁[दिल्ली": 7600,
      "ार्व": 7601,
      "▁कुल": 7602,
      "▁(अ": 7603,
      "र्मा": 7604,
      "id-": 7605,
      "▁pri": 7606,
      "\\_मा": 7607,
      "-138": 7608,
      "▁men": 7609,
      "▁12.": 7610,
      "illi": 7611,
      "ilbert": 7612,
      "ंगाली": 7613,
      "▁केन्द्र": 7614,
      "▁Rothermund": 7615,
      "ांचे": 7616,
      "▁नहीं": 7617,
      "न्ह": 7618,
      "▁Economy": 7619,
      "षाण": 7620,
      "▁Hindus": 7621,
      "वायु": 7622,
      "18.": 7623,
      "▁उद्योग": 7624,
      "▁संख्या": 7625,
      "▁[म्यानमार": 7626,
      "▁[मुंबई": 7627,
      "](https://mai.wikipedia.org/wiki/म": 7628,
      "](https://mai.wikipedia.org/wiki/स": 7629,
      "▁\"म्यानमार": 7630,
      "▁से](http://": 7631,
      "aving": 7632,
      "ocs/": 7633,
      "▁\"भारतक": 7634,
      "▁लाल": 7635,
      "_मो": 7636,
      "वर्तन": 7637,
      "_Gandhi": 7638,
      "45)": 7639,
      "▁है।[[": 7640,
      "issile": 7641,
      "िसी": 7642,
      "सेना": 7643,
      "मान्य": 7644,
      "tatis": 7645,
      "नुसार_देश": 7646,
      "ज्ज": 7647,
      "धारण": 7648,
      "Asher2006": 7649,
      "AsherAsher2006": 7650,
      "हितक\\_पृष्ठसभ": 7651,
      "▁\"जन": 7652,
      "iteracy": 7653,
      "शासित_प्रदेश": 7654,
      "\"](https://web.archive.org/web/20140": 7655,
      "सभक": 7656,
      "mblem": 7657,
      "विशेष:EditPage/": 7658,
      "▁[जम्मू": 7659,
      "ctorate": 7660,
      "ights": 7661,
      "पश्चिम_ब": 7662,
      "flict": 7663,
      "_संघ": 7664,
      "_from": 7665,
      "▁./श्रेणी:जान": 7666,
      "▁See": 7667,
      "▁उत्पन्न": 7668,
      "New_Delhi": 7669,
      "\\_देशमे": 7670,
      "▁स्रोत/978-1": 7671,
      "](https://hi.wikipedia.org/wiki/विशेष:पुस्तक_स्रोत/978-1": 7672,
      "तन्त्रता": 7673,
      "लयालम": 7674,
      "▁Minorities": 7675,
      "▁सैन्य": 7676,
      "▁घाट": 7677,
      "imachal": 7678,
      ".worldbank.org/": 7679,
      "वसायिक": 7680,
      "▁दीव": 7681,
      "जाति": 7682,
      ".uk/": 7683,
      "▁चुनाव": 7684,
      "_खाना": 7685,
      "पदण्ड": 7686,
      "कारीबौ": 7687,
      "एसियाक": 7688,
      "\\_सहितक\\_पृष्ठसभ": 7689,
      "▁\"मुंबई\")": 7690,
      "रेलू": 7691,
      "%E0%A5%8D": 7692,
      "▁रुपया": 7693,
      "▁\"कर्नाटक\")": 7694,
      "\\_मापदण्ड": 7695,
      "▁\"म्यानमार\")": 7696,
      "विशेष:EditPage/साँचा:": 7697,
      "पश्चिम_बंगाल": 7698,
      "▁./श्रेणी:जानकारीबौ": 7699,
      "\\_सहितक\\_पृष्ठसभ#": 7700,
      "▁./श्रेणी:जानकारीबौक्स": 7701,
      "%)": 7702,
      ".ed": 7703,
      "/e": 7704,
      "5_": 7705,
      "Jha": 7706,
      "_30": 7707,
      "document": 7708,
      "onk": 7709,
      "-03": 7710,
      "ustice": 7711,
      "▁Policy": 7712,
      "formatics": 7713,
      "▁1980": 7714,
      "▁Informatics": 7715,
      "709": 7716,
      "▁1998": 7717,
      "1):": 7718,
      "▁centre": 7719,
      "isease": 7720,
      "58)": 7721,
      "a/a": 7722,
      "▁2024.": 7723,
      "▁People": 7724,
      "cms).": 7725,
      ".edu": 7726,
      "%;\n": 7727,
      "%E0%B0%": 7728,
      "&ss": 7729,
      "-L": 7730,
      "-O": 7731,
      "-w": 7732,
      "-th": 7733,
      "-st": 7734,
      "-Asia": 7735,
      "-विज्ञान": 7736,
      ".५": 7737,
      ".200": 7738,
      "/national": 7739,
      "0-0)": 7740,
      "2-10": 7741,
      "4-108": 7742,
      "CCN": 7743,
      "David": 7744,
      "F)": 7745,
      "LM": 7746,
      "Mah": 7747,
      "MAAJ": 7748,
      "SN": 7749,
      "Ze": 7750,
      "_అ": 7751,
      "_ఎ": 7752,
      "_ర": 7753,
      "_18": 7754,
      "_యు": 7755,
      "_जन": 7756,
      "_రాజ": 7757,
      "_శాస్త్ర": 7758,
      "ajp": 7759,
      "cted": 7760,
      "curr": 7761,
      "dic": 7762,
      "government": 7763,
      "iosphere": 7764,
      "ji": 7765,
      "mas": 7766,
      "more": 7767,
      "oz": 7768,
      "rian": 7769,
      "san": 7770,
      "s_in_India": 7771,
      "tain": 7772,
      "xim": 7773,
      "y=": 7774,
      "आशियातील": 7775,
      "कणी": 7776,
      "कूल": 7777,
      "जार": 7778,
      "ट्य": 7779,
      "डु": 7780,
      "डप्पा": 7781,
      "णु": 7782,
      "णाली": 7783,
      "तै": 7784,
      "तार": 7785,
      "तून": 7786,
      "थाली": 7787,
      "दडो": 7788,
      "दिवस": 7789,
      "न्तर": 7790,
      "पात": 7791,
      "पत्त": 7792,
      "भि": 7793,
      "भार": 7794,
      "लग": 7795,
      "ळा": 7796,
      "ळू": 7797,
      "वरा": 7798,
      "शत": 7799,
      "शा": 7800,
      "श्य": 7801,
      "सित": 7802,
      "सून": 7803,
      "हशत": 7804,
      "ीच": 7805,
      "ीरी": 7806,
      "ेल": 7807,
      "ोआ": 7808,
      "ोसी": 7809,
      "१७": 7810,
      "२]](https://mr.wikipedia.org/wiki/भारत#cite_note-": 7811,
      "८]](https://mr.wikipedia.org/wiki/भारत#cite_note-": 7812,
      "ఒలి": 7813,
      "కూ": 7814,
      "క్ర": 7815,
      "గే": 7816,
      "గ్ర": 7817,
      "గతి": 7818,
      "జు": 7819,
      "ఞాన": 7820,
      "టం": 7821,
      "టన్": 7822,
      "పం": 7823,
      "పో": 7824,
      "పచ్చ": 7825,
      "మ్య": 7826,
      "యాలో": 7827,
      "లె": 7828,
      "వై": 7829,
      "వ్": 7830,
      "వత్స": 7831,
      "వృద్ధి": 7832,
      "శ్రమ": 7833,
      "సీ": 7834,
      "స్రా": 7835,
      "హక": 7836,
      "హన": 7837,
      "ాంగ": 7838,
      "ీఠ": 7839,
      "ువు": 7840,
      "ూపా": 7841,
      "ృష్": 7842,
      "ెహ": 7843,
      "ెట్": 7844,
      "ేన": 7845,
      "ైద": 7846,
      "ైగా": 7847,
      "ొయ": 7848,
      "▁]": 7849,
      "▁ఘ": 7850,
      "▁ve": 7851,
      "▁జా": 7852,
      "▁education": 7853,
      "wildlife": 7854,
      "▁[గ": 7855,
      "▁[కు": 7856,
      "▁[పా": 7857,
      "▁[దక్షిణ": 7858,
      "▁[హిందూ": 7859,
      "▁[పాకిస్తాన్": 7860,
      "▁[ముంబై": 7861,
      "▁[International": 7862,
      "tek": 7863,
      "▁\"గ": 7864,
      "▁\"రాష్ట్ర": 7865,
      "▁\"దక్షిణ": 7866,
      "▁\"మూస": 7867,
      "▁\"హిందూ": 7868,
      "▁\"పాకిస్తాన్": 7869,
      "▁\"ప్రపంచ": 7870,
      "▁\"ముంబై": 7871,
      "▁\"Indus": 7872,
      "▁\"तमिल": 7873,
      "▁\"వర్గం:Harv": 7874,
      "▁\"ప్రత్యేక:EditPage/మూస:": 7875,
      "inan": 7876,
      "anada": 7877,
      "till": 7878,
      "](https://en.wikipedia.org/wiki/Indus": 7879,
      "eri": 7880,
      "ergy": 7881,
      "arv": 7882,
      "arrow": 7883,
      "ising": 7884,
      "isted": 7885,
      "the-world": 7886,
      "cid": 7887,
      "cir": 7888,
      "भारतात": 7889,
      "▁कई": 7890,
      "▁कश्मीर": 7891,
      "itage": 7892,
      "▁साल": 7893,
      "▁साली": 7894,
      "▁सकल": 7895,
      "▁सिंधू": 7896,
      "▁सस्तन": 7897,
      "▁often": 7898,
      "▁(19": 7899,
      "▁(nominal)": 7900,
      "](https://te.wikipedia.org/wiki/మూస": 7901,
      "](https://te.wikipedia.org/wiki/జన": 7902,
      "](https://te.wikipedia.org/wiki/వర్గం:Harv": 7903,
      "](https://te.wikipedia.org/wiki/ప్రత్యేక:EditPage/మూస:": 7904,
      "asthan": 7905,
      "](https://mr.wikipedia.org/wiki/व": 7906,
      "](https://mr.wikipedia.org/wiki/दक्षिण": 7907,
      "](https://mr.wikipedia.org/wiki/लोक": 7908,
      "](https://mr.wikipedia.org/wiki/राजस्थान": 7909,
      "](https://hi.wikipedia.org/wiki/ह": 7910,
      "](https://hi.wikipedia.org/wiki/पंजाब": 7911,
      "▁India.[[": 7912,
      "▁India\".": 7913,
      "ico": 7914,
      "lex": 7915,
      "र्ड": 7916,
      "▁inter": 7917,
      "rah": 7918,
      "्या\")": 7919,
      "्याचे": 7920,
      "▁su": 7921,
      "▁set": 7922,
      "▁served": 7923,
      "ries/": 7924,
      "▁cul": 7925,
      "్యాలె": 7926,
      "ing,": 7927,
      "▁आली": 7928,
      "▁आधुनिक": 7929,
      "▁After": 7930,
      "\\_n": 7931,
      "▁ह्या": 7932,
      "స్వా": 7933,
      "▁festi": 7934,
      "ad-": 7935,
      "adakh": 7936,
      "▁పొ": 7937,
      "▁పద్ధ": 7938,
      "▁పైగా": 7939,
      "▁birth": 7940,
      "ర్ద": 7941,
      "ర్ష": 7942,
      "▁middle": 7943,
      "▁market": 7944,
      "న్ను": 7945,
      "cha": 7946,
      "comp": 7947,
      "hek": 7948,
      "ंगोल": 7949,
      "onservation": 7950,
      "unle": 7951,
      "नाइट": 7952,
      "▁dist": 7953,
      "ित्र": 7954,
      "రాజ్యం": 7955,
      "▁केला": 7956,
      "▁भारताची": 7957,
      "fied": 7958,
      "स्पती": 7959,
      "లోయ": 7960,
      "▁Mana": 7961,
      "▁కేంద్ర": 7962,
      "▁కంపెనీ": 7963,
      "▁त्यात": 7964,
      "emen": 7965,
      "ांना": 7966,
      "▁नौ": 7967,
      "▁नकाश": 7968,
      "igved": 7969,
      "ాలు\")\n": 7970,
      "ాలుగా": 7971,
      "▁B.;": 7972,
      "క్తి": 7973,
      "▁बीच": 7974,
      "देशांक": 7975,
      ".[[10": 7976,
      "लेला": 7977,
      "107": 7978,
      "▁వై": 7979,
      "ayashi": 7980,
      "▁even": 7981,
      "▁early": 7982,
      "భారతదేశం\n": 7983,
      "▁సమా": 7984,
      "▁సర్వ": 7985,
      "▁సుల్తాన": 7986,
      "ामा": 7987,
      "ामध्ये": 7988,
      "bercu": 7989,
      "▁Gana": 7990,
      "286": 7991,
      "▁Nuclear": 7992,
      "स्त्र": 7993,
      "▁Home": 7994,
      "▁गंगा": 7995,
      "▁गांधी": 7996,
      "ोंकणी": 7997,
      "-405": 7998,
      "_in_the": 7999,
      "_in_New_Delhi": 8000,
      "▁చర్చ:": 8001,
      "वाळवंट": 8002,
      "▁शक": 8003,
      "elated": 8004,
      "తాక": 8005,
      "abel": 8006,
      "▁2008](https://en.wikipedia.org/wiki/India#CITEREF": 8007,
      "నాట": 8008,
      "▁growing": 8009,
      "తి](https://te.wikipedia.org/wiki/": 8010,
      "▁religions": 8011,
      "astron": 8012,
      "సింది.": 8013,
      "▁इ.": 8014,
      "▁इन": 8015,
      "▁ne": 8016,
      "ishers": 8017,
      "▁Food": 8018,
      "_Agency": 8019,
      "–సా.శ.14": 8020,
      "–సా.శ.1947)": 8021,
      "▁198": 8022,
      "▁అను": 8023,
      "ountries/": 8024,
      "-8\").\n": 8025,
      ".in)\n": 8026,
      "ిక,": 8027,
      "▁यात": 8028,
      "▁यादी\")": 8029,
      "▁Indians": 8030,
      "AAMAAJ": 8031,
      "కుపచ్చ": 8032,
      "▁से](http://www.": 8033,
      "द्दल": 8034,
      "](https://te.wikipedia.org/wiki/భారతదేశం#CITEREF": 8035,
      "▁[Craven": 8036,
      "▁Wiley": 8037,
      "▁Law": 8038,
      "lated": 8039,
      "▁ఆకుపచ్చ": 8040,
      "मुना": 8041,
      "▁రే": 8042,
      "▁being": 8043,
      "dira": 8044,
      "మాతర": 8045,
      "మాబాద్": 8046,
      "రుపు": 8047,
      "రుగు": 8048,
      "▁१६": 8049,
      "▁प्रदेशात": 8050,
      "%20A": 8051,
      "earning": 8052,
      "▁लग": 8053,
      "▁ass": 8054,
      ".in/curr": 8055,
      "िमी": 8056,
      "alls": 8057,
      "allav": 8058,
      "-2\").": 8059,
      "-2](Special:BookSources/978-1": 8060,
      "haw": 8061,
      "शियाई": 8062,
      "▁भरत": 8063,
      "▁\"सहाय्य:CS1": 8064,
      "▁राज्य\")": 8065,
      "_महासागर": 8066,
      "वर्सि": 8067,
      "ommaraj": 8068,
      "▁\"Tamil": 8069,
      "▁నది": 8070,
      "▁[Pakistan": 8071,
      "మించ": 8072,
      "▁తన": 8073,
      "▁[ब्रिटिश": 8074,
      "▁करोड़": 8075,
      "ublishers": 8076,
      "hinese": 8077,
      "▁deb": 8078,
      "▁deve": 8079,
      "▁any": 8080,
      "▁\"En": 8081,
      "▁राजनी": 8082,
      "▁[अंग्रेज़ी": 8083,
      "▁[Delhi": 8084,
      "▁\"अंग्रेज़ी": 8085,
      "म्ह": 8086,
      "](https://en.wikipedia.org/wiki/En": 8087,
      "▁\"Ge": 8088,
      "ం](https://te.wikipedia.org/wiki/అ": 8089,
      "ం](https://te.wikipedia.org/wiki/క": 8090,
      "▁rise": 8091,
      "▁rural": 8092,
      "▁rupee": 8093,
      "ంబంధ": 8094,
      "▁आहेत.\n": 8095,
      "दाबाद": 8096,
      "issions": 8097,
      "▁V.": 8098,
      "णाऱ्या": 8099,
      "గువ": 8100,
      "ians": 8101,
      "▁[New": 8102,
      "▁సంస్థ": 8103,
      "▁సంవత్స": 8104,
      "డియా": 8105,
      "ोर\")": 8106,
      "ట్లు": 8107,
      "▁वाघ": 8108,
      "िन्ह": 8109,
      "tate_": 8110,
      "_చర్చ:": 8111,
      "▁\"మధ్య": 8112,
      "ational_P": 8113,
      "▁ఎన్నిక": 8114,
      "▁ఎన్ను": 8115,
      "▁[మధ్య": 8116,
      "](https://mr.wikipedia.org/wiki/सहाय्य:CS1": 8117,
      "▁(సా.శ.పూ.1200": 8118,
      "हिन्दू": 8119,
      "▁గణ": 8120,
      "शीख": 8121,
      "▁uni": 8122,
      "](https://te.wikipedia.org/wiki/మధ్య": 8123,
      "▁central": 8124,
      "▁Urdu": 8125,
      "amily": 8126,
      "]](https://te.wikipedia.org/wiki/భారతదేశం#cite_note-india.gov.in": 8127,
      "▁./వర్గం:Pages\\_using\\_": 8128,
      "▁./వర్గం:Harv\\_and\\_Sfn\\_no-target\\_errors\n": 8129,
      "पीठ": 8130,
      "▁१९७": 8131,
      "▁१९४७": 8132,
      "\")*\n": 8133,
      "_dance": 8134,
      "efficient": 8135,
      "ohenj": 8136,
      "_సంగీతం": 8137,
      "2014-p": 8138,
      "▁where": 8139,
      "▁whose": 8140,
      "Wikivoyage": 8141,
      "_Force": 8142,
      "/publications/": 8143,
      "ారిగా": 8144,
      "श्मीरी": 8145,
      "-symbols": 8146,
      "▁**[आ": 8147,
      ".nic.in)\n": 8148,
      "నాయక": 8149,
      "–సా.శ.పూ.3": 8150,
      "ेटवे": 8151,
      "भूषा": 8152,
      "ोबर": 8153,
      "ौद्ध_धर्म": 8154,
      "](https://hi.wikipedia.org/wiki/अंग्रेज़ी": 8155,
      "హాస": 8156,
      "▁टा": 8157,
      "▁टिळक": 8158,
      "AsherTalbot202": 8159,
      "_the_": 8160,
      "▁[नवी": 8161,
      "దావరి": 8162,
      "▁rights": 8163,
      "▁కూడిన": 8164,
      "684": 8165,
      "ynth": 8166,
      "](https://mr.wikipedia.org/wiki/बंगाल": 8167,
      "▁वर्षात": 8168,
      "▁trade": 8169,
      "म्बई": 8170,
      "▁నిర్వ": 8171,
      "▁స్థా": 8172,
      "▁\"गंगा": 8173,
      "्यानंतर": 8174,
      "South_Asian_": 8175,
      "▁consum": 8176,
      "▁[संयुक्त": 8177,
      "ब्ब": 8178,
      "▁हैं।\n": 8179,
      "son2014-p": 8180,
      "oorke": 8181,
      "ंपरा": 8182,
      "ోర్చు": 8183,
      "ropped": 8184,
      "▁शास्त्र": 8185,
      "_संविधान": 8186,
      "cott": 8187,
      "ृष्टी": 8188,
      "శాఖ": 8189,
      "▁प्रजासत्ताक": 8190,
      "▁[t](https://te.wikipedia.org/wiki/మూస": 8191,
      "साम](https://mr.wikipedia.org/wiki/आसाम": 8192,
      "▁त्यामुळे": 8193,
      "▁[జమ్మూ": 8194,
      "▁[![](https://upload.wikimedia.org/wikipedia/commons/thumb/c/c": 8195,
      "▁\"Official": 8196,
      "▁పాత్ర": 8197,
      "▁([help](https://te.wikipedia.org/wiki/వర్గం:Harv": 8198,
      "_War": 8199,
      "▁\"చైనా": 8200,
      "▁\"संस्कृत": 8201,
      "▁प्रकारच्या": 8202,
      "▁गेल्या": 8203,
      "▁गेली.": 8204,
      "▁century,": 8205,
      "▁Shankar": 8206,
      "-factbook": 8207,
      "▁पदवी": 8208,
      "▁ఉన్నాయి.\n": 8209,
      "▁ఒకటి": 8210,
      "way_of_India": 8211,
      "ामुख": 8212,
      "ामुळे": 8213,
      "_1960": 8214,
      "జ్ఞాన": 8215,
      "▁28.": 8216,
      "▁म्हणजे": 8217,
      "▁Art": 8218,
      "074-108": 8219,
      "▁speakers": 8220,
      "▁[e](https://te.wikipedia.org/wiki/ప్రత్యేక:EditPage/మూస:": 8221,
      "▁[v](https://te.wikipedia.org/wiki/మూస:": 8222,
      "KulkeRothermund2016": 8223,
      "ोहेंजो": 8224,
      "▁कारण": 8225,
      "rupee": 8226,
      "हाय्य](https://mr.wikipedia.org/wiki/सहाय्य:CS1": 8227,
      "▁మార్గాలు": 8228,
      "▁include": 8229,
      "सिद्ध": 8230,
      "ूटी#": 8231,
      "రోపా": 8232,
      "▁जिसमें": 8233,
      "▁नदी\"),": 8234,
      "NCLM": 8235,
      "▁व्यावसायिक": 8236,
      "ण्याची": 8237,
      "▁భారతదేశానికి": 8238,
      "▁पुरस्कार": 8239,
      "▁మతము\")": 8240,
      "▁మతము\"),": 8241,
      "athakali": 8242,
      "riage": 8243,
      "ీనంలో": 8244,
      "▁జాబితా\")\n": 8245,
      "न्दिर": 8246,
      "▁ప్రపంచంలో": 8247,
      "▁ప్రభుత్వ": 8248,
      "▁ప్రభుత్వం": 8249,
      "▁According": 8250,
      "▁Africa": 8251,
      "▁major": 8252,
      "▁पर्यंत": 8253,
      "▁पाहिले.": 8254,
      "▁మొదటి": 8255,
      "union_territory": 8256,
      "Ludden2014": 8257,
      "_मेला?action=edit&redlink=1": 8258,
      "▁cities": 8259,
      "▁वनस्पती": 8260,
      "lackb": 8261,
      "స్లామాబాద్": 8262,
      "▁పాలన": 8263,
      "losis": 8264,
      "▁కార్య": 8265,
      "▁కారణంగా": 8266,
      "▁కలిగి": 8267,
      "प्राचीन": 8268,
      "ంటుంది.": 8269,
      "▁प्राणी**": 8270,
      ".htm)": 8271,
      "ित्त्व": 8272,
      "anorama": 8273,
      "arlung": 8274,
      "శోకుడు": 8275,
      "rigonom": 8276,
      "▁[महाराष्ट्र](https://mr.wikipedia.org/wiki/महाराष्ट्र": 8277,
      "▁विषय": 8278,
      "▁జరిగిన": 8279,
      "వ](https://te.wikipedia.org/wiki/List_of_countries_by": 8280,
      "sci/": 8281,
      "lurton1993": 8282,
      "▁local": 8283,
      "▁contribu": 8284,
      "▁सोयी": 8285,
      "▁[భారతదేశంలో": 8286,
      "▁जेव": 8287,
      "▁అనేక": 8288,
      "ecutive": 8289,
      "undamental": 8290,
      "▁ఎక్కువగా": 8291,
      "▁वर्षांपूर्वी": 8292,
      "▁वेगळे": 8293,
      "▁निर्मिती": 8294,
      "awaharlal": 8295,
      "▁त्रूटी": 8296,
      "▁([सहाय्य](https://mr.wikipedia.org/wiki/सहाय्य:CS1": 8297,
      "▁caused": 8298,
      "Report.pdf)": 8299,
      "cia.gov/": 8300,
      "१६६-": 8301,
      "लाओस": 8302,
      "▁వారసత్వ": 8303,
      "▁ప్రస్తుతం": 8304,
      "▁రోడ్": 8305,
      "▁తరువాత": 8306,
      "▁బెంగాల్": 8307,
      "ంపిక్": 8308,
      "▁अजूनही": 8309,
      "](https://en.wikipedia.org/wiki/Mughal_Empire": 8310,
      "countries_and_dependencies_by_population": 8311,
      "-78074-108": 8312,
      "▁oldest": 8313,
      "हमदाबाद": 8314,
      "a_dynasty": 8315,
      "▁[India](https://en.wikipedia.org/wiki/India)": 8316,
      "harmaceutical": 8317,
      "_त्रूटी#": 8318,
      "द्दाख": 8319,
      "o-daro": 8320,
      "nclm.nic.in/shared/linkimages/NCLM": 8321,
      "ంస్కృతం": 8322,
      "▁వెబ్": 8323,
      "्वालामुख": 8324,
      "▁సౌకర్య": 8325,
      "ండీగఢ్": 8326,
      "▁అభివృద్ధి": 8327,
      "ूनिवर्सि": 8328,
      "▁నడిపించ": 8329,
      "▁नाटके": 8330,
      "గుప్త": 8331,
      "alayalam": 8332,
      "భారతదేశ_రాష్ట్రాలు,_కేంద్రపాలిత_ప్రాంతాలు": 8333,
      "sites/default": 8334,
      "Tarlo1996-26": 8335,
      "_and_union_territories_of_India": 8336,
      "▁अस्तित्त्व": 8337,
      "▁नेतृत्व": 8338,
      "▁इत्यादी": 8339,
      "&action=edit)": 8340,
      "beralisation": 8341,
      "50thReport.pdf)": 8342,
      "hattis": 8343,
      "/national-symbols": 8344,
      "Davidson2014-p": 8345,
      "ృష్ణా": 8346,
      "inancial": 8347,
      "the-world-factbook": 8348,
      "▁नकाशा": 8349,
      "berculosis": 8350,
      "astronom": 8351,
      ".in/currsci/": 8352,
      "ommaraju": 8353,
      "▁[अंग्रेज़ी](https://hi.wikipedia.org/wiki/अंग्रेज़ी": 8354,
      "▁(సా.శ.పూ.1200–సా.శ.పూ.": 8355,
      "ohenjo-daro": 8356,
      "ోర్చుగ": 8357,
      "▁[t](https://te.wikipedia.org/wiki/మూస_చర్చ:": 8358,
      "▁([help](https://te.wikipedia.org/wiki/వర్గం:Harv_and_Sfn_template_errors": 8359,
      "ोहेंजोदडो": 8360,
      "▁([सहाय्य](https://mr.wikipedia.org/wiki/सहाय्य:CS1_त्रूटी#": 8361,
      "-78074-108-6": 8362,
      "nclm.nic.in/shared/linkimages/NCLM50thReport.pdf)": 8363,
      "ूनिवर्सिटी": 8364,
      "sites/default/files/": 8365,
      "-24": 8366,
      "-asia": 8367,
      "1st": 8368,
      "220": 8369,
      "2.\n": 8370,
      "2),": 8371,
      "623": 8372,
      "71": 8373,
      "96": 8374,
      "C)": 8375,
      "CH": 8376,
      "Mumbai": 8377,
      "Republic": 8378,
      "_39": 8379,
      "_45": 8380,
      "var": 8381,
      "wa": 8382,
      "▁X": 8383,
      "](https://id": 8384,
      "2021": 8385,
      "isl": 8386,
      "▁(2019": 8387,
      "ices": 8388,
      "▁poll": 8389,
      "▁Ag": 8390,
      "▁Age": 8391,
      "[[18": 8392,
      "▁band": 8393,
      "▁11.": 8394,
      "▁Report": 8395,
      "▁Book": 8396,
      "▁Ne": 8397,
      "116": 8398,
      "opal": 8399,
      "opland": 8400,
      "▁2000": 8401,
      "▁2007.": 8402,
      "▁John": 8403,
      "29)": 8404,
      "▁Ins": 8405,
      "16.": 8406,
      "270": 8407,
      "▁West": 8408,
      "▁Library": 8409,
      "▁Press,": 8410,
      "▁expectancy": 8411,
      "39)": 8412,
      "37)": 8413,
      "▁[Kulke": 8414,
      "▁[Ludden": 8415,
      "▁addition": 8416,
      "1975": 8417,
      "/articles/": 8418,
      "▁consid": 8419,
      "unjabi": 8420,
      "place": 8421,
      "▁2022.\n": 8422,
      "tiger": 8423,
      "langoff-1": 8424,
      "▁(2018).": 8425,
      "\\_parameters#": 8426,
      "\\_country\\_with\\_": 8427,
      "onkani": 8428,
      "-r": 8429,
      ".६": 8430,
      "/we": 8431,
      "1%20": 8432,
      "42": 8433,
      "DIA": 8434,
      "E﻿": 8435,
      "F%E0%A4%A": 8436,
      "GDP": 8437,
      "YS": 8438,
      "_50": 8439,
      "a-b": 8440,
      "egh": 8441,
      "fun": 8442,
      "mil": 8443,
      "s18": 8444,
      "sources": 8445,
      "ँग": 8446,
      "उप": 8447,
      "ऊर्जा": 8448,
      "घा": 8449,
      "टना": 8450,
      "लक": 8451,
      "वणी": 8452,
      "शस्": 8453,
      "षद": 8454,
      "ीण": 8455,
      "ूस": 8456,
      "ृति": 8457,
      "ेना": 8458,
      "ैत": 8459,
      "ॉकी": 8460,
      "ोध": 8461,
      "ोला": 8462,
      "१३": 8463,
      "▁%": 8464,
      "](https://commons": 8465,
      "▁[का": 8466,
      "▁[१९": 8467,
      "▁[श्रीलंका": 8468,
      "▁\"भू": 8469,
      "▁\"श्रीलंका": 8470,
      "▁\"ओडिशा": 8471,
      "▁\"हिमालय": 8472,
      "▁\"en:": 8473,
      "India.pdf)": 8474,
      "rel": 8475,
      "report": 8476,
      "retary": 8477,
      "्यु": 8478,
      "भारत)": 8479,
      "▁कला": 8480,
      "▁कंपनी": 8481,
      "▁सँ": 8482,
      "▁स्त": 8483,
      "▁सन्": 8484,
      "▁सूचना": 8485,
      "▁सिंह": 8486,
      "](https://hi.wikipedia.org/wiki/ओ": 8487,
      "](https://hi.wikipedia.org/wiki/भारतीय": 8488,
      "ान्य": 8489,
      "राव": 8490,
      "रामायण": 8491,
      "▁मंत्र": 8492,
      "geoh": 8493,
      "ात\\_मापदण्ड": 8494,
      "▁प्रभा": 8495,
      "▁दशक": 8496,
      "▁जग": 8497,
      "▁नव": 8498,
      "263": 8499,
      "त्री": 8500,
      "-45": 8501,
      "प्रकार": 8502,
      "15.": 8503,
      "](https://mai.wikipedia.org/wiki/भारतीय_": 8504,
      "▁रच": 8505,
      "135": 8506,
      ".wikimedia.org/wiki/": 8507,
      "▁परंपरा": 8508,
      "47.": 8509,
      "▁लोग": 8510,
      "_Data_": 8511,
      "जीव": 8512,
      "▁[बिहार": 8513,
      "▁\"बिहार": 8514,
      "_भाषा?action=edit&redlink=1": 8515,
      "म्प": 8516,
      "▁Vol": 8517,
      "▁[GDP": 8518,
      "▁मुर्मू": 8519,
      "general": 8520,
      "िन्धु": 8521,
      "▁क्षेत्रीय": 8522,
      "▁पाव": 8523,
      "▁मोदी": 8524,
      "%E0%A4%B6": 8525,
      "%E0%A4%BF%E0%A4%A": 8526,
      "हित्य": 8527,
      "▁मान्यता": 8528,
      "▁स्वरूप": 8529,
      "ज्ञात\\_मापदण्ड": 8530,
      "[![](https://upload.wikimedia.org/wikipedia/commons/thumb/c/c": 8531,
      "सभ\\_सहितक\\_पृष्ठसभ#": 8532,
      "▁सम्राट": 8533,
      "▁बाह्य": 8534,
      "▁जनवरी": 8535,
      "▁जनसंख्या": 8536,
      "34238": 8537,
      "०००": 8538,
      "▁notation": 8539,
      "▁विकसित": 8540,
      "▁आधारित": 8541,
      "विकास": 8542,
      "त्तराखण्ड": 8543,
      "]](https://hi.wikipedia.org/wiki/भारत#cite_note-FOOTNOTEStein1998": 8544,
      "]](https://hi.wikipedia.org/wiki/भारत#cite_note-FOOTNOTESingh2009": 8545,
      "2001),": 8546,
      "▁2016.\n": 8547,
      "_उप": 8548,
      "▁आकर्ष": 8549,
      "%E0%A4%BE%E0%A4%9": 8550,
      ".net": 8551,
      "▁समाज": 8552,
      "निष्ठ": 8553,
      "/articleshow/5": 8554,
      "▁वन्य": 8555,
      "-language\\_sources": 8556,
      "▁सभ्यता": 8557,
      "11934238": 8558,
      "द्वार": 8559,
      "विद्यालय": 8560,
      "\\_अज्ञात\\_मापदण्ड": 8561,
      "AGE": 8562,
      "▁डॉलर": 8563,
      "_Lanka": 8564,
      "▁रहल": 8565,
      "](https://mai.wikipedia.org/wiki/भारतक": 8566,
      "▁अप्रैल": 8567,
      "ंडीगढ़": 8568,
      "ैदराबाद": 8569,
      "▁[हिन्दी](https://hi.wikipedia.org/wiki/हिन्दी": 8570,
      "\\_देशमे\\_अज्ञात\\_मापदण्ड": 8571,
      "▁./श्रेणी:जानकारीबौक्स\\_देशमे\\_अज्ञात\\_मापदण्ड": 8572,
      "](https://commons.wikimedia.org/wiki/": 8573,
      "▁\"श्रीलंका\")": 8574,
      "geohack": 8575,
      "▁\"बिहार\")": 8576,
      "-language\\_sources\\_(": 8577,
      "11934238p": 8578,
      "▁./श्रेणी:जानकारीबौक्स\\_देशमे\\_अज्ञात\\_मापदण्डसभ\\_सहितक\\_पृष्ठसभ#": 8579,
      "*),": 8580,
      ",_India": 8581,
      "-logo": 8582,
      "01": 8583,
      "2-7": 8584,
      "3]](https://en.wikipedia.org/wiki/India#cite_note-": 8585,
      "400": 8586,
      "421": 8587,
      "41)": 8588,
      "9).": 8589,
      "96)": 8590,
      "AL": 8591,
      "BI": 8592,
      "BRICS": 8593,
      "Bangalore": 8594,
      "Ge": 8595,
      "Gangetic": 8596,
      "Island": 8597,
      "K:": 8598,
      "Language": 8599,
      "PT": 8600,
      "Petraglia": 8601,
      "VII": 8602,
      "YC": 8603,
      "Zor": 8604,
      "_con": 8605,
      "_di": 8606,
      "_12": 8607,
      "_2008": 8608,
      "aur": 8609,
      "audi": 8610,
      "bird": 8611,
      "cutt": 8612,
      "dministrative": 8613,
      "ees": 8614,
      "fer": 8615,
      "gion": 8616,
      "gest": 8617,
      "io": 8618,
      "iw": 8619,
      "ize": 8620,
      "jha": 8621,
      "jayan": 8622,
      "lé": 8623,
      "mon": 8624,
      "ocal": 8625,
      "pi": 8626,
      "pper": 8627,
      "rand": 8628,
      "rang": 8629,
      "rum": 8630,
      "rana": 8631,
      "search": 8632,
      "uters": 8633,
      "v3-": 8634,
      "ypr": 8635,
      "–11": 8636,
      "–Pakistan": 8637,
      "▁ter": 8638,
      "▁List": 8639,
      "▁35": 8640,
      "▁times": 8641,
      "ian_": 8642,
      "ora": 8643,
      "oria": 8644,
      "orary": 8645,
      "orne": 8646,
      "▁[Harle": 8647,
      "teri": 8648,
      "\")1": 8649,
      "in-O": 8650,
      "anies": 8651,
      "onic": 8652,
      "Inf": 8653,
      "though": 8654,
      "](https://en.wiki": 8655,
      "](https://en.wikipedia.org/wiki/International_": 8656,
      "ardian": 8657,
      "ales": 8658,
      "alcutt": 8659,
      "reet": 8660,
      "hili": 8661,
      "isa": 8662,
      "isch": 8663,
      "istic": 8664,
      "isak": 8665,
      "tion,": 8666,
      "anding": 8667,
      "ito": 8668,
      "itor": 8669,
      "itchi": 8670,
      "▁(2011": 8671,
      "▁(union": 8672,
      "ought": 8673,
      "asar": 8674,
      "asian": 8675,
      "▁India](https://en.wikipedia.org/wiki/P": 8676,
      "▁India\"](https://web.archive.org/web/201": 8677,
      "ick": 8678,
      "▁inequality": 8679,
      "now": 8680,
      "▁so": 8681,
      "▁sultanate": 8682,
      "▁small": 8683,
      "▁size": 8684,
      "▁plate": 8685,
      "▁prin": 8686,
      "riy": 8687,
      "rimin": 8688,
      "ricity": 8689,
      "▁cap": 8690,
      "▁char": 8691,
      "\\_p": 8692,
      "\\_in": 8693,
      "atri": 8694,
      ").svg": 8695,
      "▁Social": 8696,
      "▁Survey": 8697,
      "▁Schedule": 8698,
      "etnam": 8699,
      "▁fl": 8700,
      "ads": 8701,
      "▁trib": 8702,
      "▁mo": 8703,
      "▁mark": 8704,
      "urg": 8705,
      "urasia": 8706,
      "urasian": 8707,
      "vert": 8708,
      "istorical": 8709,
      "▁13.": 8710,
      "▁15.": 8711,
      "▁10.": 8712,
      "_of_N": 8713,
      "_of_S": 8714,
      "rotected": 8715,
      "ially": 8716,
      "ilt": 8717,
      "ISE": 8718,
      "cely": 8719,
      "una": 8720,
      "▁data": 8721,
      "olice": 8722,
      "▁Red": 8723,
      "▁ap": 8724,
      "tices": 8725,
      "214": 8726,
      "▁Mah": 8727,
      "▁Michael": 8728,
      "emi": 8729,
      "emorial": 8730,
      "▁2016.": 8731,
      "nific": 8732,
      "mentin-O": 8733,
      "ignific": 8734,
      "▁Bharat": 8735,
      "25.": 8736,
      ".[[28": 8737,
      ".[[35": 8738,
      "_(orthographic_projection": 8739,
      "_(union_territory": 8740,
      "▁Desert": 8741,
      "▁India\")*.": 8742,
      "indrana": 8743,
      "ayana": 8744,
      "261": 8745,
      "▁[↑](https://en.wikipedia.org/wiki/India#cite_ref-Combined": 8746,
      "▁eaten": 8747,
      "24_A7C": 8748,
      "▁E.": 8749,
      "india.com/": 8750,
      "-349": 8751,
      "_in_T": 8752,
      "elp": 8753,
      "elug": 8754,
      "abour": 8755,
      "abindrana": 8756,
      "aks": 8757,
      "▁2009.": 8758,
      "](https://en.wikipedia.org/wiki/India#CITEREFCraven1997": 8759,
      "▁three": 8760,
      "odern_": 8761,
      "ishes": 8762,
      "▁Journal": 8763,
      "▁[Sri": 8764,
      "]](https://en.wikipedia.org/wiki/India#cite_note-FOOTNOTEAsherTalbot2008": 8765,
      "▁1970": 8766,
      "▁1972": 8767,
      "40.": 8768,
      "epali": 8769,
      "▁\"Ch": 8770,
      "168": 8771,
      "16]](https://en.wikipedia.org/wiki/India#cite_note-": 8772,
      "conomist": 8773,
      "ected": 8774,
      "▁Organisation": 8775,
      "▁Olymp": 8776,
      "27.": 8777,
      "_Census": 8778,
      "▁L.": 8779,
      "ogo-": 8780,
      "](https://en.wikipedia.org/wiki/Climate_": 8781,
      "-9\").\n": 8782,
      "-981": 8783,
      "-9677": 8784,
      "](Special:BookSources/": 8785,
      "▁[↑](https://en.wikipedia.org/wiki/India#cite_ref-FOOTNOTEM": 8786,
      "▁[↑](https://en.wikipedia.org/wiki/India#cite_ref-FOOTNOTECraven1997": 8787,
      "▁[Mughal": 8788,
      "▁[*H": 8789,
      "artial": 8790,
      "ongol": 8791,
      "ummary": 8792,
      "ysis": 8793,
      "▁[BRICS": 8794,
      "▁\"BRICS": 8795,
      "▁original](http://": 8796,
      "alled": 8797,
      "_DS": 8798,
      "▁\"Ar": 8799,
      "▁\"Ass": 8800,
      "2006),": 8801,
      "laci": 8802,
      "▁\"East": 8803,
      "▁\"Economic": 8804,
      "_and_N": 8805,
      "_Games": 8806,
      "](https://en.wikipedia.org/wiki/Ass": 8807,
      "](https://en.wikipedia.org/wiki/Economic": 8808,
      "Harvard": 8809,
      "_Re": 8810,
      "_Ram": 8811,
      "_Roti": 8812,
      "_Bank": 8813,
      "_pro": 8814,
      "_News": 8815,
      "_National_P": 8816,
      "▁\"Russia": 8817,
      "](https://en.wikipedia.org/wiki/Russia": 8818,
      "4):": 8819,
      "ali_C": 8820,
      "▁[Raj": 8821,
      "▁[Russia": 8822,
      "ible": 8823,
      "ibli": 8824,
      "ultur": 8825,
      "▁Religion": 8826,
      "uclear_S": 8827,
      "▁[Wolpert": 8828,
      "▁./Category:Articles\\_contain": 8829,
      "Army": 8830,
      "_Indian_subcontinent": 8831,
      "IAF": 8832,
      "_relations": 8833,
      "-203": 8834,
      "ropical": 8835,
      "▁(2016).": 8836,
      "▁2023.": 8837,
      "▁2023](https://en.wikipedia.org/wiki/India#CITEREF": 8838,
      "▁regional": 8839,
      "orities/": 8840,
      "2_22": 8841,
      "oastrian": 8842,
      "ujarati": 8843,
      "ppines": 8844,
      "ortality": 8845,
      "▁music\")": 8846,
      "▁diversity": 8847,
      "▁common": 8848,
      "ID-19": 8849,
      "▁election\"),": 8850,
      "Vijayan": 8851,
      "Vietnam": 8852,
      "▁traditional": 8853,
      "▁well": 8854,
      "al_Pradesh": 8855,
      "Harle1994),": 8856,
      "aharasht": 8857,
      "Articles\\_with\\_": 8858,
      "cms)": 8859,
      "▁longer": 8860,
      "▁highest": 8861,
      ".svg/40px-": 8862,
      "_Shankar": 8863,
      "▁player": 8864,
      "Robb2011": 8865,
      "ilies": 8866,
      "anoram": 8867,
      "Library_of_Congress": 8868,
      ".svg.png)](File:": 8869,
      "▁Publishing\").": 8870,
      "timesofindia.indiatimes.com/india/": 8871,
      "izor": 8872,
      ".[[406]](https://en.wikipedia.org/wiki/India#cite_note-vatsyayan-lord-4": 8873,
      "▁popular": 8874,
      "Ministry_of_Home_Affairs": 8875,
      "▁remain": 8876,
      "▁texts": 8877,
      "hristianity": 8878,
      "▁historical": 8879,
      "▁colleges": 8880,
      "hutan": 8881,
      "Flag_of_India.svg": 8882,
      "ichell2000": 8883,
      "kbar": 8884,
      "▁kil": 8885,
      "▁kingdoms": 8886,
      "▁following": 8887,
      "▁\"China\")": 8888,
      "▁1997](https://en.wikipedia.org/wiki/India#CITEREFCraven1997": 8889,
      "ataraja": 8890,
      "▁emerged": 8891,
      "IFTY": 8892,
      "OVID-19": 8893,
      "unctu": 8894,
      "▁divisions": 8895,
      "▁adopted": 8896,
[...]
