{
  "version": "1.0",
  "truncation": null,
  "padding": null,
  "added_tokens": [
    {
      "id": 0,
      "content": "[UNK]",
      "single_word": false,
      "lstrip": false,
      "rstrip": false,
      "normalized": false,
      "special": true
    }
  ],
  "normalizer": {
    "type": "NFKC"
  },
  "pre_tokenizer": {
    "type": "Metaspace",
    "replacement": "▁",
    "prepend_scheme": "never",
    "split": true
  },
  "post_processor": null,
  "decoder": {
    "type": "Metaspace",
    "replacement": "▁",
    "prepend_scheme": "never",
    "split": true
  },
  "model": {
    "type": "BPE",
    "dropout": null,
    "unk_token": "[UNK]",
    "continuing_subword_prefix": null,
    "end_of_word_suffix": null,
    "fuse_unk": false,
    "byte_fallback": false,
    "ignore_merges": false,
    "vocab": {
      "[UNK]": 0,
      "\n": 1,
      "!": 2,
      "\"": 3,
      "#": 4,
      "$": 5,
      "%": 6,
      "&": 7,
      "'": 8,
      "(": 9,
      ")": 10,
      "*": 11,
      "+": 12,
      ",": 13,
      "-": 14,
      ".": 15,
      "/": 16,
      "0": 17,
      "1": 18,
      "2": 19,
      "3": 20,
      "4": 21,
      "5": 22,
      "6": 23,
      "7": 24,
      "8": 25,
      "9": 26,
      ":": 27,
      ";": 28,
      "<": 29,
      "=": 30,
      ">": 31,
      "?": 32,
      "A": 33,
      "B": 34,
      "C": 35,
      "D": 36,
      "E": 37,
      "F": 38,
      "G": 39,
      "H": 40,
      "I": 41,
      "J": 42,
      "K": 43,
      "L": 44,
      "M": 45,
      "N": 46,
      "O": 47,
      "P": 48,
      "Q": 49,
      "R": 50,
      "S": 51,
      "T": 52,
      "U": 53,
      "V": 54,
      "W": 55,
      "X": 56,
      "Y": 57,
      "Z": 58,
      "[": 59,
      "\\": 60,
      "]": 61,
      "^": 62,
      "_": 63,
      "`": 64,
      "a": 65,
      "b": 66,
      "c": 67,
      "d": 68,
      "e": 69,
      "f": 70,
      "g": 71,
      "h": 72,
      "i": 73,
      "j": 74,
      "k": 75,
      "l": 76,
      "m": 77,
      "n": 78,
      "o": 79,
      "p": 80,
      "q": 81,
      "r": 82,
      "s": 83,
      "t": 84,
      "u": 85,
      "v": 86,
      "w": 87,
      "x": 88,
      "y": 89,
      "z": 90,
      "{": 91,
      "|": 92,
      "}": 93,
      "~": 94,
      "°": 95,
      "·": 96,
      "Ö": 97,
      "á": 98,
      "â": 99,
      "æ": 100,
      "ç": 101,
      "è": 102,
      "é": 103,
      "í": 104,
      "ñ": 105,
      "ö": 106,
      "ü": 107,
      "ā": 108,
      "ī": 109,
      "İ": 110,
      "Ś": 111,
      "ś": 112,
      "ū": 113,
      "ș": 114,
      "ə": 115,
      "ɦ": 116,
      "ɪ": 117,
      "ɾ": 118,
      "ʊ": 119,
      "ʼ": 120,
      "ˈ": 121,
      "ː": 122,
      "ί": 123,
      "α": 124,
      "δ": 125,
      "θ": 126,
      "ν": 127,
      "π": 128,
      "ς": 129,
      "ό": 130,
      "ँ": 131,
      "ं": 132,
      "ः": 133,
      "अ": 134,
      "आ": 135,
      "इ": 136,
      "ई": 137,
      "उ": 138,
      "ऊ": 139,
      "ऋ": 140,
      "ऍ": 141,
      "ए": 142,
      "ऐ": 143,
      "ऑ": 144,
      "ओ": 145,
      "औ": 146,
      "क": 147,
      "ख": 148,
      "ग": 149,
      "घ": 150,
      "ङ": 151,
      "च": 152,
      "छ": 153,
      "ज": 154,
      "झ": 155,
      "ञ": 156,
      "ट": 157,
      "ठ": 158,
      "ड": 159,
      "ढ": 160,
      "ण": 161,
      "त": 162,
      "थ": 163,
      "द": 164,
      "ध": 165,
      "न": 166,
      "ऩ": 167,
      "प": 168,
      "फ": 169,
      "ब": 170,
      "भ": 171,
      "म": 172,
      "य": 173,
      "र": 174,
      "ल": 175,
      "ळ": 176,
      "व": 177,
      "श": 178,
      "ष": 179,
      "स": 180,
      "ह": 181,
      "ऻ": 182,
      "़": 183,
      "ऽ": 184,
      "ा": 185,
      "ि": 186,
      "ी": 187,
      "ु": 188,
      "ू": 189,
      "ृ": 190,
      "े": 191,
      "ै": 192,
      "ॉ": 193,
      "ॊ": 194,
      "ो": 195,
      "ौ": 196,
      "्": 197,
      "॔": 198,
      "।": 199,
      "०": 200,
      "१": 201,
      "२": 202,
      "३": 203,
      "४": 204,
      "५": 205,
      "६": 206,
      "७": 207,
      "८": 208,
      "९": 209,
      "॰": 210,
      "ం": 211,
      "ః": 212,
      "అ": 213,
      "ఆ": 214,
      "ఇ": 215,
      "ఈ": 216,
      "ఉ": 217,
      "ఋ": 218,
      "ఎ": 219,
      "ఏ": 220,
      "ఐ": 221,
      "ఒ": 222,
      "ఓ": 223,
      "ఔ": 224,
      "క": 225,
      "ఖ": 226,
      "గ": 227,
      "ఘ": 228,
      "చ": 229,
      "ఛ": 230,
      "జ": 231,
      "ఞ": 232,
      "ట": 233,
      "ఠ": 234,
      "డ": 235,
      "ఢ": 236,
      "ణ": 237,
      "త": 238,
      "థ": 239,
      "ద": 240,
      "ధ": 241,
      "న": 242,
      "ప": 243,
      "ఫ": 244,
      "బ": 245,
      "భ": 246,
      "మ": 247,
      "య": 248,
      "ర": 249,
      "ల": 250,
      "ళ": 251,
      "వ": 252,
      "శ": 253,
      "ష": 254,
      "స": 255,
      "హ": 256,
      "ా": 257,
      "ి": 258,
      "ీ": 259,
      "ు": 260,
      "ూ": 261,
      "ృ": 262,
      "ె": 263,
      "ే": 264,
      "ై": 265,
      "ొ": 266,
      "ో": 267,
      "ౌ": 268,
      "్": 269,
      "ṅ": 270,
      "ṇ": 271,
      "Ṛ": 272,
      "ṣ": 273,
      "ṭ": 274,
      "Ἰ": 275,
      "‌": 276,
      "‍": 277,
      "‎": 278,
      "–": 279,
      "—": 280,
      "‘": 281,
      "’": 282,
      "“": 283,
      "”": 284,
      "†": 285,
      "•": 286,
      "′": 287,
      "‹": 288,
      "›": 289,
      "⁡": 290,
      "₹": 291,
      "↑": 292,
      "−": 293,
      "▁": 294,
      "﻿": 295,
      "wi": 296,
      "ki": 297,
      "wiki": 298,
      "ia": 299,
      "dia": 300,
      "or": 301,
      "tt": 302,
      "](": 303,
      "pe": 304,
      ":/": 305,
      "htt": 306,
      "http": 307,
      "://": 308,
      "https": 309,
      "https://": 310,
      "](https://": 311,
      "g/": 312,
      ".or": 313,
      ".org/": 314,
      "pedia": 315,
      ".wiki": 316,
      ".org/wiki": 317,
      ".org/wiki/": 318,
      ".wikipedia": 319,
      ".wikipedia.org/wiki/": 320,
      "▁[": 321,
      "en": 322,
      "te": 323,
      "▁\"": 324,
      "\")": 325,
      "in": 326,
      "an": 327,
      "on": 328,
      "In": 329,
      "ti": 330,
      "th": 331,
      "](https://en": 332,
      "](https://en.wikipedia.org/wiki/": 333,
      "India": 334,
      "er": 335,
      "ar": 336,
      "20": 337,
      "al": 338,
      "es": 339,
      "hi": 340,
      "▁|": 341,
      "re": 342,
      "of": 343,
      "ार": 344,
      "is": 345,
      "tion": 346,
      "the": 347,
      "्र": 348,
      "▁क": 349,
      "](https://hi": 350,
      "](https://hi.wikipedia.org/wiki/": 351,
      "ci": 352,
      "ed": 353,
      "om": 354,
      "and": 355,
      "▁-": 356,
      "్ర": 357,
      "it": 358,
      "▁of": 359,
      "▁the": 360,
      "te_": 361,
      "](https://te": 362,
      "](https://te.wikipedia.org/wiki/": 363,
      "▁(": 364,
      "ou": 365,
      "#ci": 366,
      "#cite_": 367,
      "भार": 368,
      "भारत": 369,
      "as": 370,
      "](https://en.wikipedia.org/wiki/India": 371,
      "ార": 372,
      "▁स": 373,
      "201": 374,
      "ic": 375,
      "▁India": 376,
      "le": 377,
      "19": 378,
      "OT": 379,
      "▁in": 380,
      "oo": 381,
      "id": 382,
      "no": 383,
      "ra": 384,
      "ent": 385,
      "](https://en.wikipedia.org/wiki/India#cite_": 386,
      "▁s": 387,
      "्य": 388,
      "▁म": 389,
      "▁and": 390,
      "**": 391,
      "ate": 392,
      "ాల": 393,
      "▁p": 394,
      "-0": 395,
      "200": 396,
      "ri": 397,
      "et": 398,
      "ation": 399,
      "ac": 400,
      "ing": 401,
      "▁c": 402,
      "్య": 403,
      "रा": 404,
      "am": 405,
      "us": 406,
      "▁प": 407,
      "at": 408,
      "\\_": 409,
      "▁A": 410,
      "▁C": 411,
      "ag": 412,
      "భార": 413,
      "భారత": 414,
      "-1": 415,
      "దే": 416,
      "ान": 417,
      "ref": 418,
      "దేశ": 419,
      "స్": 420,
      ").": 421,
      "▁S": 422,
      "note": 423,
      "▁f": 424,
      "ook": 425,
      "▁ప": 426,
      "ang": 427,
      "[[": 428,
      "ad": 429,
      "्त": 430,
      "▁b": 431,
      "▁t": 432,
      "సా": 433,
      "ref-": 434,
      "note-": 435,
      "li": 436,
      "lo": 437,
      "ve": 438,
      "र्": 439,
      "ర్": 440,
      "78": 441,
      "ur": 442,
      "ें": 443,
      "న్": 444,
      "ma": 445,
      "um": 446,
      "ist": 447,
      "▁P": 448,
      "▁के": 449,
      "\"),": 450,
      "ver": 451,
      "या": 452,
      "▁ह": 453,
      "](https://hi.wikipedia.org/wiki/भारत": 454,
      "ul": 455,
      ".\n": 456,
      "of_": 457,
      "com": 458,
      "▁1": 459,
      "_of_": 460,
      "ch": 461,
      "IS": 462,
      "we": 463,
      "FO": 464,
      "lin": 465,
      "NOT": 466,
      "he": 467,
      "OTNOT": 468,
      "FOOTNOT": 469,
      "FOOTNOTE": 470,
      "ial": 471,
      "ro": 472,
      "ww": 473,
      "▁m": 474,
      "ce": 475,
      "978": 476,
      "BN": 477,
      "il": 478,
      "ISBN": 479,
      "st": 480,
      "िक": 481,
      "▁[↑": 482,
      "ory": 483,
      "red": 484,
      "లు": 485,
      "▁w": 486,
      "▁d": 487,
      "రా": 488,
      "un": 489,
      "00": 490,
      "our": 491,
      "ter": 492,
      "]](https://en.wikipedia.org/wiki/India#cite_": 493,
      "▁201": 494,
      "ीय": 495,
      "fi": 496,
      "ons": 497,
      "](https://en.wikipedia.org/wiki/India#cite_ref-": 498,
      "]](https://en.wikipedia.org/wiki/India#cite_note-": 499,
      "▁अ": 500,
      "▁T": 501,
      "enti": 502,
      "ol": 503,
      "▁|\n": 504,
      "21": 505,
      "tic": 506,
      "=1": 507,
      "భారతదేశ": 508,
      "link": 509,
      "▁R": 510,
      "▁M": 511,
      "edit": 512,
      "action": 513,
      ".శ": 514,
      ".శ.": 515,
      "లో": 516,
      "identi": 517,
      "action=": 518,
      "సా.శ.": 519,
      "action=edit": 520,
      "fier": 521,
      "identifier": 522,
      "&red": 523,
      "?action=edit": 524,
      "link=1": 525,
      "&redlink=1": 526,
      "?action=edit&redlink=1": 527,
      "▁**": 528,
      "▁में": 529,
      "▁to": 530,
      "▁క": 531,
      "identifier)": 532,
      "-0)": 533,
      "ment": 534,
      "िया": 535,
      "chi": 536,
      "▁a": 537,
      "न्": 538,
      "web": 539,
      "res": 540,
      "త్ర": 541,
      "es/": 542,
      "ాలు": 543,
      "book": 544,
      "age": 545,
      "ाल": 546,
      "▁B": 547,
      "cial": 548,
      "ig": 549,
      "రి": 550,
      "em": 551,
      "्ष": 552,
      "క్": 553,
      "ni": 554,
      "ంద": 555,
      "वि": 556,
      "ों": 557,
      "s.": 558,
      "23": 559,
      "pg": 560,
      "ेश": 561,
      "ని": 562,
      "▁వ": 563,
      "25": 564,
      "▁ज": 565,
      "▁D": 566,
      "ना": 567,
      "▁द": 568,
      "),": 569,
      "10": 570,
      "भा": 571,
      "_(": 572,
      "▁l": 573,
      ".j": 574,
      "▁\"S": 575,
      "ity": 576,
      "angu": 577,
      "ir": 578,
      "26": 579,
      "▁India\")": 580,
      "sia": 581,
      "IT": 582,
      "त्र": 583,
      "ind": 584,
      "24": 585,
      "_क": 586,
      "ల్": 587,
      "राज": 588,
      "భారతదేశం": 589,
      "ay": 590,
      "▁[↑](https://en.wikipedia.org/wiki/India#cite_ref-": 591,
      "ly": 592,
      "ER": 593,
      ".com": 594,
      "pecial": 595,
      "ec": 596,
      "EF": 597,
      "▁है": 598,
      "ITER": 599,
      "ంగ": 600,
      "ITEREF": 601,
      "·**": 602,
      "india": 603,
      "▁**·**": 604,
      "▁E": 605,
      "ourc": 606,
      "▁స": 607,
      ")\n": 608,
      "ion": 609,
      "](https://hi.wikipedia.org/wiki/भारत#cite_": 610,
      ".com/": 611,
      "्व": 612,
      "me": 613,
      "▁మ": 614,
      "pecial:": 615,
      "_India": 616,
      "▁*": 617,
      "ला": 618,
      "199": 619,
      "▁प्र": 620,
      "ld": 621,
      "al_": 622,
      "oun": 623,
      "్రా": 624,
      "Uni": 625,
      "▁भारत": 626,
      "ता": 627,
      "▁h": 628,
      "▁ब": 629,
      "\").": 630,
      "ंग": 631,
      "go": 632,
      "ources/": 633,
      "ति": 634,
      "Book": 635,
      "up": 636,
      "ved": 637,
      "्ट": 638,
      "ber": 639,
      "28": 640,
      "#C": 641,
      "Sources/": 642,
      "tu": 643,
      "ీయ": 644,
      "▁e": 645,
      "pecial:Book": 646,
      "pecial:BookSources/": 647,
      "और": 648,
      "outh": 649,
      "mai": 650,
      "#CITEREF": 651,
      "▁G": 652,
      "▁H": 653,
      "▁N": 654,
      "_स": 655,
      "](https://mai": 656,
      "rom": 657,
      "ండ": 658,
      "▁न": 659,
      "pecial:BookSources/978": 660,
      "](https://mai.wikipedia.org/wiki/": 661,
      "gory": 662,
      "ategory": 663,
      "for": 664,
      "▁की": 665,
      "_in": 666,
      "-3": 667,
      "cal": 668,
      "्रे": 669,
      "_S": 670,
      "▁•": 671,
      "ategory:": 672,
      "-4": 673,
      "ry": 674,
      "op": 675,
      "జ్య": 676,
      "sh": 677,
      "▁से": 678,
      "www": 679,
      "षा": 680,
      "▁చ": 681,
      "11": 682,
      "el": 683,
      "50": 684,
      "www.": 685,
      "తా": 686,
      "▁on": 687,
      "▁और": 688,
      "\")\n": 689,
      "_A": 690,
      "ew": 691,
      "स्त": 692,
      "ము": 693,
      "anguage": 694,
      "నా": 695,
      "ary": 696,
      "తి": 697,
      "్ట": 698,
      "vers": 699,
      "▁20": 700,
      "▁re": 701,
      "▁का": 702,
      "ित": 703,
      "न्द": 704,
      "archi": 705,
      "ub": 706,
      "▁th": 707,
      "-0-": 708,
      "▁\"भारत": 709,
      "](https://en.wikipedia.org/wiki/India#CITEREF": 710,
      "mp": 711,
      "ab": 712,
      "भाषा": 713,
      "సి": 714,
      "calf": 715,
      "rit": 716,
      "▁200": 717,
      "ast": 718,
      "త్": 719,
      "▁आ": 720,
      "etcalf": 721,
      "ak": 722,
      "ge": 723,
      "ish": 724,
      "राज्य": 725,
      "22": 726,
      "ास": 727,
      "▁व": 728,
      "▁or": 729,
      "30": 730,
      "The": 731,
      "18": 732,
      "▁n": 733,
      "con": 734,
      "क्ष": 735,
      "ted": 736,
      "archive": 737,
      "n_": 738,
      "▁[S": 739,
      "-8": 740,
      ".in": 741,
      "_of_India": 742,
      "--": 743,
      "est": 744,
      "od": 745,
      "▁J": 746,
      ".jpg": 747,
      "▁---": 748,
      "▁(సా.శ.": 749,
      "ress": 750,
      "▁19": 751,
      "▁from": 752,
      "]](https://en.wikipedia.org/wiki/India#cite_note-FOOTNOTE": 753,
      "యా": 754,
      "▁F": 755,
      "ులు": 756,
      "▁రా": 757,
      "ct": 758,
      "gh": 759,
      ".[[": 760,
      "देश": 761,
      "▁.": 762,
      "–సా.శ.": 763,
      "▁(identifier)": 764,
      "_(identifier)": 765,
      "▁(identifier)\")": 766,
      "29": 767,
      "List": 768,
      "▁అ": 769,
      "ep": 770,
      "ి.": 771,
      "▁by": 772,
      "ount": 773,
      "orld": 774,
      "ust": 775,
      "▁In": 776,
      "http://": 777,
      "▁for": 778,
      "ud": 779,
      "15": 780,
      "▁[\"": 781,
      "▁ప్ర": 782,
      "archive.org/": 783,
      "40": 784,
      "ిక": 785,
      "im": 786,
      "Metcalf": 787,
      "पु": 788,
      "स्": 789,
      "తం": 790,
      "▁g": 791,
      "with": 792,
      "13": 793,
      "▁त": 794,
      "▁p.": 795,
      "ational": 796,
      "ain": 797,
      "▁ar": 798,
      "▁\"C": 799,
      "17": 800,
      "▁is": 801,
      "web.": 802,
      "versity": 803,
      "AA": 804,
      "os": 805,
      "ిన": 806,
      "](https://web.": 807,
      "▁[A": 808,
      "జ్యం": 809,
      "मा": 810,
      "web/": 811,
      "archive.org/web/": 812,
      "](https://web.archive.org/web/": 813,
      "ens": 814,
      "ha": 815,
      "ची": 816,
      "री": 817,
      "](https://en.wikipedia.org/wiki/S": 818,
      "books": 819,
      "▁./": 820,
      "16": 821,
      "goo": 822,
      "har": 823,
      "umb": 824,
      "gle": 825,
      "ts": 826,
      "▁ग": 827,
      "27": 828,
      "జా": 829,
      "▁Indian": 830,
      "_and": 831,
      "णी": 832,
      "Har": 833,
      "err": 834,
      "ంచ": 835,
      "కు": 836,
      "id=": 837,
      "था": 838,
      "▁O": 839,
      "##": 840,
      "_C": 841,
      "ड़": 842,
      "ष्ट": 843,
      "](https://te.wikipedia.org/wiki/భారతదేశం": 844,
      "▁L": 845,
      "'s": 846,
      "google": 847,
      "error": 848,
      "ను": 849,
      "పూ": 850,
      "14": 851,
      "?id=": 852,
      "late": 853,
      "భా": 854,
      "▁[ISBN": 855,
      "books.": 856,
      ".com/books": 857,
      "_in_India": 858,
      "google.com/books": 859,
      "books.google.com/books": 860,
      "-9": 861,
      "▁[C": 862,
      "▁Asia": 863,
      "books.google.com/books?id=": 864,
      "▁K": 865,
      "ap": 866,
      "_P": 867,
      "ప్ర": 868,
      "▁\"ISBN": 869,
      "ISBN_(identifier)": 870,
      "gov": 871,
      "ng": 872,
      "▁W": 873,
      "▁उ": 874,
      "▁[978": 875,
      "inal": 876,
      "▁को": 877,
      "*.": 878,
      "ाद": 879,
      "ద్": 880,
      "ింద": 881,
      "▁ए": 882,
      "](https://en.wikipedia.org/wiki/C": 883,
      "ष्ट्र": 884,
      "mons": 885,
      "nd": 886,
      "px": 887,
      "media": 888,
      "av": 889,
      "uc": 890,
      "▁ఉ": 891,
      "का": 892,
      "ం:": 893,
      "▁([": 894,
      "ut": 895,
      "हि": 896,
      "](https://books.google.com/books?id=": 897,
      "▁[म": 898,
      "▁The": 899,
      ".gov": 900,
      "श्रे": 901,
      "University": 902,
      "▁सं": 903,
      "श्रेणी": 904,
      "▁ఆ": 905,
      "▁\"M": 906,
      "ther": 907,
      "]](https://hi.wikipedia.org/wiki/भारत#cite_": 908,
      "per": 909,
      "de": 910,
      "ff": 911,
      "ने": 912,
      "प्र": 913,
      "▁[*": 914,
      "do": 915,
      "श्रेणी:": 916,
      "िल": 917,
      "ेत्र": 918,
      "s/": 919,
      "](S": 920,
      "▁ర": 921,
      "▁पर": 922,
      "ort": 923,
      "ong": 924,
      "_म": 925,
      "load": 926,
      "▁[↑](https://en.wikipedia.org/wiki/India#cite_ref-FOOTNOTE": 927,
      "p.": 928,
      ".wikimedia": 929,
      "▁be": 930,
      "commons": 931,
      "upload": 932,
      "म्": 933,
      "మా": 934,
      "▁సా": 935,
      "భారతీయ": 936,
      "![": 937,
      "వా": 938,
      "▁[M": 939,
      "arg": 940,
      "umm": 941,
      "▁श": 942,
      "pedia/": 943,
      ".org/wikipedia/": 944,
      ".wikimedia.org/wikipedia/": 945,
      "upload.wikimedia.org/wikipedia/": 946,
      "over": 947,
      "ले": 948,
      "రు": 949,
      "](https://upload.wikimedia.org/wikipedia/": 950,
      "thumb": 951,
      "](https://en.wikipedia.org/wiki/M": 952,
      "ance": 953,
      "-2": 954,
      "/thumb": 955,
      "▁है।": 956,
      "/thumb/": 957,
      "सं": 958,
      "▁pp.": 959,
      "](https://upload.wikimedia.org/wikipedia/commons": 960,
      "Category:": 961,
      "s,": 962,
      "వి": 963,
      "ష్ట": 964,
      "▁वि": 965,
      "ార్": 966,
      "्या": 967,
      "పూ.": 968,
      "br": 969,
      "la": 970,
      ")[[": 971,
      "ence": 972,
      "క్ష": 973,
      "_के": 974,
      "▁orig": 975,
      "px-": 976,
      "](https://upload.wikimedia.org/wikipedia/commons/thumb/": 977,
      "ys": 978,
      "rie": 979,
      "िय": 980,
      "](https://en.wikipedia.org/wiki/ISBN_(identifier)": 981,
      "స్థ": 982,
      "రిత్ర": 983,
      ".in/": 984,
      "▁[ISBN](https://en.wikipedia.org/wiki/ISBN_(identifier)": 985,
      "47": 986,
      "PA": 987,
      "▁इ": 988,
      "▁[B": 989,
      "all": 990,
      "▁\"Special:BookSources/978": 991,
      "](Special:BookSources/978": 992,
      "a_": 993,
      "ow": 994,
      "▁\"B": 995,
      "ans": 996,
      "35": 997,
      "▁as": 998,
      "ages": 999,
      "di": 1000,
      "ot": 1001,
      "▁र": 1002,
      "und": 1003,
      "▁original": 1004,
      "-7": 1005,
      "cy": 1006,
      "ear": 1007,
      "lig": 1008,
      "న్న": 1009,
      "सा": 1010,
      "log": 1011,
      "tern": 1012,
      "-5": 1013,
      "art": 1014,
      "▁भाषा": 1015,
      "Harv": 1016,
      "▁I": 1017,
      "errors": 1018,
      "▁st": 1019,
      "1.": 1020,
      "36": 1021,
      "▁\"P": 1022,
      "](https://hi.wikipedia.org/wiki/भारत#cite_ref-": 1023,
      "]](https://hi.wikipedia.org/wiki/भारत#cite_note-": 1024,
      "%2": 1025,
      "aj": 1026,
      "▁with": 1027,
      "▁\"A": 1028,
      "राष्ट्र": 1029,
      "ensus": 1030,
      "%20": 1031,
      "2.": 1032,
      "_D": 1033,
      "त्त": 1034,
      "tein": 1035,
      "ture": 1036,
      "les": 1037,
      "land": 1038,
      "▁Ret": 1039,
      "emp": 1040,
      "&pg": 1041,
      "opul": 1042,
      "](https://te.wikipedia.org/wiki/భారతదేశం#cite_": 1043,
      "rieved": 1044,
      "▁Retrieved": 1045,
      "&pg=": 1046,
      "rchi": 1047,
      "ana": 1048,
      "र्व": 1049,
      "గా": 1050,
      "38": 1051,
      "og": 1052,
      "ంట": 1053,
      "కి": 1054,
      "ere": 1055,
      "_के_": 1056,
      "fn": 1057,
      "ss": 1058,
      "ore": 1059,
      "](https://en.wikipedia.org/wiki/B": 1060,
      "Indian": 1061,
      "्षेत्र": 1062,
      "conom": 1063,
      "_M": 1064,
      "మ్రా": 1065,
      "▁\"म": 1066,
      "](https://web.archive.org/web/201": 1067,
      "ష్ట్ర": 1068,
      ".p": 1069,
      "omm": 1070,
      "70": 1071,
      "ంత": 1072,
      "ummit": 1073,
      "ी](https://hi.wikipedia.org/wiki/": 1074,
      "titu": 1075,
      "▁सा": 1076,
      "ll": 1077,
      "ज़": 1078,
      "ine": 1079,
      "ates": 1080,
      "&pg=PA": 1081,
      "ile": 1082,
      "](https://en.wikipedia.org/wiki/P": 1083,
      ".jp": 1084,
      "_T": 1085,
      "ी_": 1086,
      "పు": 1087,
      "ht": 1088,
      "](http://": 1089,
      "▁\"T": 1090,
      "2006": 1091,
      "िस": 1092,
      "▁న": 1093,
      "ries": 1094,
      "ी\")": 1095,
      "2018": 1096,
      "opulation": 1097,
      "ric": 1098,
      "మి": 1099,
      "ాన": 1100,
      "▁University": 1101,
      "▁[P": 1102,
      "ism": 1103,
      "ass": 1104,
      ".jpg)": 1105,
      "nment": 1106,
      "oc": 1107,
      "ue": 1108,
      "▁&": 1109,
      "2011": 1110,
      "जा": 1111,
      "ूची": 1112,
      "పా": 1113,
      "▁ఇ": 1114,
      "▁త": 1115,
      "భాష": 1116,
      "rchived": 1117,
      "ai": 1118,
      "पा": 1119,
      "ani": 1120,
      "▁*[": 1121,
      ".jpg/": 1122,
      "39": 1123,
      "nic": 1124,
      "कार": 1125,
      "▁no": 1126,
      "temp": 1127,
      "▁was": 1128,
      "48": 1129,
      "िम": 1130,
      "ubl": 1131,
      "language": 1132,
      "పాల": 1133,
      "లీ": 1134,
      "ord": 1135,
      "ank": 1136,
      "ard": 1137,
      "▁de": 1138,
      "स्तान": 1139,
      "*](https://books.google.com/books?id=": 1140,
      "60": 1141,
      "ire": 1142,
      "ke": 1143,
      "मन": 1144,
      "▁Category:": 1145,
      "indu": 1146,
      "/https://": 1147,
      "ंड": 1148,
      "▁దేశ": 1149,
      "▁\"E": 1150,
      "స్తా": 1151,
      "istory": 1152,
      "हिन्द": 1153,
      "गर": 1154,
      "▁ल": 1155,
      "▁language": 1156,
      "▁ex": 1157,
      "हा": 1158,
      "వర్": 1159,
      "ాయ": 1160,
      "▁an": 1161,
      "▁राज्य": 1162,
      "\"))": 1163,
      "▁are": 1164,
      "यु": 1165,
      "\").\n": 1166,
      "-10": 1167,
      "tics": 1168,
      "anguages": 1169,
      "-6": 1170,
      "ies": 1171,
      "se": 1172,
      "](https://www.": 1173,
      "](https://en.wikipedia.org/wiki/A": 1174,
      "eral": 1175,
      "to": 1176,
      "▁भ": 1177,
      "ach": 1178,
      "_and_": 1179,
      "మ్రాజ్యం": 1180,
      "77": 1181,
      "्च": 1182,
      "ont": 1183,
      "](https://en.wikipedia.org/wiki/E": 1184,
      "ations": 1185,
      "ountries": 1186,
      "0%": 1187,
      "▁\"D": 1188,
      "▁\"List": 1189,
      "దేశ్": 1190,
      "विश": 1191,
      "CS": 1192,
      "क्त": 1193,
      "ेल": 1194,
      "esh": 1195,
      "sher": 1196,
      "34": 1197,
      "9.": 1198,
      "ం](https://te.wikipedia.org/wiki/": 1199,
      "▁r": 1200,
      "▁\"G": 1201,
      "](https://en.wikipedia.org/wiki/T": 1202,
      "onstitu": 1203,
      "als": 1204,
      "श्रेणी:Harv": 1205,
      "%2C": 1206,
      "ीप": 1207,
      "ంబ": 1208,
      "టి": 1209,
      "iss": 1210,
      "ata": 1211,
      "ंग्रे": 1212,
      "90": 1213,
      "ोल": 1214,
      "▁it": 1215,
      "▁क्षेत्र": 1216,
      "2010": 1217,
      "Stein": 1218,
      "ంలో": 1219,
      "ian": 1220,
      "tem": 1221,
      "▁Press": 1222,
      "▁हैं": 1223,
      "స్తాన్": 1224,
      "_b": 1225,
      "धान": 1226,
      "List_of_": 1227,
      "vi": 1228,
      "గు": 1229,
      "డు": 1230,
      "నే": 1231,
      "్చ": 1232,
      "▁[G": 1233,
      "](https://en.wikipedia.org/wiki/D": 1234,
      "ical": 1235,
      "र्म": 1236,
      "▁whi": 1237,
      "AJ": 1238,
      "_G": 1239,
      "_R": 1240,
      "▁V": 1241,
      "ford": 1242,
      "BAJ": 1243,
      "QBAJ": 1244,
      "पर": 1245,
      "మూ": 1246,
      "▁\"N": 1247,
      "्रा": 1248,
      "్రీ": 1249,
      "_Asia": 1250,
      "udd": 1251,
      "జాత": 1252,
      "4.": 1253,
      "45": 1254,
      "_N": 1255,
      "ex": 1256,
      "द्": 1257,
      "ृत": 1258,
      "▁[![": 1259,
      "▁मे": 1260,
      "_s": 1261,
      "aki": 1262,
      "hin": 1263,
      "other": 1264,
      "िण": 1265,
      "లా": 1266,
      "eng": 1267,
      "omp": 1268,
      "ంగా": 1269,
      "_B": 1270,
      "xford": 1271,
      "ers": 1272,
      "artic": 1273,
      "▁[↑](https://hi.wikipedia.org/wiki/भारत#cite_ref-": 1274,
      "econ": 1275,
      "46": 1276,
      "7.": 1277,
      "a\")": 1278,
      "ven": 1279,
      "డ్": 1280,
      "ిల్": 1281,
      "▁జ": 1282,
      "tim": 1283,
      "ern": 1284,
      "ess": 1285,
      "arget": 1286,
      "RI": 1287,
      "hm": 1288,
      "ral": 1289,
      "िर": 1290,
      "ेष": 1291,
      "▁[अ": 1292,
      "tive": 1293,
      "-0-19": 1294,
      "ction": 1295,
      "oli": 1296,
      "कि": 1297,
      "లి": 1298,
      "▁१": 1299,
      "▁[N": 1300,
      "స్త్ర": 1301,
      "▁अन": 1302,
      "AAQBAJ": 1303,
      "htm": 1304,
      "3.": 1305,
      "ions": 1306,
      "वा": 1307,
      "▁[D": 1308,
      "▁\"अ": 1309,
      "lop": 1310,
      "stan": 1311,
      "df": 1312,
      "ib": 1313,
      "ik": 1314,
      "కా": 1315,
      "ణా": 1316,
      "దక్ష": 1317,
      "ధిక": 1318,
      "end": 1319,
      "▁\"स": 1320,
      "▁कर": 1321,
      "▁(P": 1322,
      "▁ప్రా": 1323,
      "▁వి": 1324,
      "సియా": 1325,
      "क्षिण": 1326,
      "జాతీయ": 1327,
      ",_": 1328,
      "-p": 1329,
      "6.": 1330,
      "au": 1331,
      "rou": 1332,
      "से": 1333,
      "MetcalfMetcalf": 1334,
      "37": 1335,
      "5.": 1336,
      "వం": 1337,
      "▁[भारत": 1338,
      "▁\"R": 1339,
      "](https://hi.wikipedia.org/wiki/म": 1340,
      ").\n": 1341,
      "▁2011": 1342,
      "▁సం": 1343,
      "▁చరిత్ర": 1344,
      "/http://": 1345,
      "iv": 1346,
      "▁\"क": 1347,
      "](https://en.wikipedia.org/wiki/G": 1348,
      "](https://en.wikipedia.org/wiki/R": 1349,
      "ult": 1350,
      "india.gov": 1351,
      "1)": 1352,
      "49": 1353,
      "_p": 1354,
      "డి": 1355,
      "▁–": 1356,
      "ark": 1357,
      "riti": 1358,
      "ीय_": 1359,
      "indi": 1360,
      "cont": 1361,
      "▁which": 1362,
      "ंध": 1363,
      "धार": 1364,
      "▁[2": 1365,
      "▁[E": 1366,
      "▁[स": 1367,
      "ంధ": 1368,
      "](https://en.wikipedia.org/wiki/N": 1369,
      "his": 1370,
      "ame": 1371,
      "ाना": 1372,
      "స్త": 1373,
      "▁రాజ్యం": 1374,
      "▁సామ్రాజ్యం": 1375,
      "వర్గ": 1376,
      "దక్షి": 1377,
      "ोत": 1378,
      "United": 1379,
      "▁एक": 1380,
      "ope": 1381,
      "దీ": 1382,
      "▁[1": 1383,
      "ingh": 1384,
      "-1)": 1385,
      "ండి": 1386,
      "ublic": 1387,
      "వర్గం:": 1388,
      "ath": 1389,
      "▁li": 1390,
      "▁[T": 1391,
      "](https://en.wikipedia.org/wiki/List_of_": 1392,
      "out": 1393,
      "▁South": 1394,
      "▁De": 1395,
      "▁ने": 1396,
      "DP": 1397,
      "cl": 1398,
      "ob": 1399,
      "भि": 1400,
      "తర": 1401,
      "ది": 1402,
      "▁బ": 1403,
      "▁[R": 1404,
      "▁[क": 1405,
      "▁\"ब": 1406,
      "territ": 1407,
      "8.": 1408,
      "DF": 1409,
      "bot": 1410,
      "fe": 1411,
      "ूल": 1412,
      "ोग": 1413,
      "▁ma": 1414,
      "ties": 1415,
      "icial": 1416,
      "▁India's": 1417,
      "250": 1418,
      "df)": 1419,
      "3)": 1420,
      "new": 1421,
      "ట్": 1422,
      "ిత": 1423,
      "▁पु": 1424,
      "▁प्रदेश": 1425,
      "▁has": 1426,
      "▁that": 1427,
      "विशेष": 1428,
      "RICS": 1429,
      "सभ": 1430,
      "▁ति": 1431,
      "pend": 1432,
      "albot": 1433,
      "ree": 1434,
      "ous": 1435,
      "ational_": 1436,
      "▁\"भारतीय": 1437,
      "▁[Archived": 1438,
      "_చ": 1439,
      "gen": 1440,
      "sv": 1441,
      "sland": 1442,
      "ty": 1443,
      "जन": 1444,
      "्स": 1445,
      "ం\")": 1446,
      "▁\"మ": 1447,
      "ration": 1448,
      "▁pro": 1449,
      "ange": 1450,
      "ింది.": 1451,
      "लेख": 1452,
      "▁(PDF": 1453,
      ")\")": 1454,
      "56": 1455,
      "000": 1456,
      "ile:": 1457,
      "120": 1458,
      "4%": 1459,
      "80": 1460,
      "Asher": 1461,
      "E0%": 1462,
      "दी": 1463,
      "धिक": 1464,
      "▁य": 1465,
      "▁ఎ": 1466,
      "▁199": 1467,
      "▁[ब": 1468,
      "▁[మ": 1469,
      "inist": 1470,
      "ali": 1471,
      "▁(సా.శ.పూ.": 1472,
      "logy": 1473,
      "▁भाषा\")": 1474,
      "ंद": 1475,
      "ंत्र": 1476,
      "िट": 1477,
      "▁च": 1478,
      "्री": 1479,
      "▁जन": 1480,
      "File:": 1481,
      "_1": 1482,
      "ah": 1483,
      "eg": 1484,
      "iki": 1485,
      "थि": 1486,
      "मी": 1487,
      "ధ్య": 1488,
      "▁గ": 1489,
      "▁శ": 1490,
      "▁\"In": 1491,
      "aste": 1492,
      "rad": 1493,
      "ంద్ర": 1494,
      "▁देश": 1495,
      "ountry": 1496,
      ".pdf)": 1497,
      "onstitution": 1498,
      "विशेष:": 1499,
      "ूर्व": 1500,
      "▁5": 1501,
      "▁\"H": 1502,
      "velop": 1503,
      "AAQBAJ&pg=PA": 1504,
      "..": 1505,
      "ost": 1506,
      "ైన": 1507,
      "▁3": 1508,
      "](https://te.wikipedia.org/wiki/మ": 1509,
      "2009": 1510,
      "▁పే": 1511,
      "10.": 1512,
      "ritish": 1513,
      "_E": 1514,
      "िश": 1515,
      "idge": 1516,
      "rap": 1517,
      "ated": 1518,
      "mpire": 1519,
      "▁तथा": 1520,
      "\"\n": 1521,
      "man": 1522,
      "ज्": 1523,
      "नी": 1524,
      "ట్ట": 1525,
      "హింద": 1526,
      "▁ख": 1527,
      "▁భారతదేశం": 1528,
      "](File:": 1529,
      "hist": 1530,
      "ack": 1531,
      "ంగ్": 1532,
      "elhi": 1533,
      "ద్ధ": 1534,
      "-s": 1535,
      "43": 1536,
      "ove": 1537,
      "ta": 1538,
      "मे": 1539,
      "हास": 1540,
      "▁pe": 1541,
      "▁at": 1542,
      "▁[K": 1543,
      "](https://hi.wikipedia.org/wiki/क": 1544,
      "▁cent": 1545,
      "▁भारतीय": 1546,
      "स्क": 1547,
      "hy": 1548,
      "ించ": 1549,
      "▁ఒ": 1550,
      "▁భాష": 1551,
      "▁[క": 1552,
      "ాల్": 1553,
      "2004": 1554,
      "ames": 1555,
      "amil": 1556,
      "](https://en.wikipedia.org/wiki/India#cite_ref-FOOTNOTE": 1557,
      "-0-5": 1558,
      ".jpg)\n": 1559,
      "ansk": 1560,
      "MetcalfMetcalf2006": 1561,
      "▁तिथि": 1562,
      "velopment": 1563,
      "-b": 1564,
      "85": 1565,
      "गमन": 1566,
      "▁ध": 1567,
      "्वीप": 1568,
      "outh_Asia": 1569,
      "econom": 1570,
      "\"](https://web.archive.org/web/201": 1571,
      "/978": 1572,
      "2)": 1573,
      "]](https://te.wikipedia.org/wiki/భారతదేశం#cite_": 1574,
      "hand": 1575,
      "na": 1576,
      "ढ़": 1577,
      "द्य": 1578,
      "मान": 1579,
      "ी_स": 1580,
      "చ్చ": 1581,
      "జీ": 1582,
      "ేంద్ర": 1583,
      "▁v": 1584,
      "▁\"K": 1585,
      "▁\"క": 1586,
      "▁\"The": 1587,
      "usic": 1588,
      "पुर": 1589,
      "do-": 1590,
      "म्ब": 1591,
      "times": 1592,
      "anskrit": 1593,
      "%E0%": 1594,
      "33": 1595,
      "RC": 1596,
      "duc": 1597,
      "ite": 1598,
      "qu": 1599,
      "ँच": 1600,
      "गु": 1601,
      "ून": 1602,
      "्ड": 1603,
      "्ल": 1604,
      "▁\"Indian": 1605,
      "](https://en.wikipedia.org/wiki/H": 1606,
      "](https://en.wikipedia.org/wiki/In": 1607,
      "2007": 1608,
      "▁2014": 1609,
      "emplate": 1610,
      "वं": 1611,
      "త్య": 1612,
      "బ్": 1613,
      "మీ": 1614,
      "▁[the": 1615,
      "isation": 1616,
      "](https://te.wikipedia.org/wiki/ద": 1617,
      "్యా": 1618,
      "ury": 1619,
      "రాష్ట్ర": 1620,
      "▁./వర్గం:": 1621,
      "bridge": 1622,
      "conomy": 1623,
      "▁its": 1624,
      "▁तिथि:": 1625,
      "census": 1626,
      "oh": 1627,
      "s\")": 1628,
      "▁te": 1629,
      "▁un": 1630,
      "▁राज": 1631,
      "orth": 1632,
      "ome": 1633,
      "ambridge": 1634,
      "gover": 1635,
      "द्ध": 1636,
      "html": 1637,
      "-d": 1638,
      "67": 1639,
      "ef": 1640,
      "world": 1641,
      "त्": 1642,
      "पाल": 1643,
      "रब": 1644,
      "रकार": 1645,
      "ంక": 1646,
      "ప్": 1647,
      "యు": 1648,
      "▁[H": 1649,
      "any": 1650,
      "ase": 1651,
      "lection": 1652,
      "ater": 1653,
      "lion": 1654,
      "row": 1655,
      "▁अभि": 1656,
      "తంత్ర": 1657,
      "](https://te.wikipedia.org/wiki/భారతదేశం#cite_ref-": 1658,
      "roup": 1659,
      "దక్షిణ": 1660,
      "]](https://te.wikipedia.org/wiki/భారతదేశం#cite_note-": 1661,
      "▁अभिगमन": 1662,
      "12": 1663,
      "Oxford": 1664,
      "World": 1665,
      "हर": 1666,
      "ुस": 1667,
      "ोक": 1668,
      "▁U": 1669,
      "inent": 1670,
      "्रोत": 1671,
      "▁स्": 1672,
      "ril": 1673,
      "matics": 1674,
      "ulture": 1675,
      "▁reg": 1676,
      "yson": 1677,
      ".nic": 1678,
      "/c": 1679,
      "4)": 1680,
      "IN": 1681,
      "_స": 1682,
      "ave": 1683,
      "dit": 1684,
      "hr": 1685,
      "lia": 1686,
      "ug": 1687,
      "ुख": 1688,
      "తము": 1689,
      "వే": 1690,
      "ష్": 1691,
      "ాన్": 1692,
      "▁4": 1693,
      "alth": 1694,
      "▁(201": 1695,
      "స్క": 1696,
      "ligion": 1697,
      "▁हैं।": 1698,
      "ిల్లీ": 1699,
      "किस्तान": 1700,
      "_language": 1701,
      "lish": 1702,
      "mer": 1703,
      "ती": 1704,
      "▁7": 1705,
      "](https://en.wikipedia.org/wiki/K": 1706,
      "ashm": 1707,
      "▁cont": 1708,
      "uring": 1709,
      "िका": 1710,
      "▁wh": 1711,
      "ign": 1712,
      "▁जा": 1713,
      "▁languages": 1714,
      "overnment": 1715,
      "dition": 1716,
      "राष्ट्रीय": 1717,
      "_by": 1718,
      "akistan": 1719,
      "led": 1720,
      "pu": 1721,
      "न\")": 1722,
      "न्त": 1723,
      "జి": 1724,
      "ధాన": 1725,
      "బె": 1726,
      "▁[L": 1727,
      "alay": 1728,
      "ారు": 1729,
      "2005": 1730,
      "▁కా": 1731,
      "स्तक": 1732,
      "▁రాజ": 1733,
      "पुस्तक": 1734,
      "AARC": 1735,
      "▁[978-1": 1736,
      "late_": 1737,
      "ograp": 1738,
      "/https://www.": 1739,
      "विशेष:पुस्तक": 1740,
      "्रोत/978": 1741,
      "Dw": 1742,
      "दक्षिण": 1743,
      "ष्": 1744,
      "िव": 1745,
      "▁ad": 1746,
      "▁\"प": 1747,
      "urope": 1748,
      "▁18": 1749,
      "▁mil": 1750,
      "िया\")": 1751,
      "radesh": 1752,
      "-m": 1753,
      "65": 1754,
      "ati": 1755,
      "port": 1756,
      "द्र": 1757,
      "हार": 1758,
      "దు": 1759,
      "మ్": 1760,
      "శ్": 1761,
      "](https://hi.wikipedia.org/wiki/स": 1762,
      "](https://te.wikipedia.org/wiki/క": 1763,
      "▁सम": 1764,
      "▁sub": 1765,
      "్యవ": 1766,
      "hel": 1767,
      "▁were": 1768,
      "ంది.": 1769,
      "irst": 1770,
      "▁History": 1771,
      "▁2021": 1772,
      "template": 1773,
      "Stein2010": 1774,
      "_చరిత్ర": 1775,
      "6)": 1776,
      "mber": 1777,
      "ित्र": 1778,
      "▁le": 1779,
      "anc": 1780,
      "▁सूची": 1781,
      "र्थ": 1782,
      "1998": 1783,
      "ound": 1784,
      "▁Hindu": 1785,
      "odern": 1786,
      "###": 1787,
      "doi": 1788,
      "▁इस": 1789,
      "conomic": 1790,
      "government": 1791,
      ".;": 1792,
      ".sv": 1793,
      "05": 1794,
      "62": 1795,
      "A4%": 1796,
      "_प्र": 1797,
      "ण्ड": 1798,
      "ఢిల్లీ": 1799,
      "పంచ": 1800,
      "▁[In": 1801,
      "▁\"L": 1802,
      "ారి": 1803,
      "\\_S": 1804,
      "une": 1805,
      "त्तर": 1806,
      "మూస": 1807,
      "▁मेला": 1808,
      "\"](https://www.": 1809,
      "-t": 1810,
      "-india": 1811,
      "_भारत": 1812,
      "por": 1813,
      "uary": 1814,
      "▁8": 1815,
      "\")*": 1816,
      "erv": 1817,
      "ese": 1818,
      "्रिट": 1819,
      "ice": 1820,
      "रालेख": 1821,
      "▁Ap": 1822,
      "tical": 1823,
      "age/": 1824,
      "ght": 1825,
      "continent": 1826,
      "0.": 1827,
      "_F": 1828,
      "dom": 1829,
      "gan": 1830,
      "mb": 1831,
      "oi": 1832,
      "tates": 1833,
      "val": 1834,
      "వు": 1835,
      "▁\"భారతీయ": 1836,
      "ined": 1837,
      "](https://hi.wikipedia.org/wiki/च": 1838,
      "▁हु": 1839,
      "_की_स": 1840,
      "_में": 1841,
      ".jpg)](File:": 1842,
      "ission": 1843,
      "59": 1844,
      "_m": 1845,
      "_the": 1846,
      "ms": 1847,
      "गण": 1848,
      "ते": 1849,
      "मिल": 1850,
      "ीन": 1851,
      "▁2": 1852,
      "](https://hi.wikipedia.org/wiki/अ": 1853,
      "cies": 1854,
      "2003": 1855,
      "\").[[": 1856,
      "▁वर्": 1857,
      "ंग्रेज़": 1858,
      "ज्ञ": 1859,
      "रालेखित": 1860,
      "/p": 1861,
      "69": 1862,
      "PP": 1863,
      "Wiki": 1864,
      "_c": 1865,
      "జన": 1866,
      "టు": 1867,
      "టె": 1868,
      "▁26": 1869,
      "](https://en.wikipedia.org/wiki/Indian_": 1870,
      "rate": 1871,
      "2008": 1872,
      "▁Comm": 1873,
      "old": 1874,
      "नाम": 1875,
      "▁చె": 1876,
      "నాయ": 1877,
      "–సా.శ.పూ.": 1878,
      "▁./श्रेणी:": 1879,
      "▁Asian": 1880,
      "▁ఆర్": 1881,
      "![](https://upload.wikimedia.org/wikipedia/commons/thumb/": 1882,
      "ystem": 1883,
      "పాలిత": 1884,
      "▁भी": 1885,
      "స్త్రం:": 1886,
      "▁ప్రాంత": 1887,
      "inistry": 1888,
      "-0-521": 1889,
      "ేంద్రపాలిత": 1890,
      "](https://te.wikipedia.org/wiki/దస్త్రం:": 1891,
      ".nic.in/": 1892,
      "Talbot": 1893,
      "air": 1894,
      "vis": 1895,
      "के": 1896,
      "थान": 1897,
      "ध्य": 1898,
      "ा_": 1899,
      "ूप": 1900,
      "▁[प": 1901,
      "on-": 1902,
      "▁सरकार": 1903,
      "usin": 1904,
      "uly": 1905,
      "AsherTalbot": 1906,
      "-g": 1907,
      "/artic": 1908,
      "7)": 1909,
      "Edit": 1910,
      "Page/": 1911,
      "aw": 1912,
      "mund": 1913,
      "फ़": 1914,
      "ूर": 1915,
      "ఖ్య": 1916,
      "గో": 1917,
      "తో": 1918,
      "బి": 1919,
      "హి": 1920,
      "▁घ": 1921,
      "ories": 1922,
      "▁\"F": 1923,
      "ant": 1924,
      "](https://en.wikipedia.org/wiki/L": 1925,
      "ari": 1926,
      "arch": 1927,
      "](https://hi.wikipedia.org/wiki/ब": 1928,
      "ood": 1929,
      "▁ch": 1930,
      "](https://web.archive.org/web/20": 1931,
      "othermund": 1932,
      "india.gov.in/": 1933,
      "స్కృ": 1934,
      "EditPage/": 1935,
      "-in": 1936,
      "ail": 1937,
      "shi": 1938,
      "▁territ": 1939,
      "ork": 1940,
      "ise": 1941,
      "ace": 1942,
      "](https://hi.wikipedia.org/wiki/भारत_में": 1943,
      "ulke": 1944,
      "250px-": 1945,
      "1_": 1946,
      "330": 1947,
      "5)": 1948,
      "_ప": 1949,
      "_भाषा": 1950,
      "fter": 1951,
      "lass": 1952,
      "o-": 1953,
      "uk": 1954,
      "year": 1955,
      "ख्या": 1956,
      "जी": 1957,
      "रु": 1958,
      "श्च": 1959,
      "हु": 1960,
      "ा:": 1961,
      "హా": 1962,
      "ి.\n": 1963,
      "▁२": 1964,
      "▁ను": 1965,
      "▁జాతీయ": 1966,
      "\"))\n": 1967,
      "ister": 1968,
      "omb": 1969,
      "197": 1970,
      "rib": 1971,
      "ats": 1972,
      "न्न": 1973,
      "न्द्र": 1974,
      "ustry": 1975,
      "%20%20": 1976,
      "్యవస్థ": 1977,
      "श्चिम": 1978,
      "▁ri": 1979,
      "▁[उ": 1980,
      "eneral": 1981,
      "▁2010": 1982,
      "Union": 1983,
      "चीन": 1984,
      "_and_S": 1985,
      "▁April": 1986,
      "-l": 1987,
      "1,": 1988,
      "58": 1989,
      "yn": 1990,
      "कर": 1991,
      "ङ्": 1992,
      "जरा": 1993,
      "ूच": 1994,
      "డా": 1995,
      "దా": 1996,
      "బడ": 1997,
      "మే": 1998,
      "రణ": 1999,
      "▁లో": 2000,
      "▁25": 2001,
      "ority": 2002,
      "](https://en.wikipedia.org/wiki/F": 2003,
      "2014": 2004,
      "entre": 2005,
      "aman": 2006,
      "\\_and": 2007,
      "\\_errors": 2008,
      "umber": 2009,
      "▁17": 2010,
      "▁కూ": 2011,
      "ాలు,": 2012,
      "isher": 2013,
      "▁రాష్ట్ర": 2014,
      "ower": 2015,
      "earch": 2016,
      "కిస్తాన్": 2017,
      "](http://www.": 2018,
      "▁చరిత్ర\")": 2019,
      "%E0%A4%": 2020,
      "help": 2021,
      "8/": 2022,
      "[![](https://upload.wikimedia.org/wikipedia/commons/thumb/": 2023,
      "_H": 2024,
      "_L": 2025,
      "national": 2026,
      "uch": 2027,
      "ugh": 2028,
      "एस": 2029,
      "ोर": 2030,
      "▁[F": 2031,
      "edi": 2032,
      "▁India,": 2033,
      "▁An": 2034,
      "low": 2035,
      "▁हो": 2036,
      "▁2007": 2037,
      "युक्त": 2038,
      "ुसार": 2039,
      "ashmir": 2040,
      "्रिटिश": 2041,
      "1/": 2042,
      "57": 2043,
      "C&pg=PA": 2044,
      "uj": 2045,
      "ैद": 2046,
      "▁ఈ": 2047,
      "▁ag": 2048,
      "▁భారత": 2049,
      "▁errors": 2050,
      "▁मान": 2051,
      "lim": 2052,
      "▁15": 2053,
      "త్రి": 2054,
      "ాలు\")": 2055,
      "ాలు](https://te.wikipedia.org/wiki/": 2056,
      "igh": 2057,
      "emb": 2058,
      "_Indian_": 2059,
      "▁तक": 2060,
      "▁./Category:": 2061,
      "nglish": 2062,
      "▁World": 2063,
      "▁([help": 2064,
      "ongress": 2065,
      "▁\"Special:BookSources/978-1": 2066,
      "](Special:BookSources/978-1": 2067,
      "साँच": 2068,
      "▁Island": 2069,
      "जाब": 2070,
      "emplate:": 2071,
      "▁errors\"))\n": 2072,
      "-c": 2073,
      ".\"\n": 2074,
      "100": 2075,
      "9)": 2076,
      "Singh": 2077,
      "a,": 2078,
      "aper": 2079,
      "शिया": 2080,
      "▁[W": 2081,
      "act": 2082,
      "▁countries": 2083,
      "uman": 2084,
      "](https://hi.wikipedia.org/wiki/भारतीय_": 2085,
      "▁Empire": 2086,
      "▁New": 2087,
      "ople": 2088,
      "▁July": 2089,
      "▁Asia\")": 2090,
      "पाकिस्तान": 2091,
      "स्कृत": 2092,
      "68": 2093,
      "_క": 2094,
      "cre": 2095,
      "du": 2096,
      "fn_": 2097,
      "ober": 2098,
      "सम": 2099,
      "తు": 2100,
      "పతి": 2101,
      "▁ని": 2102,
      "▁error": 2103,
      "▁స్థ": 2104,
      "▁template": 2105,
      "king": 2106,
      "ori": 2107,
      "▁[అ": 2108,
      "▁[ప": 2109,
      "▁\"उ": 2110,
      "▁\"భారతదేశం": 2111,
      "్రి": 2112,
      "ley": 2113,
      "no-t": 2114,
      "\\_no-t": 2115,
      "▁Sfn": 2116,
      "▁target": 2117,
      "ర్వ": 2118,
      "న్ని": 2119,
      "▁Pres": 2120,
      "ों_की_स": 2121,
      "▁नि": 2122,
      "imes": 2123,
      "fn\\_no-t": 2124,
      "మిళ": 2125,
      "▁not": 2126,
      "template_": 2127,
      "arget\\_errors": 2128,
      "వంశ": 2129,
      "ledge": 2130,
      "DwAAQBAJ&pg=PA": 2131,
      "\\_Sfn\\_no-t": 2132,
      "_and_Sfn_": 2133,
      "\\_and\\_Sfn\\_no-t": 2134,
      "▁error:": 2135,
      "▁target:": 2136,
      "template_errors": 2137,
      "arget\\_errors\n": 2138,
      "_and_Sfn_template_errors": 2139,
      "\\_and\\_Sfn\\_no-target\\_errors\n": 2140,
      "121": 2141,
      "gy": 2142,
      "ph": 2143,
      "ution": 2144,
      "ves": 2145,
      "ंब": 2146,
      "ओं": 2147,
      "प्त": 2148,
      "ब्": 2149,
      "ीं": 2150,
      "ुल": 2151,
      "int": 2152,
      "off": 2153,
      "](https://hi.wikipedia.org/wiki/प": 2154,
      "lear": 2155,
      "▁cons": 2156,
      "▁CITEREF": 2157,
      "▁tra": 2158,
      "▁\"South": 2159,
      "iron": 2160,
      "▁this": 2161,
      "▁उप": 2162,
      "▁विश": 2163,
      "]](https://hi.wikipedia.org/wiki/भारत#cite_note-FOOTNOTE": 2164,
      "ummit\")": 2165,
      "news/": 2166,
      "2_": 2167,
      "_మ": 2168,
      "_భాష": 2169,
      "att": 2170,
      "dus": 2171,
      "data": 2172,
      "ocial": 2173,
      "ure": 2174,
      "ఫ్": 2175,
      "▁స్": 2176,
      "▁government": 2177,
      "▁[J": 2178,
      "▁[బ": 2179,
      "▁[స": 2180,
      "▁\"J": 2181,
      "▁\"అ": 2182,
      "▁किया": 2183,
      "cient": 2184,
      "ed.": 2185,
      "1947": 2186,
      "ide": 2187,
      "rab": 2188,
      "ram": 2189,
      "న్నాయ": 2190,
      "▁Pro": 2191,
      "▁हि": 2192,
      "▁10": 2193,
      "line": 2194,
      "▁కాల": 2195,
      "ाली": 2196,
      "ect": 2197,
      "▁have": 2198,
      "ులు](https://te.wikipedia.org/wiki/": 2199,
      "eptem": 2200,
      "▁రై": 2201,
      "_के_राज्य": 2202,
      ".jpg)](https://te.wikipedia.org/wiki/దస్త్రం:": 2203,
      "▁language\")": 2204,
      "Stein1998": 2205,
      "/http://www.": 2206,
      "धिकार": 2207,
      "ंदिर": 2208,
      "హిందూ": 2209,
      "Singh2009": 2210,
      "eptember": 2211,
      "Dyson": 2212,
      "mar": 2213,
      "pr": 2214,
      "viron": 2215,
      "शास": 2216,
      "▁9": 2217,
      "▁year": 2218,
      "▁[t": 2219,
      "thno": 2220,
      "](https://en.wikipedia.org/wiki/J": 2221,
      "▁into": 2222,
      "▁system": 2223,
      "▁pl": 2224,
      "ालय": 2225,
      "▁प्रा": 2226,
      "_Press": 2227,
      "uclear": 2228,
      "brary": 2229,
      "also": 2230,
      "engal": 2231,
      "▁१९": 2232,
      "ographi": 2233,
      "uropean": 2234,
      "▁सूची\")": 2235,
      "ombined": 2236,
      "vironment": 2237,
      "\"](https://": 2238,
      ",000": 2239,
      "2-0)": 2240,
      "_K": 2241,
      "ote": 2242,
      "pt": 2243,
      "ंजाब": 2244,
      "वन": 2245,
      "श्": 2246,
      "ागर": 2247,
      "ैन": 2248,
      "ఆసియా": 2249,
      "ద్ర": 2250,
      "భూ": 2251,
      "మె": 2252,
      "య్య": 2253,
      "ర్య": 2254,
      "▁ల": 2255,
      "▁us": 2256,
      "▁24": 2257,
      "▁\"ప": 2258,
      "▁\"బ": 2259,
      "▁\"స": 2260,
      "\")*.": 2261,
      "▁off": 2262,
      "▁their": 2263,
      "▁सब": 2264,
      "▁sfn": 2265,
      "▁par": 2266,
      "▁comp": 2267,
      "anges": 2268,
      "map": 2269,
      "▁Pradesh": 2270,
      "▁[↑](https://te.wikipedia.org/wiki/భారతదేశం#cite_ref-": 2271,
      "▁during": 2272,
      "ember": 2273,
      "s.[[": 2274,
      "త్త": 2275,
      "ctober": 2276,
      "▁అధిక": 2277,
      "▁ప్రదేశ్": 2278,
      "▁October": 2279,
      "ప్రదేశ్": 2280,
      "▁[मूल": 2281,
      "_summit": 2282,
      "▁खाना": 2283,
      "330px-": 2284,
      "▁నుండి": 2285,
      "ों_की_सूची": 2286,
      "51": 2287,
      "_re": 2288,
      "countries": 2289,
      "mi": 2290,
      "son": 2291,
      "चल": 2292,
      "ज्य": 2293,
      "नि": 2294,
      "म्रा": 2295,
      "▁k": 2296,
      "▁econom": 2297,
      "inister": 2298,
      "time": 2299,
      "idd": 2300,
      "entral": 2301,
      "▁Archived": 2302,
      "▁Aug": 2303,
      "▁first": 2304,
      "ेंद्र": 2305,
      "याल": 2306,
      "](https://hi.wikipedia.org/wiki/भारत_क": 2307,
      "ill": 2308,
      "▁dis": 2309,
      "210": 2310,
      "▁En": 2311,
      "स्था": 2312,
      "▁गया": 2313,
      "argest": 2314,
      ".jpg/250px-": 2315,
      "▁राज्यों": 2316,
      "▁Press\").": 2317,
      "▁[भारतीय": 2318,
      "outledge": 2319,
      "▁[Archived](https://web.archive.org/web/20": 2320,
      "120px-": 2321,
      "▁August": 2322,
      "-language": 2323,
      "/0": 2324,
      "87": 2325,
      "Combined": 2326,
      "Rothermund": 2327,
      "ee": 2328,
      "fl": 2329,
      "ive": 2330,
      "jab": 2331,
      "ोर्": 2332,
      "ణి": 2333,
      "తమిళ": 2334,
      "మైన": 2335,
      "హార": 2336,
      "ోర్": 2337,
      "▁also": 2338,
      "▁\"ఇ": 2339,
      "▁\"భారత": 2340,
      "ince": 2341,
      "](https://te.wikipedia.org/wiki/బ": 2342,
      "now": 2343,
      "\\_with": 2344,
      "ayan": 2345,
      "▁మొ": 2346,
      "1994": 2347,
      "](https://mai.wikipedia.org/wiki/भारत": 2348,
      "నాగ": 2349,
      "▁2023": 2350,
      "త్తర": 2351,
      "ులు\")": 2352,
      "ffair": 2353,
      "ternational": 2354,
      "▁(PDF)": 2355,
      "శ్మీ": 2356,
      "మూస:": 2357,
      "Dyson2018": 2358,
      "श्मी": 2359,
      "म्राज्य": 2360,
      "%28": 2361,
      "Kulke": 2362,
      "_at": 2363,
      "ban": 2364,
      "ne": 2365,
      "oor": 2366,
      "uis": 2367,
      "ule": 2368,
      "आई": 2369,
      "तमिल": 2370,
      "दा": 2371,
      "िप": 2372,
      "्क": 2373,
      "▁[I": 2374,
      "ond": 2375,
      "one": 2376,
      "India)": 2377,
      "er,": 2378,
      "2023": 2379,
      "cience": 2380,
      "▁con": 2381,
      "-17": 2382,
      "▁September": 2383,
      "▁world": 2384,
      "▁**[": 2385,
      "india/": 2386,
      "तिहास": 2387,
      "formatics": 2388,
      "odi": 2389,
      "▁June": 2390,
      "▁form": 2391,
      "माण": 2392,
      "ियों": 2393,
      "ी_भाषा": 2394,
      "hism": 2395,
      "▁पुरालेखित": 2396,
      "▁region": 2397,
      "liament": 2398,
      "ित्र:": 2399,
      ".svg": 2400,
      "▁Commission": 2401,
      "▁सबसे": 2402,
      "▁पुरालेखित।": 2403,
      "44": 2404,
      "_d": 2405,
      "fr": 2406,
      "ology": 2407,
      "rans": 2408,
      "tal": 2409,
      "की": 2410,
      "रे": 2411,
      "वरी": 2412,
      "िन्": 2413,
      "శా": 2414,
      "ైనా": 2415,
      "▁wi": 2416,
      "▁[ఇ": 2417,
      "▁[सं": 2418,
      "▁\"జ": 2419,
      "annic": 2420,
      "estern": 2421,
      "](https://te.wikipedia.org/wiki/ఇ": 2422,
      "](https://te.wikipedia.org/wiki/స": 2423,
      "etwe": 2424,
      "▁class": 2425,
      "భారత_": 2426,
      "ural": 2427,
      "chno": 2428,
      "రాజ": 2429,
      "▁Th": 2430,
      "▁Re": 2431,
      "లో](https://te.wikipedia.org/wiki/": 2432,
      "ियाँ": 2433,
      "రిజ": 2434,
      "క్కు": 2435,
      "230": 2436,
      "▁बाद": 2437,
      "ండ్": 2438,
      "ritannic": 2439,
      "ishing": 2440,
      "fficial": 2441,
      "िल्ल": 2442,
      "logue": 2443,
      "hina": 2444,
      "](https://hi.wikipedia.org/wiki/चित्र:": 2445,
      "స్కృతి": 2446,
      "\\_with\\_": 2447,
      "etween": 2448,
      "-19": 2449,
      "31": 2450,
      "National_": 2451,
      "iver": 2452,
      "pp": 2453,
      "टी": 2454,
      "मह": 2455,
      "ेव": 2456,
      "ेला": 2457,
      "।[[": 2458,
      "▁per": 2459,
      "wing": 2460,
      "▁कि": 2461,
      "ool": 2462,
      "racy": 2463,
      "▁population": 2464,
      "▁Sh": 2465,
      "adu": 2466,
      "unjab": 2467,
      "▁जिस": 2468,
      "्वत": 2469,
      "्वर": 2470,
      "▁आधार": 2471,
      "स्थान": 2472,
      "University_Press": 2473,
      "▁संघ": 2474,
      "india.gov.in": 2475,
      "▁[Archived](https://web.archive.org/web/201": 2476,
      "▁(PDF).": 2477,
      "history": 2478,
      "▁धर्म": 2479,
      "usiness": 2480,
      "thnologue": 2481,
      "KulkeRothermund": 2482,
      "\".": 2483,
      "/A": 2484,
      "8](https://en.wikipedia.org/wiki/India#CITEREF": 2485,
      "hol": 2486,
      "ibrary": 2487,
      "oast": 2488,
      "च्च": 2489,
      "बंध": 2490,
      "मुख": 2491,
      "ం?action=edit&redlink=1": 2492,
      "చే": 2493,
      "బా": 2494,
      "–1": 2495,
      "▁22": 2496,
      "▁[జ": 2497,
      "▁\"O": 2498,
      "omen": 2499,
      "▁India:": 2500,
      "▁India\"),": 2501,
      "raven": 2502,
      "▁part": 2503,
      "amb": 2504,
      "▁పా": 2505,
      "urr": 2506,
      "](https://hi.wikipedia.org/wiki/भारत#CITEREF": 2507,
      "rop": 2508,
      "oll": 2509,
      "▁వా": 2510,
      "_सं": 2511,
      "ండు": 2512,
      "▁చూ": 2513,
      "త్వ": 2514,
      "aint": 2515,
      "ప్రధాన": 2516,
      "▁है।\n": 2517,
      "▁साथ": 2518,
      "▁తే": 2519,
      ".jpg/330px-": 2520,
      "udden": 2521,
      "gency": 2522,
      "▁subcontinent": 2523,
      "](https://hi.wikipedia.org/wiki/भारत_में_": 2524,
      "▁विश्व": 2525,
      "-re": 2526,
      "-26": 2527,
      "3-0)": 2528,
      "CE": 2529,
      "_%28": 2530,
      "_University_Press": 2531,
      "ual": 2532,
      "ya": 2533,
      "पति": 2534,
      "स्ट": 2535,
      "▁6": 2536,
      "▁res": 2537,
      "▁था": 2538,
      "tec": 2539,
      "▁\"श्रेणी:Harv": 2540,
      "eser": 2541,
      "](https://hi.wikipedia.org/wiki/श्रेणी:Harv": 2542,
      "▁Ass": 2543,
      "▁16": 2544,
      "cember": 2545,
      "▁Metcalf": 2546,
      "▁2024": 2547,
      "▁2006": 2548,
      "क्षेत्र": 2549,
      "epublic": 2550,
      "▁./श्रेणी:Harv": 2551,
      "umbai": 2552,
      "▁गण": 2553,
      "depend": 2554,
      "नेपाल": 2555,
      "ortal": 2556,
      "▁शास": 2557,
      "-2)": 2558,
      ".jpg/120px-": 2559,
      "गुजरा": 2560,
      "_प्रदेश": 2561,
      "embly": 2562,
      "▁([help](https://hi.wikipedia.org/wiki/श्रेणी:Harv": 2563,
      "_and_Sfn_template_errors?action=edit&redlink=1": 2564,
      "iddle": 2565,
      "chnology": 2566,
      "▁./श्रेणी:Harv\\_and\\_Sfn\\_no-target\\_errors\n": 2567,
      "▁([help](https://hi.wikipedia.org/wiki/श्रेणी:Harv_and_Sfn_template_errors?action=edit&redlink=1": 2568,
      "Template:": 2569,
      "_I": 2570,
      "_సా": 2571,
      "cri": 2572,
      "fric": 2573,
      "lad": 2574,
      "ok": 2575,
      "pl": 2576,
      "par": 2577,
      "ron": 2578,
      "णा": 2579,
      "सद": 2580,
      "००": 2581,
      "ంప": 2582,
      "కో": 2583,
      "గణ": 2584,
      "దిన": 2585,
      "నై": 2586,
      "రీ": 2587,
      "▁थ": 2588,
      "▁al": 2589,
      "▁ac": 2590,
      "▁21": 2591,
      "ped": 2592,
      "encies": 2593,
      "▁\"W": 2594,
      "▁\"इ": 2595,
      "▁\"చ": 2596,
      "\"):": 2597,
      "ering": 2598,
      "are": 2599,
      "](https://hi.wikipedia.org/wiki/उ": 2600,
      "edic": 2601,
      "andhi": 2602,
      "](https://te.wikipedia.org/wiki/జ": 2603,
      "ారం": 2604,
      "▁se": 2605,
      "्यट": 2606,
      "note-1": 2607,
      "▁but": 2608,
      "▁between": 2609,
      "loc": 2610,
      "▁Population": 2611,
      "▁more": 2612,
      "ourt": 2613,
      "term": 2614,
      "▁2019": 2615,
      "▁క్రీ": 2616,
      "క్‌": 2617,
      "నికి": 2618,
      "ల్ల": 2619,
      "ంగీ": 2620,
      "▁సి": 2621,
      "నాభా": 2622,
      "able": 2623,
      "▁Jan": 2624,
      "harma": 2625,
      "జాబి": 2626,
      "Harle": 2627,
      "▁been": 2628,
      "▁रूप": 2629,
      "ligi": 2630,
      "view": 2631,
      "▁[![](https://upload.wikimedia.org/wikipedia/commons/thumb/": 2632,
      "▁శా": 2633,
      "▁భాష\")": 2634,
      "బెంగ": 2635,
      "ujar": 2636,
      "జాబితా": 2637,
      "%29": 2638,
      "-20": 2639,
      "4-0)": 2640,
      "8)": 2641,
      "ft": 2642,
      "fil": 2643,
      "mu": 2644,
      "sl": 2645,
      "गढ़": 2646,
      "वे": 2647,
      "ांग": 2648,
      "▁Y": 2649,
      "▁[Indian": 2650,
      "▁[हिन्द": 2651,
      "an\")": 2652,
      "▁कार": 2653,
      "▁सि": 2654,
      "ics": 2655,
      "ident": 2656,
      "▁Act": 2657,
      "ref-1": 2658,
      "▁St": 2659,
      "▁bec": 2660,
      "ures": 2661,
      "▁music": 2662,
      "▁2016": 2663,
      "berg": 2664,
      "▁National": 2665,
      "-80": 2666,
      "%2F": 2667,
      "-107": 2668,
      "▁century": 2669,
      "▁हिन्द": 2670,
      "ffairs": 2671,
      "1-0)": 2672,
      "5_": 2673,
      ":[": 2674,
      "Ar": 2675,
      "_W": 2676,
      "_अ": 2677,
      "her": 2678,
      "rish": 2679,
      "van": 2680,
      "wo": 2681,
      "तेल": 2682,
      "्ला": 2683,
      "చల్": 2684,
      "యన్": 2685,
      "షు": 2686,
      "ూర్": 2687,
      "▁es": 2688,
      "▁all": 2689,
      "▁नाम": 2690,
      ".org/10.": 2691,
      "▁[చ": 2692,
      "▁[భారత": 2693,
      "▁[భారతీయ": 2694,
      "▁\"I": 2695,
      "2024": 2696,
      "](https://te.wikipedia.org/wiki/ప": 2697,
      "](https://te.wikipedia.org/wiki/భారతీయ": 2698,
      "ార్ట": 2699,
      "▁मु": 2700,
      "ాలయ": 2701,
      "amp": 2702,
      "ument": 2703,
      "▁di": 2704,
      "▁dance": 2705,
      "▁after": 2706,
      "క్క": 2707,
      "▁వ్యవస్థ": 2708,
      "्वार": 2709,
      "▁ము": 2710,
      "ండో": 2711,
      "ముంబ": 2712,
      "సిన": 2713,
      "-81": 2714,
      "ినల్": 2715,
      "apit": 2716,
      "ద్ద": 2717,
      "avid": 2718,
      "▁ఉన్న": 2719,
      "▁ఉన్నాయ": 2720,
      "rick": 2721,
      "పాకిస్తాన్": 2722,
      "ompany": 2723,
      "-0-19-8": 2724,
      "ంధీ": 2725,
      "clud": 2726,
      "▁ఒక": 2727,
      "▁ఒరిజ": 2728,
      "doi.org/10.": 2729,
      "వంశం": 2730,
      "▁తేదీ": 2731,
      "ార్టీ": 2732,
      "▁ఒరిజినల్": 2733,
      ".html": 2734,
      "_और": 2735,
      "ces": 2736,
      "country": 2737,
      "dustry": 2738,
      "fic": 2739,
      "imp": 2740,
      "ls": 2741,
      "wart": 2742,
      "zberg": 2743,
      "एं": 2744,
      "क्स": 2745,
      "खा": 2746,
      "जय": 2747,
      "धी": 2748,
      "ली": 2749,
      "सी": 2750,
      "िन": 2751,
      "ृष्": 2752,
      "ेर": 2753,
      "▁।": 2754,
      "▁over": 2755,
      "▁other": 2756,
      "iation": 2757,
      "ttar": 2758,
      "peration": 2759,
      "▁[3": 2760,
      "▁[e": 2761,
      "▁[v": 2762,
      "ones": 2763,
      "arh": 2764,
      "ार्ट": 2765,
      "icy": 2766,
      "▁comm": 2767,
      "▁Census": 2768,
      "ade": 2769,
      "lob": 2770,
      "chwart": 2771,
      "str": 2772,
      "▁ab": 2773,
      "विधान": 2774,
      "▁दक्षिण": 2775,
      "▁East": 2776,
      "form": 2777,
      "▁number": 2778,
      "▁1950": 2779,
      "▁For": 2780,
      "ड़ा": 2781,
      "▁[978-0-": 2782,
      "▁state": 2783,
      "_De": 2784,
      "auth": 2785,
      "▁यह": 2786,
      "▁2014.\n": 2787,
      "त्प": 2788,
      "ganisation": 2789,
      "ज्ञान": 2790,
      "▁Press.": 2791,
      "▁years": 2792,
      "ographic": 2793,
      "ritannica": 2794,
      "chwartzberg": 2795,
      "%7": 2796,
      "07": 2797,
      "6_": 2798,
      "Asia": 2799,
      "GDP": 2800,
      "ID": 2801,
      "Vi": 2802,
      "rm": 2803,
      "y\")": 2804,
      "ze": 2805,
      "काल": 2806,
      "डिया": 2807,
      "तर": 2808,
      "भी": 2809,
      "में": 2810,
      "జ్": 2811,
      "వరి": 2812,
      "శ్చ": 2813,
      "ిన్న": 2814,
      "ెల": 2815,
      "ia\")": 2816,
      "pear": 2817,
      "▁[इ": 2818,
      "▁\"భారతదేశ": 2819,
      "▁\"हिन्द": 2820,
      "▁\"विशेष:पुस्तक": 2821,
      "ini": 2822,
      "](https://en.wikipedia.org/wiki/W": 2823,
      "](https://hi.wikipedia.org/wiki/ISBN_(identifier)": 2824,
      "](https://hi.wikipedia.org/wiki/विशेष:पुस्तक": 2825,
      "్రె": 2826,
      "▁स्रोत/978": 2827,
      "्यव": 2828,
      "्यता": 2829,
      "▁pri": 2830,
      "ing\\_": 2831,
      "▁पा": 2832,
      "▁पूर्व": 2833,
      "▁Cambridge": 2834,
      "anglad": 2835,
      "life": 2836,
      "](https://hi.wikipedia.org/wiki/भारत_के_": 2837,
      "▁most": 2838,
      "▁अप": 2839,
      "▁May": 2840,
      "ాలు\n": 2841,
      "నిస్తాన్": 2842,
      "ird": 2843,
      "▁India\")\n": 2844,
      "indust": 2845,
      "▁English": 2846,
      "▁మధ్య": 2847,
      "लाई": 2848,
      "_स्रोत/978": 2849,
      "▁2020": 2850,
      "▁विक": 2851,
      "ode": 2852,
      "ctor": 2853,
      "▁(identifier)\"):[": 2854,
      "ustral": 2855,
      "](https://te.wikipedia.org/wiki/భారతదేశంలో": 2856,
      "▁[ISBN](https://hi.wikipedia.org/wiki/ISBN_(identifier)": 2857,
      "స్థాన్": 2858,
      "राष्ट्रपति": 2859,
      "_के_आ": 2860,
      "▁अनुसार": 2861,
      "▁2011.\n": 2862,
      "▁Development": 2863,
      "▁December": 2864,
      "▁పేజీ": 2865,
      "ovement": 2866,
      "हासागर": 2867,
      "మ్మూ": 2868,
      "▁समय": 2869,
      "साँचा:": 2870,
      "▁\"భారతదేశంలో": 2871,
      "▁చూసిన": 2872,
      "▁January": 2873,
      "ांग्ला": 2874,
      "▁తేదీ:": 2875,
      "శ్చి": 2876,
      "](https://hi.wikipedia.org/wiki/विशेष:पुस्तक_स्रोत/978": 2877,
      "angladesh": 2878,
      "▁పేజీని": 2879,
      "1–": 2880,
      "81": 2881,
      "88": 2882,
      "CO": 2883,
      "a/": 2884,
      "how": 2885,
      "oon": 2886,
      "oth": 2887,
      "ंप": 2888,
      "त्य": 2889,
      "धर्म": 2890,
      "बर": 2891,
      "लोक": 2892,
      "▁en": 2893,
      "▁28": 2894,
      "▁यु": 2895,
      "▁राष्ट्रीय": 2896,
      "kim": 2897,
      "▁[न": 2898,
      "▁[Metcalf": 2899,
      "▁\"सं": 2900,
      "\")**": 2901,
      "arb": 2902,
      "alley": 2903,
      "ofindia": 2904,
      "asia": 2905,
      "2012": 2906,
      "2000": 2907,
      "2001": 2908,
      "▁Constitution": 2909,
      "▁Congress": 2910,
      "र्भ": 2911,
      "come": 2912,
      "_of_the": 2913,
      "ross": 2914,
      "▁[↑](https://hi.wikipedia.org/wiki/भारत#cite_": 2915,
      "union": 2916,
      "ticles": 2917,
      "ेश्वर": 2918,
      "▁जु": 2919,
      "▁है,": 2920,
      "▁election": 2921,
      "▁न्या": 2922,
      "fore": 2923,
      "▁national": 2924,
      "▁[South": 2925,
      "ose": 2926,
      "_Centre": 2927,
      "ाद्वीप": 2928,
      "▁[*A": 2929,
      "▁\"Special:BookSources/978-0-": 2930,
      "](Special:BookSources/978-0-": 2931,
      "▁रह": 2932,
      "emple": 2933,
      "ikshi": 2934,
      "▁[2](https://en.wikipedia.org/wiki/India#cite_ref-FOOTNOTE": 2935,
      "▁[1](https://en.wikipedia.org/wiki/India#cite_ref-FOOTNOTE": 2936,
      "obb": 2937,
      "times.com/": 2938,
      "censusindia.gov.in/": 2939,
      "▁territories": 2940,
      "ूचना": 2941,
      "शासित": 2942,
      "ikshit": 2943,
      ".as": 2944,
      "2/": 2945,
      "4–": 2946,
      "500": 2947,
      "CN": 2948,
      "_t": 2949,
      "_19": 2950,
      "_पर": 2951,
      "_territ": 2952,
      "co": 2953,
      "cent": 2954,
      "ges": 2955,
      "lations": 2956,
      "pur": 2957,
      "बाद": 2958,
      "मार": 2959,
      "रक्ष": 2960,
      "श्री": 2961,
      "ाष्ट्र": 2962,
      "ेट": 2963,
      "షన్": 2964,
      "హ్": 2965,
      "ెలు": 2966,
      "▁23": 2967,
      "orther": 2968,
      "Informatics": 2969,
      "eration": 2970,
      "theast": 2971,
      "](https://te.wikipedia.org/wiki/అ": 2972,
      "ash": 2973,
      "ased": 2974,
      "2019": 2975,
      "1950": 2976,
      "agar": 2977,
      "ान\")": 2978,
      "wealth": 2979,
      "िक्ष": 2980,
      "ters": 2981,
      "olicy": 2982,
      "రియా": 2983,
      "_क्षेत्र": 2984,
      "▁మార్": 2985,
      "▁[Stein": 2986,
      "▁Oxford": 2987,
      "ప్రపంచ": 2988,
      "ndaman": 2989,
      "नेमा": 2990,
      "_मेला": 2991,
      "cyc": 2992,
      "▁states": 2993,
      "olitical": 2994,
      "▁సంస్కృతి": 2995,
      "धार_पर": 2996,
      "దీవ": 2997,
      "द्योग": 2998,
      "न्त्र": 2999,
      "हाराष्ट्र": 3000,
      "▁2006](https://en.wikipedia.org/wiki/India#CITEREF": 3001,
      "_के_आधार_पर": 3002,
      "_के_आधार_पर_भारत": 3003,
      "-le": 3004,
      "-21": 3005,
      "-to": 3006,
      ".india": 3007,
      "2-": 3008,
      "4).": 3009,
      "5-0)": 3010,
      "79": 3011,
      "Fisher": 3012,
      "Hindi": 3013,
      "_O": 3014,
      "han": 3015,
      "oci": 3016,
      "pa": 3017,
      "pib": 3018,
      "rin": 3019,
      "ran": 3020,
      "धु": 3021,
      "वै": 3022,
      "वाद": 3023,
      "हित": 3024,
      "ृति": 3025,
      "ोन": 3026,
      "▁27": 3027,
      "▁[s": 3028,
      "ann": 3029,
      "onwealth": 3030,
      "ale": 3031,
      "high": 3032,
      "reat": 3033,
      "ised": 3034,
      "andard": 3035,
      "ough": 3036,
      "▁spe": 3037,
      "▁मंदिर": 3038,
      "ama": 3039,
      "र्द": 3040,
      "▁1.": 3041,
      "ched": 3042,
      "▁March": 3043,
      "▁Budd": 3044,
      "▁BCE": 3045,
      "emoc": 3046,
      "▁had": 3047,
      "ंगा": 3048,
      "▁Hindi": 3049,
      "harat": 3050,
      "▁साम्राज्य": 3051,
      "904": 3052,
      "▁[2](https://en.wikipedia.org/wiki/India#cite_ref-": 3053,
      "▁[1](https://en.wikipedia.org/wiki/India#cite_ref-": 3054,
      "ंग्रेज़ी": 3055,
      "vision": 3056,
      "▁2010](https://en.wikipedia.org/wiki/India#CITEREF": 3057,
      "ughal": 3058,
      "ed.).": 3059,
      "▁official": 3060,
      "countries_by": 3061,
      "▁पुरालेखित।.": 3062,
      "ligious": 3063,
      "्यवस्था": 3064,
      "▁जुलाई": 3065,
      "censusindia.gov.in/2011": 3066,
      "orthern": 3067,
      "_के_आधार_पर_भारत_के_राज्य": 3068,
      "Fisher2018": 3069,
      ",[[": 3070,
      "-f": 3071,
      "1]](https://en.wikipedia.org/wiki/India#cite_note-FOOTNOTE": 3072,
      "32": 3073,
      "4/": 3074,
      "73": 3075,
      "89": 3076,
      "Uttar": 3077,
      "back": 3078,
      "lang": 3079,
      "p?": 3080,
      "ru": 3081,
      "va": 3082,
      "र्त": 3083,
      "ल\")": 3084,
      "ం\"),": 3085,
      "ంత్రి": 3086,
      "ఆఫ్": 3087,
      "కత": 3088,
      "కై": 3089,
      "క్య": 3090,
      "దాయ": 3091,
      "రే": 3092,
      "లంక": 3093,
      "వీ": 3094,
      "శ్రీ": 3095,
      "షి": 3096,
      "సు": 3097,
      "▁ఏ": 3098,
      "▁up": 3099,
      "pect": 3100,
      "](https://doi.org/10.": 3101,
      "▁[[": 3102,
      "▁[సి": 3103,
      "eds.": 3104,
      "](https://te.wikipedia.org/wiki/చ": 3105,
      "▁मा": 3106,
      "riod": 3107,
      "స్సా": 3108,
      "▁పరి": 3109,
      "▁పార్టీ": 3110,
      "adi": 3111,
      "▁two": 3112,
      "న్‌": 3113,
      "▁13": 3114,
      "change": 3115,
      "▁me": 3116,
      "▁dec": 3117,
      "▁अधिक": 3118,
      "▁Talbot": 3119,
      "olk": 3120,
      "▁Reg": 3121,
      "▁కు": 3122,
      "▁వచ్చ": 3123,
      "नाग": 3124,
      "ముద్ర": 3125,
      "abad": 3126,
      "▁2009": 3127,
      "eport": 3128,
      "म्प": 3129,
      "▁It": 3130,
      "గాంధీ": 3131,
      "▁लि": 3132,
      "क्ति": 3133,
      "నేపాల": 3134,
      "▁[↑](https://hi.wikipedia.org/wiki/भारत#cite_ref-FOOTNOTE": 3135,
      "olitics": 3136,
      "▁प्रदेश\")": 3137,
      "▁देशों": 3138,
      "▁పేరు": 3139,
      "హిందీ": 3140,
      "mbol": 3141,
      "▁చెయ్య": 3142,
      "▁కూడా": 3143,
      "▁tradition": 3144,
      "ంగీతం": 3145,
      "files/": 3146,
      "▁became": 3147,
      "ముంబై": 3148,
      "శ్చిమ": 3149,
      "Informatics_Centre": 3150,
      "▁మార్గ": 3151,
      "▁చెయ్యబడ": 3152,
      ".n": 3153,
      "61": 3154,
      "6).": 3155,
      "6-0)": 3156,
      "IM": 3157,
      "_3": 3158,
      "_ए": 3159,
      "ae": 3160,
      "bi": 3161,
      "cord": 3162,
      "ehr": 3163,
      "f/": 3164,
      "has": 3165,
      "if": 3166,
      "ंक": 3167,
      "टे": 3168,
      "दिल्ल": 3169,
      "रण": 3170,
      "▁'": 3171,
      "▁we": 3172,
      "▁ro": 3173,
      "▁30": 3174,
      "▁Union": 3175,
      "▁time": 3176,
      "▁[O": 3177,
      "▁[ज": 3178,
      "teen": 3179,
      "](https://en.wikipedia.org/wiki/The": 3180,
      "read": 3181,
      "city": 3182,
      "omin": 3183,
      "ouse": 3184,
      "▁India.": 3185,
      "▁includ": 3186,
      "rah": 3187,
      "rade": 3188,
      "▁summit\")": 3189,
      "▁caste": 3190,
      "ussia": 3191,
      "atus": 3192,
      "▁Ch": 3193,
      "istan": 3194,
      "▁Plate": 3195,
      "illion": 3196,
      "▁war": 3197,
      "▁2012": 3198,
      "▁2017": 3199,
      "▁Times": 3200,
      "olper": 3201,
      "▁*The": 3202,
      "1997": 3203,
      "ंगाल": 3204,
      "_in_S": 3205,
      "▁2025": 3206,
      "▁2022": 3207,
      "▁general": 3208,
      "▁तट": 3209,
      "ड़ी": 3210,
      "▁एवं": 3211,
      ".gov.in/": 3212,
      "▁\"Economy": 3213,
      "](https://en.wikipedia.org/wiki/Economy": 3214,
      "articles": 3215,
      "ivil": 3216,
      "▁स्थ": 3217,
      "ports": 3218,
      "▁वर्ष": 3219,
      "Wikipedia": 3220,
      "AsherTalbot2008": 3221,
      "nown": 3222,
      "श्मीर": 3223,
      "महाद्वीप": 3224,
      "्वतंत्र": 3225,
      "ujarat": 3226,
      ".indiatimes.com/": 3227,
      "olpert": 3228,
      "&s": 3229,
      "*,": 3230,
      "-B": 3231,
      "-23": 3232,
      "/auth": 3233,
      "7/": 3234,
      "75": 3235,
      "99": 3236,
      "JP": 3237,
      "UN": 3238,
      "_వ": 3239,
      "c=": 3240,
      "ebr": 3241,
      "lag": 3242,
      "nam": 3243,
      "rof": 3244,
      "rganisation": 3245,
      "vol": 3246,
      "डी": 3247,
      "णि": 3248,
      "तु": 3249,
      "निक": 3250,
      "ीत": 3251,
      "ीस": 3252,
      "ुट": 3253,
      "గర": 3254,
      "టక": 3255,
      "టా": 3256,
      "దార": 3257,
      "నీ": 3258,
      "రో": 3259,
      "సభ": 3260,
      "ెద్ద": 3261,
      "▁j": 3262,
      "▁[India": 3263,
      "▁[doi": 3264,
      "enn": 3265,
      "tel": 3266,
      "▁\"సి": 3267,
      "](https://en.wikipedia.org/wiki/O": 3268,
      "ered": 3269,
      "eral_": 3270,
      "arn": 3271,
      "tionary": 3272,
      "thematics": 3273,
      "▁केंद्र": 3274,
      "](https://te.wikipedia.org/wiki/భారత_": 3275,
      "▁incre": 3276,
      "ooperation": 3277,
      "atar": 3278,
      "▁పు": 3279,
      "loy": 3280,
      "▁Pe": 3281,
      "chool": 3282,
      "రాజ్య": 3283,
      "▁కేంద్రపాలిత": 3284,
      "▁BRICS": 3285,
      "भाग": 3286,
      "_(India)": 3287,
      "▁మా": 3288,
      "](https://mai.wikipedia.org/wiki/म": 3289,
      "-40": 3290,
      "▁చే": 3291,
      "ము\")": 3292,
      "rits": 3293,
      "త్స": 3294,
      "aksh": 3295,
      "▁वा": 3296,
      "▁రాజ్య": 3297,
      "▁group": 3298,
      "వాతంత్ర": 3299,
      "संख्या": 3300,
      "▁దేశాల": 3301,
      "हिन्दी": 3302,
      "▁\"Doi": 3303,
      "](https://en.wikipedia.org/wiki/Doi": 3304,
      "లాదేశ్": 3305,
      "స్తు": 3306,
      "▁సామ్రాజ్యం](https://te.wikipedia.org/wiki/": 3307,
      "ంగ్లాదేశ్": 3308,
      "▁భాషలు": 3309,
      "ారు.": 3310,
      "_ప్రా": 3311,
      "్రిటి": 3312,
      "▁అధికార": 3313,
      "गुजरात": 3314,
      "ూర్పు": 3315,
      "▁(identifier)\"):[10.": 3316,
      "how/": 3317,
      "కైవు": 3318,
      "ebruary": 3319,
      "▁[doi](https://en.wikipedia.org/wiki/Doi": 3320,
      "▁[doi](https://en.wikipedia.org/wiki/Doi_(identifier)": 3321,
      "-28": 3322,
      "2).": 3323,
      "6/": 3324,
      "86": 3325,
      "8-0)": 3326,
      "C).": 3327,
      "Craven": 3328,
      "En": 3329,
      "IA": 3330,
      "TR": 3331,
      "_आ": 3332,
      "cat": 3333,
      "cms": 3334,
      "get": 3335,
      "min": 3336,
      "rar": 3337,
      "s-": 3338,
      "war": 3339,
      "way": 3340,
      "yayan": 3341,
      "एँ": 3342,
      "गो": 3343,
      "गोल": 3344,
      "फल": 3345,
      "ैक": 3346,
      "ोड़": 3347,
      "▁$": 3348,
      "▁छ": 3349,
      "▁ref": 3350,
      "▁und": 3351,
      "▁0.": 3352,
      "▁rate": 3353,
      "▁\"आ": 3354,
      "](https://en.wikipedia.org/wiki/I": 3355,
      "ict": 3356,
      "▁sup": 3357,
      "▁मार": 3358,
      "▁मूल": 3359,
      "etail": 3360,
      "\\_देश": 3361,
      "▁Sanskrit": 3362,
      "logo": 3363,
      "urn": 3364,
      "istrar": 3365,
      "▁modern": 3366,
      "ung": 3367,
      "00)": 3368,
      "▁अरब": 3369,
      "ाला": 3370,
      "▁जो": 3371,
      "al_P": 3372,
      "▁बहु": 3373,
      "▁सेना": 3374,
      "▁one": 3375,
      "▁than": 3376,
      "imalay": 3377,
      "▁War": 3378,
      ".png": 3379,
      "ublishing": 3380,
      "induism": 3381,
      "▁भू": 3382,
      "विश्व": 3383,
      "onstituent": 3384,
      "%2C_": 3385,
      "▁Press](https://en.wikipedia.org/wiki/": 3386,
      "-0-19-9": 3387,
      "ultan": 3388,
      "▁period": 3389,
      "म्बर": 3390,
      "atsyayan": 3391,
      "▁Commissioner": 3392,
      "National_Informatics_Centre": 3393,
      "ainting": 3394,
      "tecture": 3395,
      "_Island": 3396,
      "्यटन": 3397,
      "Harle1994": 3398,
      "slam": 3399,
      "ricket": 3400,
      "lobal": 3401,
      "Craven1997": 3402,
      "National_Informatics_Centre2005": 3403,
      ".b": 3404,
      "2]](https://en.wikipedia.org/wiki/India#cite_note-FOOTNOTE": 3405,
      "5–": 3406,
      "BC": 3407,
      "EO": 3408,
      "II": 3409,
      "Main": 3410,
      "WEO": 3411,
      "_f": 3412,
      "ahar": 3413,
      "jan": 3414,
      "minist": 3415,
      "oy": 3416,
      "tb": 3417,
      "tro": 3418,
      "vatsyayan": 3419,
      "yan": 3420,
      "इल": 3421,
      "भू": 3422,
      "ल्": 3423,
      "िज": 3424,
      "ील": 3425,
      "ంజా": 3426,
      "గి": 3427,
      "టీ": 3428,
      "టాన్": 3429,
      "మంత్రి": 3430,
      "లను": 3431,
      "వె": 3432,
      "వరణ": 3433,
      "హదార": 3434,
      "ూచ": 3435,
      "▁హ": 3436,
      "▁am": 3437,
      "▁భారతదేశ": 3438,
      "▁emp": 3439,
      "▁end": 3440,
      "tes": 3441,
      "▁\"न": 3442,
      "\");": 3443,
      "errit": 3444,
      "arge": 3445,
      "religion": 3446,
      "omas": 3447,
      "్రమ": 3448,
      "▁(eds.": 3449,
      "astern": 3450,
      "▁सभ": 3451,
      "ical_": 3452,
      "▁such": 3453,
      "inguis": 3454,
      "ammu": 3455,
      "▁Ar": 3456,
      "▁Chin": 3457,
      "-14": 3458,
      "र्ष": 3459,
      "ilg": 3460,
      "▁अग": 3461,
      "భారతదేశ_": 3462,
      "▁కొ": 3463,
      "ments": 3464,
      "▁వ్యా": 3465,
      "नाथ": 3466,
      "▁later": 3467,
      "▁మత": 3468,
      "▁మతము": 3469,
      "1990": 3470,
      "▁Nations": 3471,
      "](https://mai.wikipedia.org/wiki/ब": 3472,
      "తావరణ": 3473,
      "నాడు": 3474,
      "▁there": 3475,
      "▁northern": 3476,
      "▁February": 3477,
      "imf": 3478,
      "▁art": 3479,
      "osed": 3480,
      "](https://en.wikipedia.org/wiki/South_Asia": 3481,
      "▁उत्तर": 3482,
      "▁ఉంది.": 3483,
      "▁[*The": 3484,
      "doc": 3485,
      "▁ఇతర": 3486,
      "ాయి": 3487,
      "_BRICS": 3488,
      "econd": 3489,
      "▁अन्य": 3490,
      "ణాసియా": 3491,
      "athak": 3492,
      "ovember": 3493,
      "duction": 3494,
      "▁million": 3495,
      "▁2021.\n": 3496,
      "र्थिक": 3497,
      "ज्ञा": 3498,
      "టెడ్": 3499,
      "▁ఆర్కైవు": 3500,
      "inistry_of_": 3501,
      "-lord": 3502,
      "▁రైలు": 3503,
      "భూటాన్": 3504,
      "▁classical": 3505,
      "_సామ్రాజ్యం": 3506,
      "langoff": 3507,
      "IMF": 3508,
      "ehru": 3509,
      "వాతంత్ర్య": 3510,
      "vatsyayan-lord": 3511,
      "2–": 3512,
      "9-0)": 3513,
      "_for": 3514,
      "cul": 3515,
      "ele": 3516,
      "ealth": 3517,
      "jec": 3518,
      "ning": 3519,
      "oa": 3520,
      "ras": 3521,
      "site": 3522,
      "utt": 3523,
      "var": 3524,
      "wal": 3525,
      "y,": 3526,
      "क्र": 3527,
      "टक": 3528,
      "द्वीप": 3529,
      "धि": 3530,
      "रो": 3531,
      "स\")": 3532,
      "िस्तान": 3533,
      "ौद्ध": 3534,
      "▁29": 3535,
      "▁[आ": 3536,
      "▁[19": 3537,
      "▁[United": 3538,
      "tex": 3539,
      "than": 3540,
      "ar,": 3541,
      "arly": 3542,
      "alore": 3543,
      "ould": 3544,
      "▁सद": 3545,
      "rac": 3546,
      "▁south": 3547,
      "-00": 3548,
      "right": 3549,
      "uslim": 3550,
      "atak": 3551,
      "angalore": 3552,
      "urt": 3553,
      "▁Per": 3554,
      "▁1,": 3555,
      "▁14": 3556,
      "_of_S": 3557,
      "rol": 3558,
      "cean": 3559,
      "▁2013": 3560,
      "▁2019.": 3561,
      "▁2018](https://en.wikipedia.org/wiki/India#CITEREF": 3562,
      "olle": 3563,
      "ticle": 3564,
      "26)": 3565,
      "24)": 3566,
      ".com/news/": 3567,
      "▁GDP": 3568,
      "118": 3569,
      "akh": 3570,
      "▁1947": 3571,
      "पुरी": 3572,
      "▁[*India": 3573,
      "म्म": 3574,
      "owland": 3575,
      ".ph": 3576,
      ".jpg)](https://hi.wikipedia.org/wiki/चित्र:": 3577,
      "ankar": 3578,
      "हाय": 3579,
      "erala": 3580,
      "वंश": 3581,
      "▁union": 3582,
      "rowth": 3583,
      "▁who": 3584,
      "▁जाता": 3585,
      "-in-": 3586,
      "limate": 3587,
      "वेब": 3588,
      "Articles": 3589,
      "द्योगिक": 3590,
      "्वतंत्रता": 3591,
      "erritory": 3592,
      "/S": 3593,
      "129": 3594,
      "2,": 3595,
      "3_": 3596,
      "3]](https://en.wikipedia.org/wiki/India#cite_note-FOOTNOTE": 3597,
      "64": 3598,
      "6]](https://en.wikipedia.org/wiki/India#cite_note-": 3599,
      "7,": 3600,
      "71": 3601,
      "7_": 3602,
      "7-0)": 3603,
      "Dikshit": 3604,
      "Empire": 3605,
      "European": 3606,
      "LA": 3607,
      "Qu": 3608,
      "Schwartzberg": 3609,
      "_V": 3610,
      "_n": 3611,
      "_प": 3612,
      "_ब": 3613,
      "a-": 3614,
      "aus": 3615,
      "can": 3616,
      "dones": 3617,
      "gram": 3618,
      "lor": 3619,
      "ner": 3620,
      "nal": 3621,
      "ria": 3622,
      "ymbol": 3623,
      "तिक": 3624,
      "पे": 3625,
      "रवरी": 3626,
      "वार": 3627,
      "ाट": 3628,
      "ంశ": 3629,
      "ఆర్": 3630,
      "ఉత్తర": 3631,
      "ఒడి": 3632,
      "కీయ": 3633,
      "గలు": 3634,
      "చు": 3635,
      "జరా": 3636,
      "తూర్పు": 3637,
      "భు": 3638,
      "మన్": 3639,
      "యి": 3640,
      "లస": 3641,
      "ీన": 3642,
      "ేక": 3643,
      "▁ई": 3644,
      "▁ऊ": 3645,
      "▁ड": 3646,
      "▁फ": 3647,
      "▁డ": 3648,
      "▁ra": 3649,
      "▁राष्ट्र": 3650,
      "▁జాబితా": 3651,
      "▁high": 3652,
      "▁[m": 3653,
      "▁[భారతదేశ": 3654,
      "▁\"V": 3655,
      "tig": 3656,
      "](https://en.wikipedia.org/wiki/V": 3657,
      "arliament": 3658,
      "esearch": 3659,
      "▁industry": 3660,
      "rative": 3661,
      "ingdom": 3662,
      "राठ": 3663,
      "▁पार्ट": 3664,
      "▁Ac": 3665,
      "▁States": 3666,
      "▁పట్ట": 3667,
      "ర్\")": 3668,
      "▁Pakistan": 3669,
      "▁many": 3670,
      "▁**జాతీయ": 3671,
      "▁British": 3672,
      "विज्ञान": 3673,
      "23)": 3674,
      "నిక": 3675,
      "▁long": 3676,
      "▁large": 3677,
      "ంగ్రె": 3678,
      "▁Economic": 3679,
      "ources": 3680,
      "▁సభ": 3681,
      "1996": 3682,
      "_सा": 3683,
      "_Sh": 3684,
      "తాబ్": 3685,
      "▁2003": 3686,
      "ast_Asia": 3687,
      "▁[\"C": 3688,
      "▁[\"India": 3689,
      "▁ప్రపంచ": 3690,
      "▁ప్రభు": 3691,
      "ड़े": 3692,
      "▁K.": 3693,
      "utra": 3694,
      "▁संविधान": 3695,
      "▁ఆసియా": 3696,
      "]](https://hi.wikipedia.org/wiki/भारत#cite_note-1": 3697,
      "▁original](https://": 3698,
      "▁original](https://www.": 3699,
      "leshow/": 3700,
      "మ్రాజ్య": 3701,
      "ी](https://hi.wikipedia.org/wiki/अ": 3702,
      "▁*[The": 3703,
      "▁ext": 3704,
      "▁rule": 3705,
      "గుజరా": 3706,
      "ikh": 3707,
      "▁సామ్రాజ్యం\")": 3708,
      "...": 3709,
      "▁people": 3710,
      "MetcalfMetcalf2006),": 3711,
      "do-A": 3712,
      "త్యేక": 3713,
      "రాష్ట్రపతి": 3714,
      "ప్ప": 3715,
      "▁కాశ్మీ": 3716,
      "▁రాజవంశం": 3717,
      "▁2021.": 3718,
      "▁చెంద": 3719,
      "▁ఆర్ధిక": 3720,
      "/article": 3721,
      "/articleshow/": 3722,
      "%20%20%20%20": 3723,
      "%E0%A4%B": 3724,
      "▁స్థాన": 3725,
      "ector": 3726,
      "यालय": 3727,
      "▁Environment": 3728,
      "తమిళనాడు": 3729,
      "ప్రధానమంత్రి": 3730,
      "గణతంత్ర": 3731,
      "▁थी": 3732,
      "▁క్రీడ": 3733,
      "▁ఉన్నాయి.": 3734,
      "_Development": 3735,
      "▁विकास": 3736,
      "▁[↑](https://hi.wikipedia.org/wiki/भारत#cite_ref-1": 3737,
      ".aspx": 3738,
      "censusindia.gov.in/2011census": 3739,
      "ఆఫ్ఘ": 3740,
      "శ్రీలంక": 3741,
      "షియా": 3742,
      "న్‌ఫ": 3743,
      "నేపాల్": 3744,
      "](https://en.wikipedia.org/wiki/Economy_of_": 3745,
      "▁under": 3746,
      "▁among": 3747,
      "▁(eds.).": 3748,
      "inguistic": 3749,
      "DikshitSchwartzberg": 3750,
      "gramme": 3751,
      "తాబ్ద": 3752,
      "DikshitSchwartzberg2023": 3753,
      "\"](https://books.google.com/books?id=": 3754,
      "-25": 3755,
      ".htm": 3756,
      "110": 3757,
      "3/": 3758,
      "55": 3759,
      "545": 3760,
      "98": 3761,
      "Ludden": 3762,
      "NGDP": 3763,
      "Spear": 3764,
      "_देश": 3765,
      "ck": 3766,
      "d/": 3767,
      "eb": 3768,
      "election": 3769,
      "hind": 3770,
      "languages": 3771,
      "rg": 3772,
      "ura": 3773,
      "west": 3774,
      "गा": 3775,
      "चे": 3776,
      "जान": 3777,
      "डु": 3778,
      "देव": 3779,
      "मंत्र": 3780,
      "योग": 3781,
      "ेस": 3782,
      "ोस": 3783,
      "।\n": 3784,
      "▁/": 3785,
      "▁ट": 3786,
      "▁em": 3787,
      "▁out": 3788,
      "pee": 3789,
      "▁\"India": 3790,
      "▁\"United": 3791,
      "ines": 3792,
      "India_": 3793,
      "arna": 3794,
      "tions": 3795,
      "ed/": 3796,
      "▁(1,": 3797,
      "2017": 3798,
      "▁some": 3799,
      "etary": 3800,
      "▁All": 3801,
      "▁Arab": 3802,
      "▁Afric": 3803,
      "▁CE": 3804,
      "chin": 3805,
      "ild": 3806,
      "▁2015": 3807,
      "▁Modern": 3808,
      "▁Bank": 3809,
      "नाव": 3810,
      "▁दे": 3811,
      "▁द्वार": 3812,
      "▁land": 3813,
      "▁General": 3814,
      "_Summit": 3815,
      "ake": 3816,
      "osi": 3817,
      "माज": 3818,
      ".gov/": 3819,
      "▁इतिहास": 3820,
      "ineering": 3821,
      "key": 3822,
      "▁area": 3823,
      "CS1": 3824,
      "▁क्षेत्र\")": 3825,
      "_New": 3826,
      "सेना": 3827,
      "arket": 3828,
      "▁चु": 3829,
      "्रीका": 3830,
      "hrist": 3831,
      "ुख्य": 3832,
      "ances": 3833,
      "ervation": 3834,
      "▁हुई": 3835,
      "गणना": 3836,
      "ynast": 3837,
      "▁Islands": 3838,
      "▁economic": 3839,
      "▁Assembly": 3840,
      "ृष्ठ": 3841,
      "त्पाद": 3842,
      "teenth": 3843,
      "_in_South_Asia": 3844,
      "ast_Asia_Summit": 3845,
      "-of": 3846,
      "-78": 3847,
      ".IN": 3848,
      ".fr": 3849,
      "6–": 3850,
      "76": 3851,
      "84": 3852,
      "Pro": 3853,
      "Pages": 3854,
      "South": 3855,
      "_J": 3856,
      "_In": 3857,
      "_ప్రదేశ్": 3858,
      "e/": 3859,
      "fgh": 3860,
      "ho": 3861,
      "hal": 3862,
      "ii": 3863,
      "ix": 3864,
      "iri": 3865,
      "k:": 3866,
      "m.nic.in/": 3867,
      "ncl": 3868,
      "olog": 3869,
      "pic": 3870,
      "rdu": 3871,
      "ua": 3872,
      "work": 3873,
      "zation": 3874,
      "खाना": 3875,
      "नगर": 3876,
      "पद": 3877,
      "सभा": 3878,
      "ीब": 3879,
      "०१": 3880,
      "ం,": 3881,
      "ఉప": 3882,
      "కొ": 3883,
      "కేంద్రపాలిత": 3884,
      "జె": 3885,
      "ఢ్": 3886,
      "ది.": 3887,
      "నాల": 3888,
      "లే": 3889,
      "ళు": 3890,
      "ౌద్ధ": 3891,
      "▁ओ": 3892,
      "▁he": 3893,
      "▁భా": 3894,
      "▁imp": 3895,
      "dian": 3896,
      "▁[V": 3897,
      "▁[पु": 3898,
      "▁[వి": 3899,
      "▁\"ज": 3900,
      "▁\"Oxford": 3901,
      "inance": 3902,
      "tition": 3903,
      "ally": 3904,
      "](https://hi.wikipedia.org/wiki/इ": 3905,
      "itary": 3906,
      "▁(*": 3907,
      "▁सु": 3908,
      "ictionary": 3909,
      "▁social": 3910,
      "्यान": 3911,
      "▁महासागर": 3912,
      "ాలీ": 3913,
      "\\_अ": 3914,
      "\\_प": 3915,
      "▁Al": 3916,
      "-111": 3917,
      "्ता:": 3918,
      "ర్చ": 3919,
      "▁minister": 3920,
      "ility": 3921,
      "state": 3922,
      "003": 3923,
      "▁Min": 3924,
      "▁total": 3925,
      "िया](https://mai.wikipedia.org/wiki/": 3926,
      "resident": 3927,
      "ాలు?action=edit&redlink=1": 3928,
      "▁दृ": 3929,
      "▁दिया": 3930,
      "pecial:EditPage/": 3931,
      "▁प्रमुख": 3932,
      "▁her": 3933,
      "▁बढ़": 3934,
      "▁Nadu": 3935,
      "-317": 3936,
      "▁2004": 3937,
      "–సా.శ.18": 3938,
      "▁అత్య": 3939,
      "ains": 3940,
      "ainism": 3941,
      "▁article": 3942,
      "▁[Asher": 3943,
      "▁Language": 3944,
      "▁Kashmir": 3945,
      "▁एशिया": 3946,
      "▁ఆధ": 3947,
      "ffer": 3948,
      "ffice": 3949,
      "మాఖ్య": 3950,
      "వాణా": 3951,
      "overe": 3952,
      "ligence": 3953,
      "ంటి": 3954,
      "▁depend": 3955,
      "▁దేశం": 3956,
      "ंग्रेजी": 3957,
      "▁\"National": 3958,
      "्रां": 3959,
      "డ్డ": 3960,
      "▁జనాభా": 3961,
      "_pro": 3962,
      "దక్షిణాసియా": 3963,
      "▁maj": 3964,
      "▁గల": 3965,
      "▁3,": 3966,
      "▁భారతదేశంలో": 3967,
      "ంగ్లీ": 3968,
      "स्कृति": 3969,
      "యునై": 3970,
      "ష్ణ": 3971,
      "meric": 3972,
      "pura": 3973,
      "_చరిత్ర?action=edit&redlink=1": 3974,
      "▁हुआ": 3975,
      "फ़रवरी": 3976,
      "▁territory": 3977,
      "▁రాష్ట్రాలు,": 3978,
      "ंबई": 3979,
      "▁उपमहाद्वीप": 3980,
      "_మతము": 3981,
      "▁प्राप्त": 3982,
      "-language\\_": 3983,
      "▁మొద": 3984,
      "union_territ": 3985,
      "-to-": 3986,
      "र्दू": 3987,
      "▁लिए": 3988,
      "▁చెయ్యబడింది.": 3989,
      "telligence": 3990,
      "arnatak": 3991,
      "WEO.IN": 3992,
      "▁अगस्त": 3993,
      "IMFWEO.IN": 3994,
      "urton": 3995,
      "Spear1990": 3996,
      "fghan": 3997,
      "nclm.nic.in/": 3998,
      "pecial:EditPage/Template:": 3999,
      "యునైటెడ్": 4000,
      "0)": 4001,
      "127": 4002,
      "219": 4003,
      "300": 4004,
      "6]](https://en.wikipedia.org/wiki/India#cite_note-FOOTNOTE": 4005,
      "94": 4006,
      "Ag": 4007,
      "Ch": 4008,
      "UCN": 4009,
      "_2": 4010,
      "_4": 4011,
      "a.": 4012,
      "az": 4013,
      "len": 4014,
      "les/": 4015,
      "owe": 4016,
      "press": 4017,
      "yle": 4018,
      "गान": 4019,
      "त्व": 4020,
      "न](https://hi.wikipedia.org/wiki/": 4021,
      "रेल": 4022,
      "लयाल": 4023,
      "ाम": 4024,
      "िख": 4025,
      "िज़": 4026,
      "ूर्": 4027,
      "▁ci": 4028,
      "▁2.": 4029,
      "▁oc": 4030,
      "▁history": 4031,
      "▁term": 4032,
      "orest": 4033,
      "▁[ओ": 4034,
      "▁[Oxford": 4035,
      "▁\"[": 4036,
      "▁\"ओ": 4037,
      "tice": 4038,
      "ominal": 4039,
      "▁they": 4040,
      "▁(2018": 4041,
      "2016": 4042,
      "1970": 4043,
      "▁since": 4044,
      "ety": 4045,
      "etra": 4046,
      "\\_articles": 4047,
      "▁Cons": 4048,
      "▁Se": 4049,
      "▁SAARC": 4050,
      "▁found": 4051,
      "ada": 4052,
      "▁both": 4053,
      "▁trans": 4054,
      "url": 4055,
      "urban": 4056,
      "ulti": 4057,
      "ournal": 4058,
      "tical_": 4059,
      "▁R.": 4060,
      "▁Raj": 4061,
      "ight": 4062,
      "25)": 4063,
      "▁जून": 4064,
      "▁दिस": 4065,
      "109": 4066,
      "▁largest": 4067,
      "▁India\").": 4068,
      "industry": 4069,
      "राजस्थान": 4070,
      "ayback": 4071,
      "india-g": 4072,
      "ताज": 4073,
      "ताब्": 4074,
      "▁बा": 4075,
      "upta": 4076,
      "verse": 4077,
      "▁2026": 4078,
      "▁2005": 4079,
      "▁Fr": 4080,
      "▁...": 4081,
      "epart": 4082,
      "](https://en.wikipedia.org/wiki/South": 4083,
      "▁संसद": 4084,
      "own": 4085,
      "त्तरा": 4086,
      "riculture": 4087,
      "जाति": 4088,
      "-108": 4089,
      "धानमंत्र": 4090,
      "-0-19-5": 4091,
      "endra": 4092,
      "-pro": 4093,
      "reek": 4094,
      "▁\"History": 4095,
      "\"](https://web.archive.org/web/20160": 4096,
      "qual": 4097,
      "](https://en.wikipedia.org/wiki/History": 4098,
      "ohn": 4099,
      "rown": 4100,
      "ography": 4101,
      "▁left": 4102,
      ".svg/": 4103,
      "-0-521-80": 4104,
      "ैदान": 4105,
      "▁play": 4106,
      "▁used": 4107,
      "▁खाना\")": 4108,
      "ोर्ड": 4109,
      "▁world's": 4110,
      "माणु": 4111,
      ".svg.png": 4112,
      "KulkeRothermund2004": 4113,
      "▁estim": 4114,
      "apita": 4115,
      "-0-19-88": 4116,
      "ustralia": 4117,
      "श्रील": 4118,
      "▁2006](https://en.wikipedia.org/wiki/India#CITEREFMetcalfMetcalf2006),": 4119,
      "904-7": 4120,
      "म्मू": 4121,
      "▁article:": 4122,
      "▁occ": 4123,
      "▁दिसम्बर": 4124,
      "epartment": 4125,
      "-0-521-80904-7": 4126,
      "119": 4127,
      "5/": 4128,
      "9).": 4129,
      ":EditPage/": 4130,
      "Library": 4131,
      "Robb": 4132,
      "Sharma": 4133,
      "Un": 4134,
      "Wolpert": 4135,
      "_న": 4136,
      "_13": 4137,
      "ao": 4138,
      "bank": 4139,
      "cess": 4140,
      "detail": 4141,
      "each": 4142,
      "itt": 4143,
      "ili": 4144,
      "ihar": 4145,
      "jpg": 4146,
      "kar": 4147,
      "lack": 4148,
      "ris": 4149,
      "ser": 4150,
      "stitu": 4151,
      "इन": 4152,
      "कल": 4153,
      "को": 4154,
      "क_स": 4155,
      "तन्त्र": 4156,
      "वी": 4157,
      "ी.": 4158,
      "ैल": 4159,
      "ैंड": 4160,
      "ఖండ": 4161,
      "గం": 4162,
      "టిక": 4163,
      "డే": 4164,
      "ద్య": 4165,
      "మార్": 4166,
      "మాలయ": 4167,
      "లలో": 4168,
      "లకు": 4169,
      "ళ్": 4170,
      "వ](https://te.wikipedia.org/wiki/": 4171,
      "ానికి": 4172,
      "ాళు": 4173,
      "ీర్": 4174,
      "▁భ": 4175,
      "▁50": 4176,
      "▁యు": 4177,
      "▁फ़रवरी": 4178,
      "](Category:": 4179,
      "▁\"వి": 4180,
      "\")[[": 4181,
      "ins": 4182,
      "ancy": 4183,
      "20)": 4184,
      "them": 4185,
      "▁क्र": 4186,
      "](https://hi.wikipedia.org/wiki/सं": 4187,
      "its": 4188,
      "▁(India": 4189,
      "▁India*](https://books.google.com/books?id=": 4190,
      "lem": 4191,
      "rature": 4192,
      "▁sp": 4193,
      "ాలో": 4194,
      "▁power": 4195,
      "ing_": 4196,
      "inger": 4197,
      "▁पह": 4198,
      "▁Company": 4199,
      "స్వ": 4200,
      "స్లా": 4201,
      "▁Summit\")": 4202,
      "▁పాల": 4203,
      "vel": 4204,
      "र्ज": 4205,
      "र्स": 4206,
      "र्जा": 4207,
      "న్\")": 4208,
      "](https://hi.wikipedia.org/wiki/भारतीय": 4209,
      "ISO": 4210,
      "road": 4211,
      "▁member": 4212,
      "states": 4213,
      "217": 4214,
      "▁Mon": 4215,
      "▁కార": 4216,
      "▁కలి": 4217,
      "▁Bengal": 4218,
      "రిహ": 4219,
      "రికత": 4220,
      "emale": 4221,
      "క్నాల": 4222,
      "ంది.\n": 4223,
      "నిమా": 4224,
      "254": 4225,
      "▁Delhi": 4226,
      "▁సంగీతం": 4227,
      "▁बना": 4228,
      "▁Gandhi": 4229,
      "-30": 4230,
      "ryan": 4231,
      "▁చి": 4232,
      "▁north": 4233,
      "ులు\"),": 4234,
      "–సా.శ.13": 4235,
      "▁అయ": 4236,
      "epal": 4237,
      "▁ప్రధాన": 4238,
      "▁\"Category:": 4239,
      "harm": 4240,
      "ప్రదాయ": 4241,
      "ప్రత్యేక": 4242,
      "ద్వీ": 4243,
      "▁ఉప": 4244,
      "def": 4245,
      "▁రె": 4246,
      "▁began": 4247,
      "న్నడ": 4248,
      "र्वत": 4249,
      "ంటు": 4250,
      "ock": 4251,
      "पात": 4252,
      "ंडिया": 4253,
      "▁దేశంలో": 4254,
      "viol": 4255,
      "uddhism": 4256,
      "engali": 4257,
      "ibet": 4258,
      "కాశ్మీ": 4259,
      "ultural": 4260,
      "ంధు": 4261,
      "ingham": 4262,
      "వర్గం:Harv": 4263,
      "ద్ధం": 4264,
      "ద్ధి": 4265,
      "ాల్దీవ": 4266,
      "చ్చే": 4267,
      "ducation": 4268,
      "దక్షిణ_": 4269,
      "Oxford_University_Press": 4270,
      "▁కాంగ్రె": 4271,
      "Stein2010),": 4272,
      "-india-": 4273,
      "టెక్నాల": 4274,
      "హిమాలయ": 4275,
      "एसिया": 4276,
      "actbook": 4277,
      "▁Empire\")": 4278,
      "orities": 4279,
      "धिकारिक": 4280,
      "▁లే": 4281,
      "త్తరా": 4282,
      "నాగరికత": 4283,
      "_at_the": 4284,
      "క్కువ": 4285,
      "esert": 4286,
      "▁गणराज्य": 4287,
      "▁शासन": 4288,
      "క్‌సభ": 4289,
      "▁శాస్త్ర": 4290,
      "▁Act,": 4291,
      "▁हिन्दी": 4292,
      "formation": 4293,
      "र्भर": 4294,
      "ెలుగు": 4295,
      "▁2010](https://en.wikipedia.org/wiki/India#CITEREFStein2010),": 4296,
      "▁వచ్చింది.": 4297,
      "_ప్రాంత": 4298,
      "▁मार्च": 4299,
      "▁Press](https://en.wikipedia.org/wiki/Oxford_University_Press": 4300,
      "ultanate": 4301,
      "ministrative": 4302,
      "yanmar": 4303,
      "वेबैक": 4304,
      "rgani": 4305,
      "▁द्वारा": 4306,
      "ृष्ठसभ": 4307,
      "Pages\\_": 4308,
      "\\_पृष्ठसभ": 4309,
      "ర్చ:": 4310,
      "Spear199024": 4311,
      ":EditPage/మూస:": 4312,
      "ాళుక్య": 4313,
      "ప్రత్యేక:EditPage/మూస:": 4314,
      "టెక్నాలజీ": 4315,
      "\"[[": 4316,
      "-प": 4317,
      "1-1": 4318,
      "318": 4319,
      "3TR": 4320,
      "Congress": 4321,
      "IB": 4322,
      "_न": 4323,
      "_en": 4324,
      "dr": 4325,
      "eval": 4326,
      "i,": 4327,
      "ie": 4328,
      "ities": 4329,
      "jo": 4330,
      "lance": 4331,
      "nominal": 4332,
      "pres": 4333,
      "rd": 4334,
      "t-": 4335,
      "uth": 4336,
      "vid": 4337,
      "ving": 4338,
      "ंट": 4339,
      "उप": 4340,
      "खंड": 4341,
      "खण्ड": 4342,
      "दि": 4343,
      "मिक": 4344,
      "रू": 4345,
      "व्यवस्था": 4346,
      "शीन": 4347,
      "हरा": 4348,
      "हीं": 4349,
      "िला": 4350,
      "ुरु": 4351,
      "ुंबई": 4352,
      "ोम": 4353,
      "ौर": 4354,
      "ौद्योगिक": 4355,
      "▁या": 4356,
      "orical": 4357,
      "▁[c": 4358,
      "anor": 4359,
      "thnic": 4360,
      "eries": 4361,
      "arl": 4362,
      "aro": 4363,
      "aran": 4364,
      "aldi": 4365,
      "estic": 4366,
      "hief": 4367,
      "reme": 4368,
      "cip": 4369,
      "▁(20": 4370,
      "as,": 4371,
      "asing": 4372,
      "▁सभा": 4373,
      "▁संग": 4374,
      "lect": 4375,
      "rain": 4376,
      "entr": 4377,
      "▁co": 4378,
      "▁country": 4379,
      "ams": 4380,
      "ament": 4381,
      "ata_": 4382,
      "\\_स": 4383,
      "▁Affairs": 4384,
      "▁C.": 4385,
      "-15": 4386,
      "▁Science": 4387,
      "los": 4388,
      "lowing": 4389,
      "र्ग": 4390,
      "urch": 4391,
      "▁Pl": 4392,
      "▁mi": 4393,
      "▁made": 4394,
      "िक्क": 4395,
      "▁2011.": 4396,
      "onsoon": 4397,
      "▁app": 4398,
      "emon": 4399,
      "▁जल": 4400,
      "▁D.": 4401,
      "▁Di": 4402,
      "नाडु": 4403,
      "▁दर": 4404,
      "▁द्वीप": 4405,
      "त्रि": 4406,
      "ly,": 4407,
      "▁प्रति": 4408,
      "28)": 4409,
      "स्त्र": 4410,
      "▁relations": 4411,
      "ubcontinent": 4412,
      "akhand": 4413,
      "▁Fund": 4414,
      "avy": 4415,
      "otals": 4416,
      "](https://hi.wikipedia.org/wiki/भारत#cite_ref-FOOTNOTE": 4417,
      "_Delhi": 4418,
      "त्तरी": 4419,
      "ommonwealth": 4420,
      "order": 4421,
      "▁हैं,": 4422,
      "▁Valley": 4423,
      "पर्यटन": 4424,
      "olitical_": 4425,
      "▁[National": 4426,
      "rough": 4427,
      "ivis": 4428,
      "](https://en.wikipedia.org/wiki/List_of_countries_by": 4429,
      "दीव": 4430,
      "_East_Asia_Summit": 4431,
      "पालिका": 4432,
      "/cb": 4433,
      "AARC_summit": 4434,
      "▁lead": 4435,
      "▁इसके": 4436,
      "-largest": 4437,
      "edieval": 4438,
      "duct": 4439,
      "▁निर्": 4440,
      "maputra": 4441,
      "flu": 4442,
      "▁York": 4443,
      "▁कार्य": 4444,
      "▁सिनेमा": 4445,
      "rishn": 4446,
      "▁\"हिन्दी\")": 4447,
      "▁prime": 4448,
      "िक्षा": 4449,
      "emocracy": 4450,
      "rahmaputra": 4451,
      "do-Aryan": 4452,
      "india-glance": 4453,
      "quality": 4454,
      "▁(India)\")": 4455,
      "rganization": 4456,
      "3TRt": 4457,
      "nominal)": 4458,
      "aldives": 4459,
      "िक्किम": 4460,
      ",NGDP": 4461,
      ".పూ.": 4462,
      ".world": 4463,
      "/P": 4464,
      "124": 4465,
      "2%": 4466,
      "3),": 4467,
      "5%": 4468,
      "63": 4469,
      "9,": 4470,
      "91": 4471,
      "DD": 4472,
      "RL": 4473,
      "Report": 4474,
      "Rowland": 4475,
      "Taj": 4476,
      "_इ": 4477,
      "_11": 4478,
      "af": 4479,
      "aury": 4480,
      "be": 4481,
      "britannica": 4482,
      "garh": 4483,
      "iz": 4484,
      "ject": 4485,
      "known": 4486,
      "ling": 4487,
      "mal": 4488,
      "nf": 4489,
      "sur": 4490,
      "ward": 4491,
      "ym": 4492,
      "इप्र": 4493,
      "छि": 4494,
      "थिल": 4495,
      "दार": 4496,
      "नु": 4497,
      "बा": 4498,
      "वास": 4499,
      "वीं": 4500,
      "शक": 4501,
      "ैथिल": 4502,
      "ంతం": 4503,
      "ఆగ": 4504,
      "కళ": 4505,
      "ఖండ్": 4506,
      "గ్": 4507,
      "గిన": 4508,
      "గఢ్": 4509,
      "జో": 4510,
      "ట్ర": 4511,
      "తెలుగు": 4512,
      "ద్రా": 4513,
      "పద": 4514,
      "భి": 4515,
      "యో": 4516,
      "లక్ష": 4517,
      "వర": 4518,
      "శో": 4519,
      "షా": 4520,
      "హు": 4521,
      "హార్": 4522,
      "హాయ": 4523,
      "ాష్ట్ర": 4524,
      "ీక": 4525,
      "ీహార్": 4526,
      "ుల": 4527,
      "ుల్": 4528,
      "ోల్": 4529,
      "ోత్స": 4530,
      "ౌర్య": 4531,
      "▁his": 4532,
      "▁ed.).": 4533,
      "oral": 4534,
      "▁[p": 4535,
      "▁[హ": 4536,
      "▁[सा": 4537,
      "▁[दक्षिण": 4538,
      "▁\"ल": 4539,
      "▁\"ह": 4540,
      "▁\"హ": 4541,
      "▁\"दक्षिण": 4542,
      "▁\"ఢిల్లీ": 4543,
      "on,": 4544,
      "aries": 4545,
      "208": 4546,
      "ess/": 4547,
      "ret": 4548,
      "isc": 4549,
      "▁कुल": 4550,
      "్రూ": 4551,
      "itz": 4552,
      "](https://te.wikipedia.org/wiki/సి": 4553,
      "भारत\n": 4554,
      "2015": 4555,
      "icon": 4556,
      "leg": 4557,
      "radition": 4558,
      "▁sh": 4559,
      "▁मुख्य": 4560,
      "ాలా": 4561,
      "ాలలో": 4562,
      "-0-4": 4563,
      "rig": 4564,
      "rim": 4565,
      "్యం": 4566,
      "▁पश्चिम": 4567,
      "▁Con": 4568,
      "▁Centre": 4569,
      "▁Sec": 4570,
      "ర్ణా": 4571,
      "ర్మే": 4572,
      "ists": 4573,
      "▁Publishing": 4574,
      "▁11": 4575,
      "▁mar": 4576,
      "▁movement": 4577,
      "▁अछि": 4578,
      "▁Tamil": 4579,
      "olon": 4580,
      "21)": 4581,
      "▁River": 4582,
      "▁Republic": 4583,
      "లోక్‌సభ": 4584,
      "identifiers": 4585,
      "▁వంశ": 4586,
      "▁Data": 4587,
      "▁David": 4588,
      "▁दो": 4589,
      "sian": 4590,
      "aylor": 4591,
      "▁Ex": 4592,
      "al_in": 4593,
      "ounci": 4594,
      "▁Ge": 4595,
      "▁Himalay": 4596,
      "ండర్": 4597,
      "force": 4598,
      "-3)": 4599,
      "abha": 4600,
      "asting": 4601,
      "త్మా": 4602,
      "22)": 4603,
      "▁वार": 4604,
      "▁non-": 4605,
      ".[[3": 4606,
      "2905": 4607,
      "▁అతి": 4608,
      "udi": 4609,
      "ికి": 4610,
      "imach": 4611,
      "▁gre": 4612,
      "▁गा": 4613,
      "▁Official": 4614,
      "-90": 4615,
      "▁Wiki": 4616,
      "ద్దు": 4617,
      "प्रा": 4618,
      "▁రహదార": 4619,
      "మాచల్": 4620,
      "▁సామ్రాజ్య": 4621,
      "▁शा": 4622,
      "▁शताब्": 4623,
      "overty": 4624,
      "రువా": 4625,
      "రుణా": 4626,
      "िये": 4627,
      "న్నో": 4628,
      "▁status": 4629,
      "మిజో": 4630,
      "▁ఇది": 4631,
      "achine": 4632,
      "_and_depend": 4633,
      "ंग्रेस": 4634,
      "ृत्य": 4635,
      "▁జరి": 4636,
      "▁విస్త": 4637,
      "operation": 4638,
      "▁శతాబ్ద": 4639,
      "ట్టు": 4640,
      "do-P": 4641,
      "timesofindia": 4642,
      "ूनिव": 4643,
      "రాష్ట్రాలు": 4644,
      "▁tex": 4645,
      "వేద": 4646,
      "▁రాజకీయ": 4647,
      "62-2": 4648,
      "olden": 4649,
      "▁ప్రాంతాలు": 4650,
      "visions": 4651,
      "usiness/": 4652,
      "ूरो": 4653,
      "హిమాచల్": 4654,
      "ship": 4655,
      "హాత్మా": 4656,
      "int:": 4657,
      "▁ప్రదేశ్\")": 4658,
      "](https://hi.wikipedia.org/wiki/भारत_की_": 4659,
      "హారాష్ట్ర": 4660,
      "శాస్త్ర": 4661,
      "రాజస్థాన్": 4662,
      "▁వాతావరణ": 4663,
      "_संघ": 4664,
      "దినోత్స": 4665,
      "బెంగాలీ": 4666,
      "-107-111": 4667,
      "तेलु": 4668,
      "యన్మార్": 4669,
      "▁ముఖ్య": 4670,
      "fication": 4671,
      "industan": 4672,
      "▁युद्ध": 4673,
      "▁न्यायालय": 4674,
      "ociety": 4675,
      "JPG": 4676,
      "ంజాబ్": 4677,
      "▁వ్యాస": 4678,
      "हायता": 4679,
      "donesia": 4680,
      "గుజరాత్": 4681,
      "ఆఫ్ఘనిస్తాన్": 4682,
      "న్‌ఫర్మే": 4683,
      "▁[पुरालेखित": 4684,
      "धानमंत्री": 4685,
      "-0-19-882905": 4686,
      "Wolpert2003": 4687,
      "వ](https://te.wikipedia.org/wiki/List_of_": 4688,
      "రిహద్దు": 4689,
      "చ్చేరి": 4690,
      "Pages\\_us": 4691,
      "Rowland1970": 4692,
      "britannica.com/": 4693,
      "ర్ణాటక": 4694,
      "రుణాచల్": 4695,
      "timesofindia.indiatimes.com/": 4696,
      "-107-11162-2": 4697,
      "న్‌ఫర్మేషన్": 4698,
      "-0-19-882905-8": 4699,
      "-C": 4700,
      "-n": 4701,
      "-and": 4702,
      "-50": 4703,
      "-on-": 4704,
      ".ni": 4705,
      "/files/": 4706,
      "130": 4707,
      "2]](https://en.wikipedia.org/wiki/India#cite_note-": 4708,
      "54": 4709,
      "5]](https://en.wikipedia.org/wiki/India#cite_note-FOOTNOTE": 4710,
      "7]](https://en.wikipedia.org/wiki/India#cite_note-FOOTNOTE": 4711,
      "Ethnologue": 4712,
      "S.": 4713,
      "St": 4714,
      "_0": 4715,
      "_with": 4716,
      "ate_": 4717,
      "ey": 4718,
      "ez": 4719,
      "eligion": 4720,
      "fob": 4721,
      "hat": 4722,
      "ime": 4723,
      "ks": 4724,
      "lurton": 4725,
      "ox": 4726,
      "ots": 4727,
      "public": 4728,
      "que": 4729,
      "rid": 4730,
      "rial": 4731,
      "rust": 4732,
      "s\n": 4733,
      "s18": 4734,
      "s_of_India": 4735,
      "ंका": 4736,
      "एशिया": 4737,
      "गंगा": 4738,
      "धन": 4739,
      "नान": 4740,
      "नुसार": 4741,
      "पान": 4742,
      "फ्रीका": 4743,
      "भो": 4744,
      "शा": 4745,
      "स](https://hi.wikipedia.org/wiki/": 4746,
      "ीमा": 4747,
      "ूह": 4748,
      "ोष": 4749,
      "१९": 4750,
      "▁—": 4751,
      "▁lo": 4752,
      "▁ले": 4753,
      "▁urban": 4754,
      "ortheast": 4755,
      ".org": 4756,
      "▁[4": 4757,
      "▁[ह": 4758,
      "ency": 4759,
      "▁\"19": 4760,
      "onom": 4761,
      "](https://en.wikipedia.org/wiki/United": 4762,
      "erry": 4763,
      "ara": 4764,
      "aria": 4765,
      "arath": 4766,
      "](https://hi.wikipedia.org/wiki/आ": 4767,
      "](https://hi.wikipedia.org/wiki/ल": 4768,
      "educ": 4769,
      "▁them": 4770,
      "▁(19": 4771,
      "icha": 4772,
      "icob": 4773,
      "▁India](https://en.wikipedia.org/wiki/G": 4774,
      "▁influ": 4775,
      "rat": 4776,
      "ravi": 4777,
      "▁summit": 4778,
      "▁pre": 4779,
      "▁painting": 4780,
      "-06": 4781,
      "राबाद": 4782,
      "ature": 4783,
      "-16": 4784,
      "▁S.": 4785,
      "▁billion": 4786,
      "lief": 4787,
      "र्ना": 4788,
      "▁P.": 4789,
      "▁12": 4790,
      "▁western": 4791,
      "▁dire": 4792,
      "▁अव": 4793,
      "▁अप्र": 4794,
      "▁अधिकार": 4795,
      "▁Territory": 4796,
      "▁Be": 4797,
      "nium": 4798,
      "_का": 4799,
      "▁eastern": 4800,
      "▁नी": 4801,
      "elang": 4802,
      "▁आधिकारिक": 4803,
      "▁new": 4804,
      "▁J.": 4805,
      "▁Incre": 4806,
      "uduch": 4807,
      "स्थ": 4808,
      "160": 4809,
      "▁Lank": 4810,
      "▁Kingdom": 4811,
      "apan": 4812,
      "avi": 4813,
      "हिमा": 4814,
      "▁संबंध": 4815,
      "▁संस्कृति": 4816,
      "▁[↑](https://en.wikipedia.org/wiki/India#cite_ref-FOOTNOTEMetcalfMetcalf2006": 4817,
      "ummer": 4818,
      "ternal": 4819,
      "ternational_": 4820,
      "▁भाषाओं": 4821,
      "त्तीस": 4822,
      "र्वो": 4823,
      "_Temple": 4824,
      "िस्ट": 4825,
      "34)": 4826,
      "ीपी": 4827,
      "िरपे": 4828,
      "▁अन्त": 4829,
      "वायु": 4830,
      "ikkim": 4831,
      "▁करने": 4832,
      "▁life": 4833,
      "general_": 4834,
      "▁जनगणना": 4835,
      "मेर": 4836,
      "▁स्था": 4837,
      "▁contrib": 4838,
      "▁मेला\")": 4839,
      "▁हुए": 4840,
      "करण": 4841,
      "ैदराबाद": 4842,
      "_Indian_general_": 4843,
      "pringer": 4844,
      "](https://hi.wikipedia.org/wiki/भारत_का_": 4845,
      "▁dispu": 4846,
      "cript": 4847,
      "▁2019.\n": 4848,
      "▁[हिन्दी](https://hi.wikipedia.org/wiki/": 4849,
      ".html)": 4850,
      "%7C": 4851,
      "%7c": 4852,
      "भीम": 4853,
      "pectancy": 4854,
      "cording": 4855,
      "Wikipedia\\_articles": 4856,
      "rofile": 4857,
      "volution": 4858,
      "▁employ": 4859,
      "document": 4860,
      "धिराज्य": 4861,
      "ymbols": 4862,
      ".aspx?": 4863,
      "ildlife": 4864,
      "fferent": 4865,
      ".svg.png)": 4866,
      "3TRtDwAAQBAJ&pg=PA": 4867,
      "education": 4868,
      "ichael": 4869,
      "र्नाटक": 4870,
      "uducherry": 4871,
      "िरपेक्ष": 4872,
      "_Indian_general_election": 4873,
      "-29": 4874,
      "-with": 4875,
      "/D": 4876,
      "/ark": 4877,
      "1200": 4878,
      "2-4": 4879,
      "3,": 4880,
      "3-8": 4881,
      "53": 4882,
      "5).": 4883,
      "577": 4884,
      "74": 4885,
      ":**": 4886,
      "B0%": 4887,
      "CL": 4888,
      "C-0": 4889,
      "IJ": 4890,
      "New": 4891,
      "QAAQBAJ&pg=PA": 4892,
      "SAARC_summit": 4893,
      "_9": 4894,
      "_व": 4895,
      "_on": 4896,
      "_languages": 4897,
      "aut": 4898,
      "bc": 4899,
      "gra": 4900,
      "glia": 4901,
      "hra": 4902,
      "lood": 4903,
      "m2": 4904,
      "oard": 4905,
      "tl": 4906,
      "yy": 4907,
      "yam": 4908,
      "ंह": 4909,
      "क\\_पृष्ठसभ": 4910,
      "गल": 4911,
      "झार": 4912,
      "तट": 4913,
      "फा": 4914,
      "हन": 4915,
      "हरी": 4916,
      "ाटी": 4917,
      "िहार": 4918,
      "ौक्स": 4919,
      "८५": 4920,
      "ంతి": 4921,
      "కాల": 4922,
      "కారం": 4923,
      "ఖ్": 4924,
      "గంగా": 4925,
      "టో": 4926,
      "డిన": 4927,
      "తీ": 4928,
      "ధి": 4929,
      "ధించ": 4930,
      "నల్": 4931,
      "మన": 4932,
      "మర": 4933,
      "ర్యా": 4934,
      "లం": 4935,
      "లతో": 4936,
      "లమె": 4937,
      "ీస్": 4938,
      "ూప": 4939,
      "ూరు": 4940,
      "ెనీ": 4941,
      "ౌక": 4942,
      "▁ऑ": 4943,
      "▁ద": 4944,
      "▁ఫ": 4945,
      "▁im": 4946,
      "▁लेख": 4947,
      "▁దక్షిణ": 4948,
      "▁హిందూ": 4949,
      "▁గాంధీ": 4950,
      "iam": 4951,
      "ors": 4952,
      "orce": 4953,
      ":/121": 4954,
      "▁[U": 4955,
      "▁[च": 4956,
      "▁[భారతదేశం": 4957,
      "▁[ఢిల్లీ": 4958,
      "▁[पाकिस्तान": 4959,
      "▁\"द": 4960,
      "▁\"पाकिस्तान": 4961,
      "erg": 4962,
      "arli": 4963,
      "ared/": 4964,
      "arendra": 4965,
      "esti": 4966,
      "reed": 4967,
      "ार्क": 4968,
      "](https://hi.wikipedia.org/wiki/ओ": 4969,
      "▁(2006": 4970,
      "भारत)": 4971,
      "ారస": 4972,
      "ootb": 4973,
      "raz": 4974,
      "▁second": 4975,
      "▁मो": 4976,
      "ాలను": 4977,
      "-07": 4978,
      "▁culture": 4979,
      "रान": 4980,
      "\\_मा": 4981,
      "\\_cont": 4982,
      "\\_identifiers": 4983,
      "ages/": 4984,
      "agari": 4985,
      "-135": 4986,
      "స్](https://te.wikipedia.org/wiki/": 4987,
      "▁far": 4988,
      "▁పెద్ద": 4989,
      "adwe": 4990,
      "lopedia": 4991,
      "र्क": 4992,
      "ర్లు": 4993,
      "▁Public": 4994,
      "▁केन्द्र": 4995,
      "ver,": 4996,
      "▁ही": 4997,
      "▁होत": 4998,
      "ular": 4999,
      "uled": 5000,
      "linkim": 5001,
      "hell": 5002,
      "FOOTNOTENational_Informatics_Centre2005": 5003,
      "లు\")": 5004,
      "▁women": 5005,
      "00–సా.శ.పూ.": 5006,
      "ource": 5007,
      "▁अर्थ": 5008,
      "ियां": 5009,
      "ाले": 5010,
      "ంది": 5011,
      "▁వే": 5012,
      "253": 5013,
      "ecu": 5014,
      "▁Gu": 5015,
      "▁Government": 5016,
      "▁November": 5017,
      "▁Nehru": 5018,
      "▁नद": 5019,
      "▁नहीं": 5020,
      "](https://mai.wikipedia.org/wiki/क": 5021,
      "](https://mai.wikipedia.org/wiki/स": 5022,
      "shared/": 5023,
      "▁से](http://www.": 5024,
      "_Ass": 5025,
      "_Affairs": 5026,
      "न्दोल": 5027,
      "architecture": 5028,
      "▁\"भारतक": 5029,
      "త్తం": 5030,
      "▁(సా.శ.15": 5031,
      "▁(సా.శ.13": 5032,
      "▁1960": 5033,
      "▁From": 5034,
      "▁అనే": 5035,
      "▁Indus": 5036,
      "▁forest": 5037,
      "▁[\"A": 5038,
      "▁[\"The": 5039,
      "▁ప్రజ": 5040,
      "407": 5041,
      "पुरा": 5042,
      "स्ला": 5043,
      "తం\")": 5044,
      "](https://web.archive.org/web/200": 5045,
      "hap": 5046,
      "ంచి": 5047,
      "_Pro": 5048,
      "▁उद्य": 5049,
      "aves": 5050,
      ".gov.in": 5051,
      "▁ఆఫ్": 5052,
      "dex": 5053,
      "▁సాం": 5054,
      "▁[Ministry": 5055,
      "▁है।[[": 5056,
      "ార్లమె": 5057,
      "▁\"British": 5058,
      "▁रहा": 5059,
      "undament": 5060,
      "arty": 5061,
      "ogue": 5062,
      "కిస్థాన్": 5063,
      "ssam": 5064,
      "oreign": 5065,
      "iley": 5066,
      "▁నే": 5067,
      "▁నగర": 5068,
      "anipur": 5069,
      "कारीब": 5070,
      "48/cb": 5071,
      "ాయి.": 5072,
      "టిబె": 5073,
      "▁[Government": 5074,
      "_GDP": 5075,
      "్రీ.పూ.": 5076,
      "_Nadu": 5077,
      "ext": 5078,
      "▁[![A": 5079,
      "hmed": 5080,
      "](https://en.wikipedia.org/wiki/National_": 5081,
      "ండియా": 5082,
      "athura": 5083,
      "](https://en.wikipedia.org/wiki/List_of_SAARC_summit": 5084,
      "▁produc": 5085,
      "▁ఎక్కువ": 5086,
      "▁ఎన్నో": 5087,
      "विशेष:EditPage/": 5088,
      "ूर्वी": 5089,
      "hya": 5090,
      "amil_Nadu": 5091,
      "economic": 5092,
      "▁./వర్గం:Wikipedia\\_articles": 5093,
      "▁technology": 5094,
      "▁regions": 5095,
      "_సం": 5096,
      "ashmiri": 5097,
      "ారు.\n": 5098,
      "ancis": 5099,
      "▁Hinduism": 5100,
      "▁मेला](https://hi.wikipedia.org/wiki/": 5101,
      "गणराज्य": 5102,
      "▁वर्ग": 5103,
      "టుంబ": 5104,
      "▁./श्रेणी:जान": 5105,
      "awahar": 5106,
      "india.gov.in/india-glance": 5107,
      "▁right": 5108,
      "8/8": 5109,
      "▁భారత్": 5110,
      "kingdom": 5111,
      "మెరి": 5112,
      "▁economy": 5113,
      "▁మొత్తం": 5114,
      "బాద్": 5115,
      "urrent": 5116,
      "eserve": 5117,
      "ంపెనీ": 5118,
      "vanagari": 5119,
      "View": 5120,
      "▁स्रोत/978-1": 5121,
      "industani": 5122,
      "](https://hi.wikipedia.org/wiki/विशेष:पुस्तक_स्रोत/978-1": 5123,
      "హ్మ": 5124,
      "cyclop": 5125,
      "cyclopedia": 5126,
      "-lead": 5127,
      "हितक\\_पृष्ठसभ": 5128,
      "Uttarakhand": 5129,
      "▁ఏర్": 5130,
      "hasha": 5131,
      "akshadwe": 5132,
      "▁groups": 5133,
      "్రిటిషు": 5134,
      "\\_देशमे": 5135,
      "▁भूम": 5136,
      "_Islands": 5137,
      ".bnf": 5138,
      "omason": 5139,
      "_BRICS_summit": 5140,
      "▁Persian": 5141,
      "▁चुनाव": 5142,
      "hristian": 5143,
      ".fr/ark": 5144,
      "Provision": 5145,
      "पदण्ड": 5146,
      "▁అత్యధిక": 5147,
      "overeign": 5148,
      "fghanistan": 5149,
      "nclm.nic.in/shared/": 5150,
      "रेलू": 5151,
      "लयालम": 5152,
      "etraglia": 5153,
      "ీర్ణ": 5154,
      "దక్షిణ_ఆసియా": 5155,
      "\\_सहितक\\_पृष्ठसभ": 5156,
      "▁शताब्दी": 5157,
      "▁[पुरालेखित](https://web.archive.org/web/201": 5158,
      "Pages\\_using\\_": 5159,
      "icobar": 5160,
      "▁summits\")": 5161,
      "र्वोच्च": 5162,
      ":/12148/cb": 5163,
      "ootball": 5164,
      "\\_मापदण्ड": 5165,
      "\\_contain": 5166,
      "linkimages/": 5167,
      "कारीबौक्स": 5168,
      "_GDP_(": 5169,
      "](https://en.wikipedia.org/wiki/List_of_SAARC_summits": 5170,
      "विशेष:EditPage/साँचा:": 5171,
      "▁./श्रेणी:जानकारीबौक्स": 5172,
      "awaharl": 5173,
      "akshadweep": 5174,
      ".bnf.fr/ark": 5175,
      "nclm.nic.in/shared/linkimages/": 5176,
      "\\_सहितक\\_पृष्ठसभ#": 5177,
      ".bnf.fr/ark:/12148/cb": 5178,
      "-D": 5179,
      "-विज्ञान": 5180,
      ".\")\n": 5181,
      ".](https://upload.wikimedia.org/wikipedia/commons/thumb/": 5182,
      "/india": 5183,
      "123": 5184,
      "125": 5185,
      "3–": 5186,
      "320": 5187,
      "350": 5188,
      "4]](https://en.wikipedia.org/wiki/India#cite_note-FOOTNOTE": 5189,
      "4-108": 5190,
      "7).": 5191,
      "9–": 5192,
      "AS": 5193,
      "All": 5194,
      "Census": 5195,
      "Fr": 5196,
      "Gua": 5197,
      "JIJ": 5198,
      "Kashmir": 5199,
      "MC": 5200,
      "MID": 5201,
      "Ministry_of_": 5202,
      "NA": 5203,
      "National": 5204,
      "Vu": 5205,
      "Zva": 5206,
      "ZVu": 5207,
      "_g": 5208,
      "_h": 5209,
      "_24": 5210,
      "_17": 5211,
      "aul": 5212,
      "bbc": 5213,
      "ced": 5214,
      "c/c": 5215,
      "code": 5216,
      "casting": 5217,
      "ds": 5218,
      "dish": 5219,
      "ek": 5220,
      "ece": 5221,
      "hu": 5222,
      "ham": 5223,
      "hang": 5224,
      "had": 5225,
      "hindi": 5226,
      "ij": 5227,
      "ker": 5228,
      "kZVu": 5229,
      "most": 5230,
      "mrits": 5231,
      "nc": 5232,
      "ned": 5233,
      "ncient": 5234,
      "ott": 5235,
      "ple": 5236,
      "pture": 5237,
      "ues": 5238,
      "yer": 5239,
      "ंच": 5240,
      "कणी": 5241,
      "गू": 5242,
      "छत्तीस": 5243,
      "डो": 5244,
      "तृत": 5245,
      "मो": 5246,
      "रस": 5247,
      "लग": 5248,
      "श्य": 5249,
      "सून": 5250,
      "िंध": 5251,
      "ीच": 5252,
      "ुम्ब": 5253,
      "ेक": 5254,
      "–4": 5255,
      "▁z": 5256,
      "▁6.": 5257,
      "▁United": 5258,
      "▁low": 5259,
      "▁Qu": 5260,
      "▁[f": 5261,
      "▁[ल": 5262,
      "▁[World": 5263,
      "en,": 5264,
      "tered": 5265,
      "▁\"च": 5266,
      "▁\"तमिल": 5267,
      "ants": 5268,
      "tis": 5269,
      "th_BRICS_summit": 5270,
      "arlo": 5271,
      "araj": 5272,
      "2025": 5273,
      "ala": 5274,
      "aland": 5275,
      "alli": 5276,
      "es,": 5277,
      "hib": 5278,
      "thema": 5279,
      "▁कई": 5280,
      "▁कश्मीर": 5281,
      "outheast": 5282,
      "▁सैन": 5283,
      "▁sq": 5284,
      "▁sector": 5285,
      "▁मैदान": 5286,
      "rime": 5287,
      "▁caus": 5288,
      "uss": 5289,
      "▁पर्वत": 5290,
      "▁China": 5291,
      "▁Civil": 5292,
      "[[14": 5293,
      "▁tree": 5294,
      "loth": 5295,
      "urve": 5296,
      "urity": 5297,
      "▁Punjab": 5298,
      "याधी": 5299,
      "_of_2011": 5300,
      "▁man": 5301,
      "▁dom": 5302,
      "0000": 5303,
      "▁2018": 5304,
      "▁This": 5305,
      "▁Research": 5306,
      "▁M.": 5307,
      "ाल्": 5308,
      "iger": 5309,
      "emic": 5310,
      "emographic": 5311,
      "वित": 5312,
      "ोंकणी": 5313,
      "▁दि": 5314,
      "1017": 5315,
      "भाज": 5316,
      "indus": 5317,
      "_का_": 5318,
      "▁Europe": 5319,
      "▁hum": 5320,
      "▁human": 5321,
      "▁house": 5322,
      "▁बीच": 5323,
      "oples": 5324,
      "▁से](http://": 5325,
      "▁religious": 5326,
      "न्दिर": 5327,
      "▁these": 5328,
      "](https://en.wikipedia.org/wiki/India#CITEREFB": 5329,
      "▁2008": 5330,
      "22-9": 5331,
      "▁name": 5332,
      "क्षा": 5333,
      "▁1965": 5334,
      "27)": 5335,
      "▁Linguistic": 5336,
      "_Paper": 5337,
      "▁उत्पाद": 5338,
      "_मंदिर": 5339,
      "▁[↑](https://en.wikipedia.org/wiki/India#cite_ref-FOOTNOTEB": 5340,
      "लेट": 5341,
      "rief": 5342,
      "▁इन": 5343,
      "▁[British": 5344,
      "ligions": 5345,
      "emplate_": 5346,
      "_Totals": 5347,
      "opulation_Totals": 5348,
      "ociation": 5349,
      "ockey": 5350,
      "▁def": 5351,
      "▁development": 5352,
      "▁लोक": 5353,
      "▁language\"),": 5354,
      "▁राज्य\")": 5355,
      "▁\"Government": 5356,
      "▁Press](https://en.wikipedia.org/wiki/C": 5357,
      "exist": 5358,
      "▁[अंग्रेज़": 5359,
      "▁अनु": 5360,
      "▁[Dyson": 5361,
      "ibcode": 5362,
      "ikhism": 5363,
      "▁करोड़": 5364,
      "MetcalfMetcalf2012": 5365,
      "_population": 5366,
      "▁mathema": 5367,
      "▁1994": 5368,
      "_1_of_2011": 5369,
      "onstitutional": 5370,
      "do-European": 5371,
      "▁राजनी": 5372,
      "html).": 5373,
      "674": 5374,
      "▁हैं।\n": 5375,
      "▁control": 5376,
      "▁when": 5377,
      "▁languages\")": 5378,
      "overnment_of_India": 5379,
      "न्तर": 5380,
      "▁addition": 5381,
      "▁\"पंजाब": 5382,
      "\")*,": 5383,
      "▁2,": 5384,
      "▁[पंजाब": 5385,
      "o-operation": 5386,
      "▁होता": 5387,
      "ighth": 5388,
      "▁Islands\")": 5389,
      "gypt": 5390,
      "phere": 5391,
      "ब्ब": 5392,
      "official": 5393,
      "▁Programme": 5394,
      "▁composed": 5395,
      "▁km2": 5396,
      "श्मीरी": 5397,
      "uisine": 5398,
      "odiversity": 5399,
      "▁wide": 5400,
      "▁जिसमें": 5401,
      "dependence": 5402,
      "▁along": 5403,
      "▁कारण": 5404,
      "struc": 5405,
      "074-108": 5406,
      "_मेला?action=edit&redlink=1": 5407,
      "▁Registrar": 5408,
      "▁Plateau": 5409,
      "▁स्थित": 5410,
      "णिपुरी": 5411,
      "ennai": 5412,
      "-4020": 5413,
      "गोआ": 5414,
      "al_Population_Totals": 5415,
      "Articles\\_contain": 5416,
      "arnatic": 5417,
      "ynasty": 5418,
      "-78074-108": 5419,
      "ूर्ण": 5420,
      "श्रीलंका": 5421,
      "र्सिट": 5422,
      "roadcasting": 5423,
      "uthority": 5424,
      "entral_": 5425,
      "ूनिवर्सिट": 5426,
      "▁Increase": 5427,
      "▁स्थाप": 5428,
      "Provisional_Population_Totals": 5429,
      "GuaJIJ": 5430,
      "ZvaGuaJIJ": 5431,
      "ुम्बई": 5432,
      "याधीश": 5433,
      "_Paper_1_of_2011": 5434,
      "▁[अंग्रेज़ी](https://hi.wikipedia.org/wiki/अ": 5435,
      "-78074-108-6": 5436,
      "Provisional_Population_Totals_Paper_1_of_2011": 5437,
      "ZvaGuaJIJgo": 5438,
      "Provisional_Population_Totals_Paper_1_of_2011_India": 5439,
      "*)": 5440,
      "-R": 5441,
      "-S": 5442,
      "-k": 5443,
      "-r": 5444,
      "-an": 5445,
      "-India": 5446,
      "-शासित": 5447,
      "-logo": 5448,
      ".0": 5449,
      ".uk": 5450,
      "/g": 5451,
      "1-0": 5452,
      "1-3": 5453,
      "1-4": 5454,
      "2)\n": 5455,
      "2)[[": 5456,
      "338": 5457,
      "7%": 5458,
      "7-1": 5459,
      "83": 5460,
      "9/": 5461,
      "9]](https://en.wikipedia.org/wiki/India#cite_note-": 5462,
      ";\n": 5463,
      "AG": 5464,
      "Con": 5465,
      "ES": 5466,
      "Home": 5467,
      "IF": 5468,
      "IUCN": 5469,
      "_v": 5470,
      "_द": 5471,
      "_pe": 5472,
      "_26": 5473,
      "_राज्य": 5474,
      "_43": 5475,
      "_2004": 5476,
      "_జాబితా": 5477,
      "a)": 5478,
      "ax": 5479,
      "b/": 5480,
      "cog": 5481,
      "cise": 5482,
      "day": 5483,
      "dust": 5484,
      "eth": 5485,
      "epend": 5486,
      "equality": 5487,
      "hut": 5488,
      "here": 5489,
      "hindu": 5490,
      "i-": 5491,
      "lue": 5492,
      "ov": 5493,
      "oint": 5494,
      "ption": 5495,
      "ंत": 5496,
      "तम": 5497,
      "त\\_मापदण्ड": 5498,
      "पक": 5499,
      "पार": 5500,
      "भिय": 5501,
      "मर": 5502,
      "रत": 5503,
      "वर्त": 5504,
      "शिया\")": 5505,
      "ीगढ़": 5506,
      "ॉक": 5507,
      "ఆంధ": 5508,
      "కీ": 5509,
      "కాలు": 5510,
      "క్రమ": 5511,
      "గర్": 5512,
      "డో": 5513,
      "థి": 5514,
      "నె": 5515,
      "నాలు": 5516,
      "పించ": 5517,
      "బడ్డ": 5518,
      "భర": 5519,
      "మహ": 5520,
      "మై": 5521,
      "యన": 5522,
      "రంగ": 5523,
      "లయా": 5524,
      "వార": 5525,
      "శీ": 5526,
      "షనల్": 5527,
      "స్య": 5528,
      "ృద్ధి": 5529,
      "ెంగ": 5530,
      "ేర": 5531,
      "–24": 5532,
      "▁hist": 5533,
      "▁old": 5534,
      "▁దా": 5535,
      "▁నాగరికత": 5536,
      "▁టెక్నాలజీ": 5537,
      "iary": 5538,
      "orn": 5539,
      "](Template:": 5540,
      "▁[ड": 5541,
      "▁[द": 5542,
      "▁[वि": 5543,
      "\")\"": 5544,
      "infob": 5545,
      "erman": 5546,
      "alt": 5547,
      "hild": 5548,
      "of\\_": 5549,
      "▁कु": 5550,
      "ed,": 5551,
      "anda": 5552,
      "్రై": 5553,
      "్రప్రదేశ్": 5554,
      "](https://te.wikipedia.org/wiki/ఢిల్లీ": 5555,
      "▁(c": 5556,
      "▁(199": 5557,
      "asi": 5558,
      "ashi": 5559,
      "▁सँ": 5560,
      "▁स्त": 5561,
      "▁सूचना": 5562,
      "▁India.[[": 5563,
      "▁India](https://en.wikipedia.org/wiki/C": 5564,
      "idy": 5565,
      "raj": 5566,
      "rahm": 5567,
      "entury": 5568,
      "▁मध्य": 5569,
      "▁prom": 5570,
      "ripura": 5571,
      "▁colle": 5572,
      "▁पै": 5573,
      "\\_country": 5574,
      "\\_of\\_": 5575,
      "▁Central": 5576,
      "▁Cooperation": 5577,
      "ानव": 5578,
      "దేశం": 5579,
      "దేశాల": 5580,
      "దేశాలు": 5581,
      "స్\")": 5582,
      "▁fam": 5583,
      "adras": 5584,
      "adhya": 5585,
      "ర్‌": 5586,
      "main": 5587,
      "▁Park": 5588,
      "\"),[[": 5589,
      "comm": 5590,
      "_of_B": 5591,
      "లు?action=edit&redlink=1": 5592,
      "▁des": 5593,
      "రాఠ": 5594,
      "▁2012.": 5595,
      "▁2014.": 5596,
      "]](https://en.wikipedia.org/wiki/India#cite_note-Combined": 5597,
      "▁top": 5598,
      "▁కి": 5599,
      "▁కో": 5600,
      "▁att": 5601,
      "ालदीव": 5602,
      "ign_": 5603,
      "igarh": 5604,
      "క్టో": 5605,
      "ेशन": 5606,
      "ेशिया": 5607,
      "నియా": 5608,
      "▁వర్": 5609,
      "▁వారస": 5610,
      "▁जी": 5611,
      "▁दशक": 5612,
      "10)": 5613,
      "irth": 5614,
      "260": 5615,
      "267": 5616,
      "ల్వే": 5617,
      "pecially": 5618,
      "eccan": 5619,
      "▁సరిహద్దు": 5620,
      "▁మన": 5621,
      "▁మూ": 5622,
      "▁भारत\")": 5623,
      "28.": 5624,
      "▁Games": 5625,
      "▁H.": 5626,
      "ండమా": 5627,
      "षाण": 5628,
      "▁చిన్న": 5629,
      "తాన": 5630,
      "▁only": 5631,
      "_Act": 5632,
      "ముఖ": 5633,
      "aryana": 5634,
      "▁religion": 5635,
      "▁report": 5636,
      "▁through": 5637,
      "ability": 5638,
      "▁2001": 5639,
      "త్వం": 5640,
      "▁आर": 5641,
      "▁आर्थिक": 5642,
      "▁near": 5643,
      "क्षर": 5644,
      "▁(సా.శ.17": 5645,
      "▁(సా.శ.14": 5646,
      "ులు,": 5647,
      "–సా.శ.15": 5648,
      "–సా.శ.17": 5649,
      "▁ప్రతి": 5650,
      "▁ప్రస్తు": 5651,
      "▁ప్రకారం": 5652,
      "▁ప్రముఖ": 5653,
      "archive.org/detail": 5654,
      "▁growth": 5655,
      "AAJ": 5656,
      "hai": 5657,
      "166": 5658,
      "ంచిన": 5659,
      "కుడు": 5660,
      "▁Ocean": 5661,
      "నుమ": 5662,
      "▁कोर": 5663,
      "ింది.\n": 5664,
      "काश": 5665,
      "▁\"Mughal": 5666,
      "▁రో": 5667,
      "▁రంగ": 5668,
      "▁రవాణా": 5669,
      "▁సాధించ": 5670,
      "▁शिक्षा": 5671,
      "](https://en.wikipedia.org/wiki/Mugh": 5672,
      "ష్టు": 5673,
      "law": 5674,
      "ियर": 5675,
      "a_d": 5676,
      "a_Empire": 5677,
      "▁within": 5678,
      "](https://en.wikipedia.org/wiki/British": 5679,
      "ంతో": 5680,
      "▁\"Template:": 5681,
      "▁తరువా": 5682,
      "పాలన": 5683,
      "ंडीगढ़": 5684,
      "▁लोग": 5685,
      "▁exp": 5686,
      "ం](https://te.wikipedia.org/wiki/భారతీయ": 5687,
      "issing": 5688,
      "▁क्षेत्रीय": 5689,
      "▁Press,": 5690,
      "గుర్": 5691,
      "నేషనల్": 5692,
      "ender": 5693,
      "▁ప్రాంతం": 5694,
      ",_కేంద్రపాలిత": 5695,
      "వందే": 5696,
      "content": 5697,
      "▁రాజ్యం](https://te.wikipedia.org/wiki/": 5698,
      "▁नेतृत": 5699,
      "▁బా": 5700,
      "▁బహు": 5701,
      "▁బెంగ": 5702,
      "▁\"ब्रिटिश": 5703,
      "▁पुरा": 5704,
      "सभ\\_सहितक\\_पृष्ठसभ#": 5705,
      "जनसंख्या": 5706,
      "▁जनवरी": 5707,
      "▁जनसंख्या": 5708,
      "ాల్లో": 5709,
      "handigarh": 5710,
      "శ్వా": 5711,
      "ారిటీ": 5712,
      "PPP": 5713,
      "▁ప్రాంతాలు\")": 5714,
      "AsherTalbot20": 5715,
      "గోళ": 5716,
      "▁२०१": 5717,
      "1971": 5718,
      "బడిన": 5719,
      "_Lank": 5720,
      "ediff": 5721,
      "▁ago": 5722,
      "తున్న": 5723,
      "న్నిక": 5724,
      "]](https://hi.wikipedia.org/wiki/भारत#cite_note-FOOTNOTEStein1998": 5725,
      "]](https://hi.wikipedia.org/wiki/भारत#cite_note-FOOTNOTESingh2009": 5726,
      "▁స్వాతంత్ర్య": 5727,
      "▁కాలంలో": 5728,
      "ote:": 5729,
      "▁use": 5730,
      "countries_and_depend": 5731,
      "mitt": 5732,
      "](https://mai.wikipedia.org/wiki/भारतक": 5733,
      "Dyson2018),": 5734,
      "िन्धु": 5735,
      "मुख्य": 5736,
      "ortal:": 5737,
      "ంపి": 5738,
      "encies_by": 5739,
      "బెంగాల్": 5740,
      "rishna": 5741,
      "▁especially": 5742,
      ".html).": 5743,
      "rmy": 5744,
      "ెలవు": 5745,
      "](https://te.wikipedia.org/wiki/భారతదేశంలో_": 5746,
      "▁रहल": 5747,
      "▁Buddhist": 5748,
      "olkata": 5749,
      "▁increased": 5750,
      "▁అధికారిక": 5751,
      "catal": 5752,
      "▁सभ्यता": 5753,
      "](https://en.wikipedia.org/wiki/South_Asian_": 5754,
      "ज्ञात\\_मापदण्ड": 5755,
      "culpture": 5756,
      "text": 5757,
      "▁2018](https://en.wikipedia.org/wiki/India#CITEREFDyson2018),": 5758,
      ".php?": 5759,
      "ఆర్ధిక": 5760,
      "▁పట్టణ": 5761,
      "▁కాశ్మీరు": 5762,
      "ological": 5763,
      "\\_अज्ञात\\_मापदण्ड": 5764,
      "▁Minorities": 5765,
      "▁dependencies": 5766,
      "ంగ్లీషు": 5767,
      "arnataka": 5768,
      "त्तराखण्ड": 5769,
      "▁estimate": 5770,
      "▁అయిన": 5771,
      "▁రెండు": 5772,
      "violence": 5773,
      "ాల్దీవులు": 5774,
      "एसियाक": 5775,
      "ట్రో": 5776,
      "ుల్తాన": 5777,
      "రాష్ట్రాలు,_కేంద్రపాలిత": 5778,
      "దినోత్సవం": 5779,
      "▁వ్యాసం:": 5780,
      "हायता:": 5781,
      "▁अप्रैल": 5782,
      "हिमाचल": 5783,
      "▁लेख:": 5784,
      "ార్లమెంట": 5785,
      "▁./వర్గం:Wikipedia\\_articles\\_with\\_": 5786,
      "▁ఏర్ప": 5787,
      "\\_देशमे\\_अज्ञात\\_मापदण्ड": 5788,
      "▁./श्रेणी:जानकारीबौक्स\\_देशमे\\_अज्ञात\\_मापदण्ड": 5789,
      "▁Quote:": 5790,
      "ZvaGuaJIJgoC&pg=PA": 5791,
      "ఆంధ్రప్రదేశ్": 5792,
      "లయాళ": 5793,
      "infobox": 5794,
      "archive.org/details/": 5795,
      "](https://en.wikipedia.org/wiki/Mughal_": 5796,
      "countries_and_dependencies_by": 5797,
      "రాష్ట్రాలు,_కేంద్రపాలిత_ప్రాంత": 5798,
      "▁./श्रेणी:जानकारीबौक्स\\_देशमे\\_अज्ञात\\_मापदण्डसभ\\_सहितक\\_पृष्ठसभ#": 5799,
      "-T": 5800,
      "-world": 5801,
      ".co": 5802,
      "/s": 5803,
      "/India": 5804,
      "3.\n": 5805,
      "313": 5806,
      "4]](https://en.wikipedia.org/wiki/India#cite_note-": 5807,
      "418": 5808,
      "52": 5809,
      "5]](https://en.wikipedia.org/wiki/India#cite_note-": 5810,
      "677": 5811,
      "72": 5812,
      "7C": 5813,
      "7.\n": 5814,
      "82": 5815,
      "9]](https://en.wikipedia.org/wiki/India#cite_note-FOOTNOTE": 5816,
      ";[[": 5817,
      "Alig": 5818,
      "EX": 5819,
      "Ex": 5820,
      "Ze": 5821,
      "_&": 5822,
      "_उ": 5823,
      "_20": 5824,
      "_राज": 5825,
      "_36": 5826,
      "_38": 5827,
      "_dom": 5828,
      "_2024": 5829,
      "aha": 5830,
      "ather": 5831,
      "ative": 5832,
      "ault": 5833,
      "baki": 5834,
      "dic": 5835,
      "ethnologue": 5836,
      "hak": 5837,
      "ka": 5838,
      "kb": 5839,
      "khand": 5840,
      "lm": 5841,
      "mil": 5842,
      "oin": 5843,
      "p)": 5844,
      "page": 5845,
      "s:": 5846,
      "subcontinent": 5847,
      "tain": 5848,
      "tandard": 5849,
      "vent": 5850,
      "vil": 5851,
      "wana": 5852,
      "अरब": 5853,
      "एन": 5854,
      "एल": 5855,
      "गाल": 5856,
      "टि": 5857,
      "धा": 5858,
      "मु": 5859,
      "लिस": 5860,
      "वल": 5861,
      "षय": 5862,
      "िनेमा": 5863,
      "ृद्ध": 5864,
      "ॉल": 5865,
      "▁३": 5866,
      "▁ge": 5867,
      "▁36": 5868,
      "▁77": 5869,
      "▁eng": 5870,
      "orship": 5871,
      "tter": 5872,
      "▁[n": 5873,
      "▁[य": 5874,
      "▁[नेपाल": 5875,
      "ences": 5876,
      "tection": 5877,
      "▁\"U": 5878,
      "▁\"य": 5879,
      "▁\"World": 5880,
      "▁\"नेपाल": 5881,
      "](https://en.wikipedia.org/wiki/World": 5882,
      "erved": 5883,
      "artition": 5884,
      "alit": 5885,
      "him": 5886,
      "ार्व": 5887,
      "ederal": 5888,
      "▁(S": 5889,
      "▁(अ": 5890,
      "▁(ed.).": 5891,
      "भारतीय": 5892,
      "ichell": 5893,
      "▁India*.": 5894,
      "्यों": 5895,
      "▁मह": 5896,
      "ately": 5897,
      "▁popul": 5898,
      "▁political": 5899,
      "ets": 5900,
      "▁coast": 5901,
      "राक": 5902,
      "ator": 5903,
      "atab": 5904,
      "atna": 5905,
      "\\_(": 5906,
      "▁As": 5907,
      "▁Comp": 5908,
      "▁Chand": 5909,
      "agen": 5910,
      "▁See": 5911,
      "ango": 5912,
      "angam": 5913,
      "▁bu": 5914,
      "lima": 5915,
      "78.": 5916,
      "umar": 5917,
      "vert": 5918,
      "very": 5919,
      "ults": 5920,
      "▁14.": 5921,
      "iland": 5922,
      "stani": 5923,
      "▁work": 5924,
      "ourbaki": 5925,
      "oln": 5926,
      "▁Rothermund": 5927,
      "▁Man": 5928,
      "▁Muslim": 5929,
      "-0)\n": 5930,
      "न्स": 5931,
      "rest": 5932,
      "▁Bi": 5933,
      "▁By": 5934,
      "238": 5935,
      "▁जय": 5936,
      "▁Dictionary": 5937,
      "▁दिल्ल": 5938,
      "105": 5939,
      "_(भारत)": 5940,
      ".jpe": 5941,
      "index": 5942,
      "▁[↑](https://en.wikipedia.org/wiki/India#cite_ref-4": 5943,
      "eck": 5944,
      "▁प्रस": 5945,
      "▁प्रेस": 5946,
      "▁प्रौद्योगिक": 5947,
      "▁नव": 5948,
      "-39": 5949,
      "115": 5950,
      "50th": 5951,
      "22.": 5952,
      "▁व्य": 5953,
      "▁व्या": 5954,
      "ghts": 5955,
      "▁International": 5956,
      "▁[\"P": 5957,
      "406]](https://en.wikipedia.org/wiki/India#cite_note-": 5958,
      "▁gen": 5959,
      "▁\"Cambridge": 5960,
      "oss": 5961,
      "hatt": 5962,
      "harkhand": 5963,
      "▁गु": 5964,
      "_Comm": 5965,
      "ड़िया": 5966,
      "▁Languages": 5967,
      "▁[Cambridge": 5968,
      "▁[978-0-521": 5969,
      "ndhra": 5970,
      "▁[↑](https://en.wikipedia.org/wiki/India#cite_ref-FOOTNOTEStein2010": 5971,
      "▁before": 5972,
      "▁शु": 5973,
      "lative": 5974,
      "ियार": 5975,
      "▁original](http://www.": 5976,
      "साई": 5977,
      "_Mah": 5978,
      "▁सागर": 5979,
      "inema": 5980,
      "aith": 5981,
      "48)": 5982,
      "arden": 5983,
      "▁लग": 5984,
      "ेली": 5985,
      "▁range": 5986,
      "issile": 5987,
      "ंग्रेज": 5988,
      "iance": 5989,
      "परमाणु": 5990,
      "akistani": 5991,
      "vention": 5992,
      "▁[New": 5993,
      "▁lite": 5994,
      "class": 5995,
      "type": 5996,
      "onstitution_of_India": 5997,
      "ज्ज": 5998,
      "▁vill": 5999,
      "▁राजधान": 6000,
      "▁राजवंश": 6001,
      "ambridge_University_Press": 6002,
      "▁स्थान": 6003,
      "▁(2014).": 6004,
      "▁जाती": 6005,
      "alayal": 6006,
      "िवस": 6007,
      "erves": 6008,
      "on-Alig": 6009,
      "aceu": 6010,
      "%E0%A4%A": 6011,
      "▁2007](https://en.wikipedia.org/wiki/India#CITEREF": 6012,
      "▁News": 6013,
      "attle": 6014,
      "ureau": 6015,
      "1947)": 6016,
      "▁प्राचीन": 6017,
      "आईएस": 6018,
      "ondon": 6019,
      "रेन्द्र": 6020,
      "▁धर्म\")": 6021,
      "hola": 6022,
      "ollingham": 6023,
      "▁था।": 6024,
      "▁2024.": 6025,
      "▁शासित": 6026,
      "▁different": 6027,
      "ांग्लादेश": 6028,
      "लोकसभा": 6029,
      "धुनिक": 6030,
      "cheduled": 6031,
      "▁साम्राज्य\")": 6032,
      "4/4": 6033,
      ".nlm": 6034,
      "bi.nlm": 6035,
      "दिल्ली": 6036,
      "▁including": 6037,
      "▁[India](https://en.wikipedia.org/wiki/India": 6038,
      "ritsch": 6039,
      "troduction": 6040,
      "ilgrim": 6041,
      "langoff-1": 6042,
      "vatsyayan-lord-4": 6043,
      "vatsyayan-lord_43": 6044,
      "jection": 6045,
      "_of_South_Asia": 6046,
      "nergy": 6047,
      "_साम्राज्य": 6048,
      "owever,": 6049,
      "bank.org/": 6050,
      "▁पहले": 6051,
      "harmaceu": 6052,
      "Congress2004": 6053,
      "▁mi)": 6054,
      "olonial": 6055,
      "ouncil": 6056,
      "do-Pakistani": 6057,
      ".nih": 6058,
      "नुसार_देश": 6059,
      "▁[हिन्दी](https://hi.wikipedia.org/wiki/हिन्दी": 6060,
      "arliest": 6061,
      "hmedabad": 6062,
      "▁चुनावों": 6063,
      "Front": 6064,
      "kZVuDwAAQBAJ&pg=PA": 6065,
      "mritsar": 6066,
      "ncbi.nlm": 6067,
      "▁सैन्य": 6068,
      "urvey": 6069,
      "भाजपा": 6070,
      "▁Press](https://en.wikipedia.org/wiki/Cambridge_University_Press": 6071,
      "dustrial": 6072,
      "ethnologue.com/": 6073,
      "406]](https://en.wikipedia.org/wiki/India#cite_note-vatsyayan-lord-4": 6074,
      "on-Aligned": 6075,
      "ncbi.nlm.nih": 6076,
      "%3": 6077,
      ")\"),": 6078,
      "-F": 6079,
      "-the": 6080,
      "-24": 6081,
      "/).": 6082,
      "126": 6083,
      "221": 6084,
      "226": 6085,
      "4,": 6086,
      "66": 6087,
      "6.\n": 6088,
      "8+": 6089,
      "CH": 6090,
      "Collingham": 6091,
      "F)": 6092,
      "M50th": 6093,
      "NCL": 6094,
      "OV": 6095,
      "Pakistan": 6096,
      "S$": 6097,
      "Sanskrit": 6098,
      "TO": 6099,
      "Template": 6100,
      "Tarlo": 6101,
      "_-": 6102,
      "_घ": 6103,
      "_వి": 6104,
      "_industry": 6105,
      "_కాశ్మీ": 6106,
      "athe": 6107,
      "aos": 6108,
      "athematics": 6109,
      "bhasha": 6110,
      "dis": 6111,
      "eat": 6112,
      "ead": 6113,
      "even": 6114,
      "eligious": 6115,
      "evanagari": 6116,
      "gu": 6117,
      "hdr": 6118,
      "lar": 6119,
      "mill": 6120,
      "ns": 6121,
      "odia": 6122,
      "ren": 6123,
      "round": 6124,
      "rune": 6125,
      "yd": 6126,
      "yth": 6127,
      "zer": 6128,
      "ंति": 6129,
      "इव": 6130,
      "खन": 6131,
      "ग्व": 6132,
      "च्": 6133,
      "चित्र": 6134,
      "जं": 6135,
      "ञ्": 6136,
      "डम": 6137,
      "तनाम": 6138,
      "नत्व": 6139,
      "पया": 6140,
      "पदी": 6141,
      "फोर्ड": 6142,
      "ब्ल": 6143,
      "बेट": 6144,
      "भग": 6145,
      "भु": 6146,
      "भ्स": 6147,
      "भुट": 6148,
      "यर": 6149,
      "लों": 6150,
      "िंग": 6151,
      "ीठ": 6152,
      "ी](https://mai.wikipedia.org/wiki/": 6153,
      "ुवै": 6154,
      "ैंक": 6155,
      "ॉंग्रेस": 6156,
      "ौसेना": 6157,
      "ौपदी": 6158,
      "२००": 6159,
      "ంస్కృ": 6160,
      "ఉత్తరా": 6161,
      "ఖో": 6162,
      "ఘాలయ": 6163,
      "చ్": 6164,
      "టై": 6165,
      "టర్": 6166,
      "డమ్": 6167,
      "డఖ్": 6168,
      "ణే": 6169,
      "ణంగా": 6170,
      "తే": 6171,
      "తెల": 6172,
      "దరంగ": 6173,
      "నో": 6174,
      "నంద": 6175,
      "బర్": 6176,
      "బార్": 6177,
      "యె": 6178,
      "రె": 6179,
      "లడఖ్": 6180,
      "ళా": 6181,
      "ళి": 6182,
      "శు": 6183,
      "హించ": 6184,
      "ుకు": 6185,
      "ెన్న": 6186,
      "ెట్రో": 6187,
      "ేతి": 6188,
      "ేఘాలయ": 6189,
      "ైనిక": 6190,
      "ొగలు": 6191,
      "ోళ": 6192,
      "‌కా": 6193,
      "‌మహ": 6194,
      "▁`": 6195,
      "▁°": 6196,
      "▁·": 6197,
      "▁५": 6198,
      "▁ఐ": 6199,
      "▁ఖ": 6200,
      "▁ला": 6201,
      "▁–సా.శ.": 6202,
      "▁భారతీయ": 6203,
      "▁46": 6204,
      "▁kingdom": 6205,
      "iated": 6206,
      "▁[Y": 6207,
      "▁[ई": 6208,
      "▁[ग": 6209,
      "▁[प्र": 6210,
      "▁[రాష్ట్ర": 6211,
      "▁[జన": 6212,
      "▁[గో": 6213,
      "▁[तमिल": 6214,
      "▁\"सा": 6215,
      "▁\"పా": 6216,
      "▁\"జన": 6217,
      "▁\"గో": 6218,
      "▁\"మూస:": 6219,
      "ino-": 6220,
      "an,": 6221,
      "anat": 6222,
      "anchi": 6223,
      "tile": 6224,
      "ties/": 6225,
      "thang": 6226,
      "India_G": 6227,
      "ars": 6228,
      "arth": 6229,
      "ester": 6230,
      "es.[[": 6231,
      "rel": 6232,
      "report": 6233,
      "ofker": 6234,
      "ारी": 6235,
      "thehindu": 6236,
      "▁कम": 6237,
      "](https://hi.wikipedia.org/wiki/पाकिस्तान": 6238,
      "omo": 6239,
      "itation": 6240,
      "](https://te.wikipedia.org/wiki/B": 6241,
      "](https://te.wikipedia.org/wiki/G": 6242,
      "](https://te.wikipedia.org/wiki/భారతదేశ": 6243,
      "](https://te.wikipedia.org/wiki/గో": 6244,
      "](https://te.wikipedia.org/wiki/మూస:": 6245,
      "▁(क": 6246,
      "ారస్వ": 6247,
      "▁सह": 6248,
      "▁साल": 6249,
      "▁स्व": 6250,
      "▁स्वतंत्रता": 6251,
      "196": 6252,
      "id-": 6253,
      "ratic": 6254,
      "▁school": 6255,
      "▁मौ": 6256,
      "ాలె": 6257,
      "▁pres": 6258,
      "-0-3": 6259,
      "etry": 6260,
      "acmill": 6261,
      "ingap": 6262,
      "▁can": 6263,
      "▁capita": 6264,
      "राम": 6265,
      "ating": 6266,
      "\\_template": 6267,
      "▁Ad": 6268,
      "ager": 6269,
      "-1\").\n": 6270,
      "స్ట": 6271,
      "స్వాతంత్ర్య": 6272,
      "▁Sabha": 6273,
      "▁Society": 6274,
      "▁four": 6275,
      "▁fol": 6276,
      "▁fig": 6277,
      "▁పర": 6278,
      "▁పండు": 6279,
      "angered": 6280,
      "lite": 6281,
      "loped": 6282,
      "र्श": 6283,
      "urk": 6284,
      "urry": 6285,
      "umeration": 6286,
      "▁हर": 6287,
      "](https://hi.wikipedia.org/wiki/भारत_के": 6288,
      "well": 6289,
      "లు](https://te.wikipedia.org/wiki/": 6290,
      "▁would": 6291,
      "రాన్": 6292,
      "రాస్య": 6293,
      "fir": 6294,
      "▁Temple": 6295,
      "▁Routledge": 6296,
      "▁Minister": 6297,
      "▁Machine": 6298,
      "▁కే": 6299,
      "▁కోర్": 6300,
      "త్రిక": 6301,
      "▁B.": 6302,
      "▁B.;": 6303,
      "igration": 6304,
      "క్స్": 6305,
      "క్కి": 6306,
      "s.com": 6307,
      "s.\"\n": 6308,
      "23.": 6309,
      "▁వె": 6310,
      "▁వంట": 6311,
      "▁led": 6312,
      "▁\"Sanskrit": 6313,
      "269,": 6314,
      "indhi": 6315,
      "_की_": 6316,
      "ంగో": 6317,
      "▁సముద్ర": 6318,
      "▁సూచ": 6319,
      "▁సౌక": 6320,
      "▁*India": 6321,
      "लाओ": 6322,
      "लादेश": 6323,
      "1991": 6324,
      "్రామ": 6325,
      "ंगाना": 6326,
      "upt": 6327,
      "bert": 6328,
      "287,": 6329,
      "tudi": 6330,
      "▁ele": 6331,
      "▁Greek": 6332,
      "▁Health": 6333,
      "▁N.": 6334,
      "▁Nicobar": 6335,
      "ండా": 6336,
      "ండీ": 6337,
      "ండ్య": 6338,
      "_in_New": 6339,
      "-459": 6340,
      "తాజ్": 6341,
      "_A7C": 6342,
      "నాథ": 6343,
      "▁third": 6344,
      "త్వా": 6345,
      "▁व्यवस्था": 6346,
      "▁[SAARC": 6347,
      "-85": 6348,
      "ody": 6349,
      "▁(సా.శ.16": 6350,
      "▁1962": 6351,
      "ులు?action=edit&redlink=1": 6352,
      "▁అభి": 6353,
      "ountain": 6354,
      "▁[\"G": 6355,
      "▁ప్రజా": 6356,
      "తం?action=edit&redlink=1": 6357,
      "▁\"Chin": 6358,
      "17.": 6359,
      "osphere": 6360,
      "hailand": 6361,
      "good": 6362,
      "▁Organization": 6363,
      "ड़ियाँ": 6364,
      "పూర్": 6365,
      "▁[Central": 6366,
      "aph": 6367,
      "_Pradesh": 6368,
      "ప్రిల్": 6369,
      "ngineering": 6370,
      "▁उन": 6371,
      "▁[978-81": 6372,
      "▁ఉంట": 6373,
      "▁ఉత్తర": 6374,
      "काता": 6375,
      "](https://books.google.com/books?id=3TRtDwAAQBAJ&pg=PA": 6376,
      "_महासागर": 6377,
      "▁సామా": 6378,
      "వాద": 6379,
      "▁शक्त": 6380,
      "విధ": 6381,
      "▁विस्त": 6382,
      "▁विदेश": 6383,
      "ార్ఖండ్": 6384,
      "క్షరాస్య": 6385,
      "▁इंडिया": 6386,
      "▁\"Special:BookSources/978-81": 6387,
      "](Special:BookSources/978-81": 6388,
      "otal": 6389,
      "%20A": 6390,
      "त्ति": 6391,
      "ogri": 6392,
      "_March": 6393,
      "709": 6394,
      "పుర": 6395,
      "▁నడి": 6396,
      "2011religion": 6397,
      "जापान": 6398,
      "▁ఇండియా": 6399,
      "▁now": 6400,
      "मन्त": 6401,
      "ंडोन": 6402,
      "हात्": 6403,
      "▁राज्यक्षेत्र": 6404,
      "▁areas": 6405,
      "_and_union_territ": 6406,
      "%2C5": 6407,
      "%2C_India": 6408,
      "ोलकाता": 6409,
      "▁क्षेत्रों": 6410,
      "గుప్": 6411,
      "డుకు": 6412,
      "నేషియా": 6413,
      "र्मू": 6414,
      "_River": 6415,
      "▁Ved": 6416,
      "्राम": 6417,
      "्राष्ट्र": 6418,
      "▁[![The": 6419,
      "aking": 6420,
      "ంగాణ": 6421,
      "article": 6422,
      "▁జన": 6423,
      "లియా": 6424,
      "▁\"अंग्रेज़ी": 6425,
      "▁ప్రాచ": 6426,
      "▁విభ": 6427,
      "▁వివిధ": 6428,
      "▁సంఘ": 6429,
      "49-2": 6430,
      "ंध्र": 6431,
      "ameez": 6432,
      "ండిచ్చేరి": 6433,
      "▁like": 6434,
      "भिज्ञा": 6435,
      "feb": 6436,
      "ोगरी": 6437,
      "▁main": 6438,
      "सभक": 6439,
      "svg": 6440,
      "Asher2006": 6441,
      "AsherAsher2006": 6442,
      "▁1998": 6443,
      "▁[ब्रिटिश": 6444,
      "▁जनता": 6445,
      "_128": 6446,
      "egistrar": 6447,
      "▁देश\")": 6448,
      "िशा": 6449,
      "मेव": 6450,
      "▁[Kulke": 6451,
      "amese": 6452,
      "జీరియా": 6453,
      "पुरम": 6454,
      "do-G": 6455,
      "33-7": 6456,
      "orthographic": 6457,
      "html)": 6458,
      "ంకేతి": 6459,
      "हरिया": 6460,
      "వేలీ": 6461,
      "▁contin": 6462,
      "alaysia": 6463,
      "DwAAQBAJ": 6464,
      "ष्ण": 6465,
      "द्रौपदी": 6466,
      "▁मेला\"),": 6467,
      "_Fund": 6468,
      "_Force": 6469,
      "ंग्रेज़ी_भाषा": 6470,
      "rates": 6471,
      "బియా": 6472,
      "▁change": 6473,
      "ukesh": 6474,
      "न्नई": 6475,
      "श्चिमी": 6476,
      "▁river": 6477,
      "ynth": 6478,
      "जराय": 6479,
      "డామన్": 6480,
      "▁రాష్ట్రపతి": 6481,
      "national-language": 6482,
      "▁agriculture": 6483,
      "▁मानसून": 6484,
      "త్రిపుర": 6485,
      "_కాల": 6486,
      "समिया": 6487,
      "▁రైల్వే": 6488,
      "ographical": 6489,
      "య్యూ": 6490,
      "▁Pradesh\")": 6491,
      "త్తీస్": 6492,
      "▁ప్రదేశ్](https://te.wikipedia.org/wiki/": 6493,
      "▁disc": 6494,
      "▁[Archived](https://web.archive.org/web/20210": 6495,
      "నాగాలా": 6496,
      "िपीठ": 6497,
      "▁पुरालेखित।,": 6498,
      "▁[संयुक्त": 6499,
      "▁\"జమ్మూ": 6500,
      "▁These": 6501,
      "्वतन्त्र": 6502,
      "बंधन": 6503,
      "–123": 6504,
      "ambodia": 6505,
      "▁పాకిస్తాన్": 6506,
      "▁subcontinent\")": 6507,
      "ually": 6508,
      "tected": 6509,
      "కోవ": 6510,
      "కోబార్": 6511,
      "](https://te.wikipedia.org/wiki/జమ్మూ": 6512,
      "lock": 6513,
      "local_": 6514,
      "ల్లవ": 6515,
      "तेलंगाना": 6516,
      "_और_संघ": 6517,
      "क्सफोर्ड": 6518,
      "ेरल": 6519,
      "▁commun": 6520,
      "▁Force": 6521,
      "कालीन": 6522,
      "▁2020.": 6523,
      "त्यमेव": 6524,
      "▁युग": 6525,
      "▁\"संस्कृत": 6526,
      "रक्षा": 6527,
      "हित्य": 6528,
      "▁species": 6529,
      "chedule": 6530,
      "emocratic": 6531,
      "_के_आधार_पर_भारत_के_राज्यों_की_सूची": 6532,
      "రేబియా": 6533,
      "_एशिया": 6534,
      "f/f": 6535,
      "▁rock": 6536,
      "ominion": 6537,
      "▁2025.": 6538,
      "టాక్": 6539,
      "ataraj": 6540,
      "▁People": 6541,
      "▁మాత్ర": 6542,
      "్రిటిష్": 6543,
      "▁बहुत": 6544,
      "_from": 6545,
      "janta": 6546,
      "వెను": 6547,
      "ూచి": 6548,
      "▁Chinese": 6549,
      "భారతదేశ_రాష్ట్రాలు,_కేంద్రపాలిత_ప్రాంత": 6550,
      "sites/": 6551,
      "tiger": 6552,
      "...]": 6553,
      "ప్పటిక": 6554,
      ".htm)": 6555,
      "▁emerg": 6556,
      "▁(1,269,": 6557,
      "▁देख": 6558,
      "లేషియా": 6559,
      "▁ओर": 6560,
      "्यानमार": 6561,
      "_projection": 6562,
      "▁majority": 6563,
      "▁3,287,": 6564,
      "▁మొదల": 6565,
      "Chennai": 6566,
      "▁occup": 6567,
      "Library_of_": 6568,
      "Sharma2007": 6569,
      "ద్యు": 6570,
      "▁చిత్ర": 6571,
      "ద్వీప్": 6572,
      "▁ఉపఖండ": 6573,
      "▁దేశంలోని": 6574,
      "▁కాంగ్రెసు": 6575,
      "दिभ्स": 6576,
      "▁appro": 6577,
      "त्रिपुरा": 6578,
      "▁निर्माण": 6579,
      "Report.pdf)": 6580,
      "Taj_Mah": 6581,
      "ఆగష్టు": 6582,
      "లక్షద్వీప్": 6583,
      "హాయం:": 6584,
      "ీకరణ": 6585,
      "ోల్‌కా": 6586,
      "-0-415": 6587,
      "al_in_March": 6588,
      "▁Wikidata": 6589,
      "प्राचीन": 6590,
      "మిజోరా": 6591,
      "तेलुगू": 6592,
      "lurton199": 6593,
      "ravidian": 6594,
      "elangana": 6595,
      "भीमबेट": 6596,
      "▁employed": 6597,
      "झारखंड": 6598,
      "ర్యానా": 6599,
      "▁[ఢిల్లీ](https://te.wikipedia.org/wiki/ఢిల్లీ": 6600,
      "▁\"पाकिस्तान\")": 6601,
      "reedom": 6602,
      "razil": 6603,
      "టిబెట్": 6604,
      "మెరికా": 6605,
      "nclm.nic.in/shared/linkimages/NCL": 6606,
      "Census2011religion": 6607,
      "छत्तीसगढ़": 6608,
      "िंधु": 6609,
      "lothing": 6610,
      "ाल्दिभ्स": 6611,
      "ब्बत": 6612,
      "▁widely": 6613,
      "▁[अंग्रेज़ी](https://hi.wikipedia.org/wiki/अंग्रेज़ी_भाषा": 6614,
      "Home_Affairs": 6615,
      "IFT": 6616,
      "బడ్డీ": 6617,
      "ేరళ": 6618,
      "▁कुछ": 6619,
      "్రైస్త": 6620,
      "ండమాన్": 6621,
      "▁नेतृत्व": 6622,
      "ెలవుదిన": 6623,
      "▁./श्रेणी:जानकारीबौक्स\\_देशमे\\_अज्ञात\\_मापदण्डसभ\\_सहितक\\_पृष्ठसभ#l": 6624,
      "olnar": 6625,
      "hattis": 6626,
      "_Commission": 6627,
      "alayalam": 6628,
      "M50thReport.pdf)": 6629,
      "Tarlo1996": 6630,
      "runei": 6631,
      "च्छ": 6632,
      "ुवैत": 6633,
      "తెలంగాణ": 6634,
      "ెన్నై": 6635,
      "‌మహల్": 6636,
      "India_Goa": 6637,
      "acmillan": 6638,
      "ingapore": 6639,
      "tudies": 6640,
      "_in_New_Delhi": 6641,
      "తాజ్‌మహల్": 6642,
      "క్షరాస్యత": 6643,
      "हात्मा": 6644,
      "_and_union_territories": 6645,
      "भिज्ञापक": 6646,
      "orthographic_projection": 6647,
      "నాగాలాండ్": 6648,
      "्वतन्त्रता": 6649,
      "](https://te.wikipedia.org/wiki/జమ్మూ_కాశ్మీ": 6650,
      "Taj_Mahal_in_March": 6651,
      "ోల్‌కాతా": 6652,
      "भीमबेटका": 6653,
      "nclm.nic.in/shared/linkimages/NCLM50thReport.pdf)": 6654,
      "Taj_Mahal_in_March_2004": 6655,
      "&ss": 6656,
      "*](https://": 6657,
      "-H": 6658,
      "-e": 6659,
      "-w": 6660,
      "-ex": 6661,
      "-II": 6662,
      ".ed": 6663,
      "/national": 6664,
      "09": 6665,
      "0/0": 6666,
      "1]](https://en.wikipedia.org/wiki/India#cite_note-": 6667,
      "220": 6668,
      "2),": 6669,
      "2nd": 6670,
      "3).": 6671,
      "3]](https://en.wikipedia.org/wiki/India#cite_note-": 6672,
      "41": 6673,
      "5-3": 6674,
      "6)\n": 6675,
      "7]](https://en.wikipedia.org/wiki/India#cite_note-": 6676,
      "8]](https://en.wikipedia.org/wiki/India#cite_note-FOOTNOTE": 6677,
      "A5%": 6678,
      "C)": 6679,
      "Countries": 6680,
      "Constituent": 6681,
      "EN": 6682,
      "Forest": 6683,
      "Hindustan": 6684,
      "Jha": 6685,
      "Language": 6686,
      "Mumbai": 6687,
      "Petraglia": 6688,
      "States": 6689,
      "Wright": 6690,
      "\\*": 6691,
      "_त": 6692,
      "_श": 6693,
      "_15": 6694,
      "_per": 6695,
      "_2011": 6696,
      "_Union": 6697,
      "_term": 6698,
      "_धर्म": 6699,
      "aci": 6700,
      "cu": 6701,
      "cod": 6702,
      "ctive": 6703,
      "dy": 6704,
      "eu": 6705,
      "gion": 6706,
      "hā": 6707,
      "mall": 6708,
      "rian": 6709,
      "rban": 6710,
      "sm": 6711,
      "s_in_India": 6712,
      "sources": 6713,
      "tou": 6714,
      "tate": 6715,
      "u,": 6716,
      "ui": 6717,
      "uries": 6718,
      "upee": 6719,
      "y=": 6720,
      "ँची": 6721,
      "टना": 6722,
      "द्वार": 6723,
      "बल": 6724,
      "मरी": 6725,
      "स्व": 6726,
      "हम": 6727,
      "ेड": 6728,
      "ोला": 6729,
      "्थ": 6730,
      "४७": 6731,
      "५०": 6732,
      "▁:": 6733,
      "▁औ": 6734,
      "▁40": 6735,
      "▁9.": 6736,
      "▁7.": 6737,
      "▁ob": 6738,
      "▁भाग": 6739,
      "org": 6740,
      "orpor": 6741,
      "pen": 6742,
      "](https://id": 6743,
      "▁[राज्य": 6744,
      "ened": 6745,
      "enous": 6746,
      "▁\"ग": 6747,
      "▁\"ड": 6748,
      "inated": 6749,
      "onk": 6750,
      "tification": 6751,
      "er-": 6752,
      "alace": 6753,
      "alk:": 6754,
      "hir": 6755,
      "reen": 6756,
      "्रु": 6757,
      "▁काल": 6758,
      "▁कॉंग्रेस": 6759,
      "](https://hi.wikipedia.org/wiki/दक्षिण": 6760,
      "](https://hi.wikipedia.org/wiki/तमिल": 6761,
      "itar": 6762,
      "▁(b": 6763,
      "▁(in": 6764,
      "▁(2007": 6765,
      "▁(India)": 6766,
      "▁(nominal)": 6767,
      "asht": 6768,
      "▁सन्": 6769,
      "▁सित": 6770,
      "▁समाज": 6771,
      "▁India\"](https://web.archive.org/web/201": 6772,
      "19.": 6773,
      "▁independence": 6774,
      "raman": 6775,
      "▁मई": 6776,
      "▁मन": 6777,
      "▁मिल": 6778,
      "▁मशीन": 6779,
      "▁prac": 6780,
      "-0\").\n": 6781,
      "ries/": 6782,
      "etwork": 6783,
      "ation,": 6784,
      "ations/": 6785,
      "acred": 6786,
      "ing,": 6787,
      "▁cre": 6788,
      "▁census": 6789,
      "amy": 6790,
      "ustice": 6791,
      "▁Agency": 6792,
      "-138": 6793,
      "▁Sub": 6794,
      "▁band": 6795,
      "▁based": 6796,
      "▁talk:": 6797,
      "lose": 6798,
      "ेंगल": 6799,
      "▁Policy": 6800,
      "](https://hi.wikipedia.org/wiki/भारत_के_राज्य": 6801,
      "rove": 6802,
      "rowing": 6803,
      "rocod": 6804,
      "▁men": 6805,
      "ilk": 6806,
      "ily": 6807,
      "ilbert": 6808,
      "▁[↑](https://en.wikipedia.org/wiki/India#cite_": 6809,
      "▁divis": 6810,
      "ourts": 6811,
      "ourism": 6812,
      "ficient": 6813,
      "](https://en.wikipedia.org/wiki/India#cite_ref-vatsyayan-lord_43": 6814,
      "▁अधिराज्य": 6815,
      "▁Trade": 6816,
      "ola": 6817,
      "▁Mar": 6818,
      "▁Michael": 6819,
      "▁में,": 6820,
      "न्ध": 6821,
      "igved": 6822,
      "igenous": 6823,
      "▁जब": 6824,
      "▁Dance": 6825,
      "भाई": 6826,
      "भाष": 6827,
      "▁last": 6828,
      "▁\"Special:EditPage/Template:": 6829,
      "indic": 6830,
      "24.": 6831,
      "lymp": 6832,
      "india.com/": 6833,
      "▁Economy": 6834,
      "▁Emer": 6835,
      "oung": 6836,
      "Univers": 6837,
      "beral": 6838,
      "▁east": 6839,
      "▁Ganges": 6840,
      "▁Gujarat": 6841,
      "▁Hindus": 6842,
      "-4\").\n": 6843,
      "opland": 6844,
      "▁republic": 6845,
      "▁though": 6846,
      "](https://en.wikipedia.org/wiki/India#CITEREFM": 6847,
      "ablish": 6848,
      "▁2007.": 6849,
      "▁आन्दोल": 6850,
      "akers": 6851,
      "1857": 6852,
      "▁ne": 6853,
      "▁[Singh": 6854,
      "_of_India.svg": 6855,
      ".[[23": 6856,
      "ountries/": 6857,
      "▁Informatics": 6858,
      "40px-": 6859,
      "▁\"Central": 6860,
      "▁\"Climate": 6861,
      "osa": 6862,
      "▁गई": 6863,
      "▁गठ": 6864,
      "_and_Development": 6865,
      "▁[China": 6866,
      "](https://en.wikipedia.org/wiki/China": 6867,
      "aving": 6868,
      "▁[मध्य": 6869,
      "▁\"Ministry": 6870,
      "](Special:EditPage/Template:": 6871,
      "▁become": 6872,
      "म्भ": 6873,
      "▁शहर": 6874,
      "](https://en.wikipedia.org/wiki/Ministry_of_": 6875,
      "संधान": 6876,
      "▁\"Special:BookSources/978-0-521": 6877,
      "](Special:BookSources/978-0-521": 6878,
      "a_M": 6879,
      "undarb": 6880,
      "Harv\\_and\\_Sfn\\_no-target\\_errors\n": 6881,
      "▁str": 6882,
      "]](https://hi.wikipedia.org/wiki/भारत#cite_note-pib": 6883,
      "ajas": 6884,
      "rchitecture": 6885,
      "_के_अ": 6886,
      "orea": 6887,
      "lled": 6888,
      "ज़ा": 6889,
      "_Times": 6890,
      "▁\"Template": 6891,
      "ी\"))": 6892,
      "398": 6893,
      "489": 6894,
      "▁लिये": 6895,
      "▁ancient": 6896,
      "▁\"Delhi": 6897,
      "](https://en.wikipedia.org/wiki/Template_": 6898,
      "धानमन्त": 6899,
      "](https://en.wikipedia.org/wiki/Delhi": 6900,
      "_Gandhi": 6901,
      "▁Vedic": 6902,
      "_Nations": 6903,
      "▁\"Routledge": 6904,
      "▁2011](https://en.wikipedia.org/wiki/India#CITEREF": 6905,
      "](https://en.wikipedia.org/wiki/Routledge": 6906,
      "1):": 6907,
      "▁[Tamil": 6908,
      "▁[Routledge": 6909,
      "angetic": 6910,
      "▁यूनिवर्सिट": 6911,
      "▁चार": 6912,
      "▁जनजाति": 6913,
      "▁\"International": 6914,
      "_Economic": 6915,
      "-symbols": 6916,
      "▁centre": 6917,
      "▁centuries": 6918,
      "857": 6919,
      "iteracy": 6920,
      "▁2014](https://en.wikipedia.org/wiki/India#CITEREF": 6921,
      "▁tea": 6922,
      "▁[History": 6923,
      "▁Urdu": 6924,
      "▁US$": 6925,
      "▁(2017).": 6926,
      "▁adop": 6927,
      "▁milk": 6928,
      "▁military": 6929,
      "▁millen": 6930,
      "▁leg": 6931,
      "mblem": 6932,
      "▁घाटी": 6933,
      "isease": 6934,
      "रुणा": 6935,
      "न्नड़": 6936,
      "58)": 6937,
      "▁[Fisher": 6938,
      "▁मानव": 6939,
      "▁मान्यता": 6940,
      "ights": 6941,
      "▁[t](https://en.wikipedia.org/wiki/Template_": 6942,
      "▁plain": 6943,
      "▁parliament": 6944,
      "▁known": 6945,
      "ोर्ट": 6946,
      "talk:": 6947,
      "गुजराती": 6948,
      "ronom": 6949,
      "▁sever": 6950,
      "▁State": 6951,
      "▁[e](Special:EditPage/Template:": 6952,
      "▁[v](Template:": 6953,
      "▁numbers": 6954,
      "त्पत्ति": 6955,
      "ctorate": 6956,
      "राष्ट्रपति\")": 6957,
      "a/a": 6958,
      "-level": 6959,
      "वादी": 6960,
      "▁Buddha": 6961,
      "Fisher2018),": 6962,
      "▁upper": 6963,
      "▁2025.\n": 6964,
      "तुर्क": 6965,
      "Environment": 6966,
      "cms).": 6967,
      "▁refor": 6968,
      "▁2018](https://en.wikipedia.org/wiki/India#CITEREFFisher2018),": 6969,
      "वार्ता:": 6970,
      "arliamentary": 6971,
      "राठी": 6972,
      "CS1\\_": 6973,
      "▁दृष्ट": 6974,
      "merican": 6975,
      "-language\\_text": 6976,
      "-language\\_sources": 6977,
      "▁(2018),": 6978,
      "▁Conservation": 6979,
      "ताजमह": 6980,
      "▁Francis": 6981,
      "](https://en.wikipedia.org/wiki/History_of_": 6982,
      "▁Monetary": 6983,
      "default": 6984,
      "ibetan": 6985,
      "_न्या": 6986,
      "ield": 6987,
      "present": 6988,
      "aranth": 6989,
      ".worldbank.org/": 6990,
      "इप्रस": 6991,
      "forcement": 6992,
      "▁वार्ता:": 6993,
      "imachal": 6994,
      "▁India](https://en.wikipedia.org/wiki/Government_of_India": 6995,
      "▁direct": 6996,
      "tlas": 6997,
      "▁[पाकिस्तान](https://hi.wikipedia.org/wiki/पाकिस्तान": 6998,
      "स्लाम": 6999,
      "Allchin": 7000,
      "disha": 7001,
      "▁zone": 7002,
      "▁domestic": 7003,
      "▁1994](https://en.wikipedia.org/wiki/India#CITEREF": 7004,
      "न्तर्राष्ट्र": 7005,
      "struction": 7006,
      "▁Games\")": 7007,
      "क्षरता": 7008,
      "▁engineering": 7009,
      "limate_": 7010,
      "▁village": 7011,
      "8+5": 7012,
      "first": 7013,
      ".edu": 7014,
      "/national-symbols": 7015,
      "PetragliaAllchin": 7016,
      "Wright2010": 7017,
      "touch": 7018,
      "▁(2007).": 7019,
      "ेंगलुरु": 7020,
      "▁[China](https://en.wikipedia.org/wiki/China": 7021,
      "undarbans": 7022,
      "▁\"Routledge\").": 7023,
      "▁[Routledge](https://en.wikipedia.org/wiki/Routledge": 7024,
      "▁यूनिवर्सिटी": 7025,
      "▁millennium": 7026,
      "▁[t](https://en.wikipedia.org/wiki/Template_talk:": 7027,
      "-language\\_sources\\_(": 7028,
      "\"](http://": 7029,
      "%)": 7030,
      ")[": 7031,
      "*](https://web.archive.org/web/201": 7032,
      "*](http://": 7033,
      "-O": 7034,
      "-j": 7035,
      "-v": 7036,
      "-th": 7037,
      "-no": 7038,
      "-st": 7039,
      "-27": 7040,
      "-asia": 7041,
      "/M": 7042,
      "/we": 7043,
      "01": 7044,
      "1.\n": 7045,
      "1%20": 7046,
      "2-0": 7047,
      "2.\n": 7048,
      "2-10": 7049,
      "3-1": 7050,
      "400": 7051,
      "4-3": 7052,
      "528": 7053,
      "5–సా.శ.": 7054,
      "623": 7055,
      "8–": 7056,
      "=`": 7057,
      "Al": 7058,
      "Bharat": 7059,
      "CCN": 7060,
      "David": 7061,
      "E﻿": 7062,
      "Flag": 7063,
      "KI": 7064,
      "MAAJ": 7065,
      "Official": 7066,
      "Republic": 7067,
      "SN": 7068,
      "South_Asia": 7069,
      "Th": 7070,
      "Web": 7071,
      "YS": 7072,
      "_అ": 7073,
      "_ఎ": 7074,
      "_ర": 7075,
      "_10": 7076,
      "_50": 7077,
      "_18": 7078,
      "_14": 7079,
      "_45": 7080,
      "_యు": 7081,
      "_World": 7082,
      "_రాజ": 7083,
      "_శాస్త్ర": 7084,
      "a-b": 7085,
      "business/": 7086,
      "cia": 7087,
      "cted": 7088,
      "caste": 7089,
      "egh": 7090,
      "fun": 7091,
      "gar": 7092,
      "ji": 7093,
      "mas": 7094,
      "more": 7095,
      "music": 7096,
      "oz": 7097,
      "ogo": 7098,
      "po": 7099,
      "rince": 7100,
      "search": 7101,
      "ten": 7102,
      "tle": 7103,
      "tation": 7104,
      "top": 7105,
      "uin": 7106,
      "vin": 7107,
      "voy": 7108,
      "wa": 7109,
      "went": 7110,
      "xim": 7111,
      "ंतर": 7112,
      "ईल": 7113,
      "गत": 7114,
      "घर": 7115,
      "घालय": 7116,
      "चें": 7117,
      "टान": 7118,
      "तुल": 7119,
      "थियार": 7120,
      "दय": 7121,
      "दर्श": 7122,
      "फगान": 7123,
      "भौ": 7124,
      "मस": 7125,
      "ल](https://hi.wikipedia.org/wiki/": 7126,
      "वर्": 7127,
      "वेश": 7128,
      "वैद": 7129,
      "ृष": 7130,
      "ेन्द्र": 7131,
      "ोट": 7132,
      "्लेट": 7133,
      "२६": 7134,
      "ఒలి": 7135,
      "కూ": 7136,
      "క్ర": 7137,
      "గే": 7138,
      "గ్ర": 7139,
      "గతి": 7140,
      "జు": 7141,
      "ఞాన": 7142,
      "టం": 7143,
      "టన్": 7144,
      "పం": 7145,
      "పో": 7146,
      "పచ్చ": 7147,
      "మ్య": 7148,
      "యాలో": 7149,
      "లె": 7150,
      "వై": 7151,
      "వ్": 7152,
      "వత్స": 7153,
      "వృద్ధి": 7154,
      "శ్రమ": 7155,
      "సీ": 7156,
      "స్రా": 7157,
      "హక": 7158,
      "హన": 7159,
      "ాంగ": 7160,
      "ీఠ": 7161,
      "ువు": 7162,
      "ూపా": 7163,
      "ృష్": 7164,
      "ెహ": 7165,
      "ెట్": 7166,
      "ేన": 7167,
      "ైద": 7168,
      "ైగా": 7169,
      "ొయ": 7170,
      "▁,": 7171,
      "▁X": 7172,
      "▁ऐ": 7173,
      "▁९": 7174,
      "▁ఘ": 7175,
      "▁ve": 7176,
      "▁web": 7177,
      "▁జా": 7178,
      "▁education": 7179,
      "orial": 7180,
      "orig": 7181,
      "orse": 7182,
      "▁[గ": 7183,
      "▁[కు": 7184,
      "▁[పా": 7185,
      "▁[దక్షిణ": 7186,
      "▁[హిందూ": 7187,
      "▁[పాకిస్తాన్": 7188,
      "▁[ముంబై": 7189,
      "▁[गुजरात": 7190,
      "ene": 7191,
      "enjo": 7192,
      "▁\"ई": 7193,
      "▁\"గ": 7194,
      "▁\"రాష్ట్ర": 7195,
      "▁\"దక్షిణ": 7196,
      "▁\"राष्ट्रीय": 7197,
      "▁\"మూస": 7198,
      "▁\"హిందూ": 7199,
      "▁\"పాకిస్తాన్": 7200,
      "▁\"ప్రపంచ": 7201,
      "▁\"ముంబై": 7202,
      "▁\"వర్గం:Harv": 7203,
      "▁\"ప్రత్యేక:EditPage/మూస:": 7204,
      "inan": 7205,
      "anada": 7206,
      "till": 7207,
      "](https://en.wikipedia.org/wiki/U": 7208,
      "India.pdf)": 7209,
      "eri": 7210,
      "ergy": 7211,
      "arv": 7212,
      "arrow": 7213,
      "es.": 7214,
      "reater": 7215,
      "ारो": 7216,
      "ारम्भ": 7217,
      "isl": 7218,
      "ising": 7219,
      "isted": 7220,
      "्रह": 7221,
      "](https://hi.wikipedia.org/wiki/ज": 7222,
      "cid": 7223,
      "cir": 7224,
      "▁often": 7225,
      "](https://te.wikipedia.org/wiki/మూస": 7226,
      "](https://te.wikipedia.org/wiki/జన": 7227,
      "](https://te.wikipedia.org/wiki/వర్గం:Harv": 7228,
      "](https://te.wikipedia.org/wiki/ప్రత్యేక:EditPage/మూస:": 7229,
      "▁(भारत": 7230,
      "▁(2011": 7231,
      "ick": 7232,
      "ico": 7233,
      "ices": 7234,
      "▁India\n": 7235,
      "lex": 7236,
      "198": 7237,
      "▁inte": 7238,
      "▁inter": 7239,
      "rak": 7240,
      "raw": 7241,
      "▁su": 7242,
      "▁set": 7243,
      "▁served": 7244,
      "▁poll": 7245,
      "్యాలె": 7246,
      "am\")": 7247,
      "▁पहु": 7248,
      "\\_n": 7249,
      "\\_क": 7250,
      "\\_link": 7251,
      "\\_par": 7252,
      "▁Asher": 7253,
      "▁After": 7254,
      "ाने": 7255,
      "ref-10": 7256,
      "స్వా": 7257,
      "note-10": 7258,
      "▁festi": 7259,
      "▁పొ": 7260,
      "▁పద్ధ": 7261,
      "▁పైగా": 7262,
      "[[18": 7263,
      "ad-": 7264,
      "adakh": 7265,
      "ర్ద": 7266,
      "ర్ష": 7267,
      "ेंस": 7268,
      "న్ను": 7269,
      "ume": 7270,
      "▁हिम": 7271,
      "](https://hi.wikipedia.org/wiki/भारत_स": 7272,
      "comp": 7273,
      "cha": 7274,
      "hek": 7275,
      "▁middle": 7276,
      "▁market": 7277,
      "illi": 7278,
      "▁do": 7279,
      "▁dist": 7280,
      "రాజ్యం": 7281,
      "una": 7282,
      "unle": 7283,
      "unknown": 7284,
      "]](https://en.wikipedia.org/wiki/India#cite_note-1": 7285,
      "fied": 7286,
      "▁अमेर": 7287,
      "▁अलग": 7288,
      "21.": 7289,
      "▁Report": 7290,
      "▁Mana": 7291,
      "లోయ": 7292,
      "▁కేంద్ర": 7293,
      "▁కంపెనీ": 7294,
      "न्डिया": 7295,
      "ాలు\")\n": 7296,
      "ాలుగా": 7297,
      "ालैंड": 7298,
      "▁Br": 7299,
      "▁Book": 7300,
      "emen": 7301,
      "క్తి": 7302,
      "विय": 7303,
      "▁వై": 7304,
      "▁जिन": 7305,
      "▁Day": 7306,
      "▁दी": 7307,
      "▁देव": 7308,
      "▁दोन": 7309,
      "107": 7310,
      "भाजन": 7311,
      "263": 7312,
      "భారతదేశం\n": 7313,
      "ayana": 7314,
      "ayashi": 7315,
      "▁సమా": 7316,
      "▁సర్వ": 7317,
      "▁సుల్తాన": 7318,
      "ional": 7319,
      "लाका": 7320,
      "▁प्रधानमंत्री": 7321,
      "ldlife": 7322,
      "▁भारतक": 7323,
      "▁बन": 7324,
      "▁बंगाल": 7325,
      "▁बड़े": 7326,
      "upreme": 7327,
      "bercu": 7328,
      "▁even": 7329,
      "▁early": 7330,
      "▁Gana": 7331,
      "▁Home": 7332,
      "▁Ne": 7333,
      "▁Nuclear": 7334,
      "_से": 7335,
      "](https://mai.wikipedia.org/wiki/अ": 7336,
      "](https://mai.wikipedia.org/wiki/सं": 7337,
      "_in_the": 7338,
      "-345": 7339,
      "-349": 7340,
      "-45": 7341,
      "-405": 7342,
      "opal": 7343,
      "▁सेवा": 7344,
      "▁చర్చ:": 7345,
      "తాక": 7346,
      "_Air": 7347,
      "_Agency": 7348,
      "నాట": 7349,
      "తి](https://te.wikipedia.org/wiki/": 7350,
      "▁religions": 7351,
      "▁काम": 7352,
      "न्दा": 7353,
      "abel": 7354,
      "సింది.": 7355,
      "▁2008](https://en.wikipedia.org/wiki/India#CITEREF": 7356,
      "astronom": 7357,
      "▁आ॔": 7358,
      "geoh": 7359,
      "▁nation": 7360,
      "-8\").\n": 7361,
      ".in)\n": 7362,
      "establish": 7363,
      "▁John": 7364,
      "▁(సా.శ.6": 7365,
      "–సా.శ.14": 7366,
      "–సా.శ.1947)": 7367,
      "29)": 7368,
      "▁అను": 7369,
      "15/": 7370,
      "ిక,": 7371,
      "135": 7372,
      "AAMAAJ": 7373,
      "ensive": 7374,
      "haw": 7375,
      "रीब": 7376,
      "▁गेल": 7377,
      "270": 7378,
      "▁Indians": 7379,
      "కుపచ్చ": 7380,
      "▁On": 7381,
      "](https://te.wikipedia.org/wiki/భారతదేశం#CITEREF": 7382,
      "▁Law": 7383,
      "▁Library": 7384,
      "14.": 7385,
      "lated": 7386,
      "▁[Craven": 7387,
      "▁Asia:": 7388,
      "▁West": 7389,
      "▁Wiley": 7390,
      "▁एशिया\")": 7391,
      "](https://en.wikipedia.org/wiki/Central_": 7392,
      "हिम": 7393,
      "▁संस्थान": 7394,
      "▁ఆకుపచ్చ": 7395,
      "▁రే": 7396,
      "▁परि": 7397,
      "▁being": 7398,
      "म्प्र": 7399,
      "మాతర": 7400,
      "మాబాద్": 7401,
      "రుపు": 7402,
      "రుగు": 7403,
      "-2\").": 7404,
      "संबर": 7405,
      "ियन": 7406,
      "alls": 7407,
      "allav": 7408,
      "▁ass": 7409,
      "dira": 7410,
      "▁रक्षा": 7411,
      "-7mar": 7412,
      "earning": 7413,
      "](https://hi.wikipedia.org/wiki/भारत#cite_ref-pib": 7414,
      "](https://hi.wikipedia.org/wiki/भारत#cite_ref-langoff": 7415,
      "]](https://hi.wikipedia.org/wiki/भारत#cite_note-langoff-1": 7416,
      "राष्ट्रीय_": 7417,
      "_Data_": 7418,
      "▁\"मध्य": 7419,
      "ommaraj": 7420,
      "ी](https://hi.wikipedia.org/wiki/म": 7421,
      "▁\"Tamil": 7422,
      "िसमस": 7423,
      "▁నది": 7424,
      "మించ": 7425,
      "▁[Pakistan": 7426,
      "▁తన": 7427,
      "▁deb": 7428,
      "▁deve": 7429,
      "स्तान\")": 7430,
      "kee": 7431,
      "▁\"En": 7432,
      "हिन्द_महासागर": 7433,
      "▁expectancy": 7434,
      "हाँ": 7435,
      "▁any": 7436,
      "_and_N": 7437,
      "](https://en.wikipedia.org/wiki/En": 7438,
      "34238": 7439,
      "ం](https://te.wikipedia.org/wiki/అ": 7440,
      "ం](https://te.wikipedia.org/wiki/క": 7441,
      "▁rise": 7442,
      "▁rural": 7443,
      "▁rupee": 7444,
      "▁\"Ge": 7445,
      "ంబంధ": 7446,
      "issions": 7447,
      "ोली": 7448,
      "ians": 7449,
      "గువ": 7450,
      "▁[GDP": 7451,
      "_Ram": 7452,
      "▁V.": 7453,
      "▁Vol": 7454,
      "hinese": 7455,
      "▁[Delhi": 7456,
      "](https://hi.wikipedia.org/wiki/मध्य": 7457,
      "▁సంస్థ": 7458,
      "▁సంవత్స": 7459,
      "డియా": 7460,
      "ंधी": 7461,
      "ameters": 7462,
      "▁mathematics": 7463,
      "ట్లు": 7464,
      "ational_P": 7465,
      "_చర్చ:": 7466,
      "general": 7467,
      "▁\"మధ్య": 7468,
      "120]](https://hi.wikipedia.org/wiki/भारत#cite_note-langoff-1": 7469,
      "▁ఎన్నిక": 7470,
      "▁ఎన్ను": 7471,
      "▁1997": 7472,
      "▁[మధ్య": 7473,
      "▁(సా.శ.పూ.1200": 7474,
      "▁గణ": 7475,
      "▁\"Indus": 7476,
      "](https://te.wikipedia.org/wiki/మధ్య": 7477,
      "▁central": 7478,
      "amily": 7479,
      "\"](https://web.archive.org/web/20140": 7480,
      "द्यालय": 7481,
      "पुर\")": 7482,
      "%E0%B0%": 7483,
      "गुप्त": 7484,
      "](https://en.wikipedia.org/wiki/Indus": 7485,
      "▁./వర్గం:Pages\\_using\\_": 7486,
      "▁./వర్గం:Harv\\_and\\_Sfn\\_no-target\\_errors\n": 7487,
      "ohenjo": 7488,
      "▁uni": 7489,
      "-daro": 7490,
      "efficient": 7491,
      "]](https://te.wikipedia.org/wiki/భారతదేశం#cite_note-india.gov.in": 7492,
      ".nic.in)\n": 7493,
      "_సంగీతం": 7494,
      "▁where": 7495,
      "▁whose": 7496,
      "न्तु": 7497,
      "▁[Ludden": 7498,
      "▁[International": 7499,
      "ారిగా": 7500,
      "నాయక": 7501,
      "–సా.శ.పూ.3": 7502,
      "/articles/": 7503,
      "▁घाट": 7504,
      "▁घोष": 7505,
      "హాస": 7506,
      "न्नड": 7507,
      "▁rights": 7508,
      "▁[उत्तर": 7509,
      "దావరి": 7510,
      "2014-p": 7511,
      "▁కూడిన": 7512,
      "▁([help](https://te.wikipedia.org/wiki/వర్గం:Harv": 7513,
      "684": 7514,
      "▁నిర్వ": 7515,
      "▁స్థా": 7516,
      "orities/": 7517,
      "▁\"उत्तर": 7518,
      "▁निर्भर": 7519,
      "▁notation": 7520,
      "](https://hi.wikipedia.org/wiki/पश्चिम": 7521,
      "](https://hi.wikipedia.org/wiki/पंजाब": 7522,
      "▁consid": 7523,
      "▁CITEREFStein1998": 7524,
      "▁CITEREFSingh2009": 7525,
      "▁trade": 7526,
      "Stein1998),": 7527,
      "Singh2009),": 7528,
      "▁[t](https://te.wikipedia.org/wiki/మూస": 7529,
      "ों_की_सूची?action=edit&redlink=1": 7530,
      "son2014-p": 7531,
      "निर्भर": 7532,
      "ోర్చు": 7533,
      "](https://mai.wikipedia.org/wiki/भारतीय_": 7534,
      "oorkee": 7535,
      "_dance": 7536,
      "శాఖ": 7537,
      "▁Short": 7538,
      "▁Shankar": 7539,
      "unjabi": 7540,
      "KulkeRothermund200": 7541,
      "बंधीय": 7542,
      "▁[జమ్మూ": 7543,
      "▁\"Official": 7544,
      "▁పాత్ర": 7545,
      "](https://hi.wikipedia.org/wiki/भारत#CITEREFStein1998),": 7546,
      "](https://hi.wikipedia.org/wiki/भारत#CITEREFSingh2009),": 7547,
      "ropped": 7548,
      "क्षेत्रफल": 7549,
      "▁थे": 7550,
      "▁\"చైనా": 7551,
      "▁2016.\n": 7552,
      "▁century,": 7553,
      "_War": 7554,
      "▁ఉన్నాయి.\n": 7555,
      "▁ఒకటి": 7556,
      "ृष्ण": 7557,
      "▁[e](https://te.wikipedia.org/wiki/ప్రత్యేక:EditPage/మూస:": 7558,
      "▁[v](https://te.wikipedia.org/wiki/మూస:": 7559,
      "జ్ఞాన": 7560,
      "▁पाकिस्तान": 7561,
      "▁\"संयुक्त": 7562,
      "2001),": 7563,
      "▁न्यायाधीश": 7564,
      "_1960": 7565,
      "cott": 7566,
      "▁speakers": 7567,
      "▁मंदिर\")": 7568,
      "rupee": 7569,
      "नागालैंड": 7570,
      "▁2009](https://hi.wikipedia.org/wiki/भारत#CITEREFSingh2009),": 7571,
      "▁మార్గాలు": 7572,
      ".net": 7573,
      "▁include": 7574,
      "▁2022.\n": 7575,
      "▁वर्षों": 7576,
      "Wikipedia:": 7577,
      "/authorities/": 7578,
      "రోపా": 7579,
      "IAF": 7580,
      "cms)": 7581,
      "▁భారతదేశానికి": 7582,
      "▁Art": 7583,
      "▁మతము\")": 7584,
      "▁మతము\"),": 7585,
      "▁उत्तर-प": 7586,
      "athakali": 7587,
      "क्रम": 7588,
      "रोहर": 7589,
      "_पार्ट": 7590,
      "riage": 7591,
      "ీనంలో": 7592,
      "▁ईसा": 7593,
      "▁జాబితా\")\n": 7594,
      "▁According": 7595,
      "▁ప్రపంచంలో": 7596,
      "▁ప్రభుత్వ": 7597,
      "▁ప్రభుత్వం": 7598,
      "/articleshow/5": 7599,
      "%20%20%20%20%20%20%20%20": 7600,
      "▁Environmental": 7601,
      "Ludden2014": 7602,
      "d/d": 7603,
      "▁Africa": 7604,
      "-of-india-": 7605,
      "▁दृश्य": 7606,
      "▁major": 7607,
      "▁మొదటి": 7608,
      "union_territory": 7609,
      "IMFWEO.IN-": 7610,
      "▁cities": 7611,
      "▁(2018).": 7612,
      "11934238": 7613,
      "lackb": 7614,
      "क_सूची": 7615,
      "స్లామాబాద్": 7616,
      "▁పాలన": 7617,
      "▁కార్య": 7618,
      "▁కారణంగా": 7619,
      "▁కలిగి": 7620,
      "ంటుంది.": 7621,
      "anorama": 7622,
      "arlung": 7623,
      "losis": 7624,
      "▁सिनेमा\"),": 7625,
      "శోకుడు": 7626,
      "retary": 7627,
      "itzel": 7628,
      "raditional": 7629,
      "rigonom": 7630,
      "▁జరిగిన": 7631,
      "వ](https://te.wikipedia.org/wiki/List_of_countries_by": 7632,
      "▁local": 7633,
      "▁Before": 7634,
      "▁contribu": 7635,
      "८५७": 7636,
      "▁[భారతదేశంలో": 7637,
      "▁(2006).": 7638,
      "▁होती": 7639,
      "▁अर्थव्यवस्था": 7640,
      "ecutive": 7641,
      "▁అనేక": 7642,
      "undamental": 7643,
      "▁ఎక్కువగా": 7644,
      "▁भूमिका": 7645,
      "awaharlal": 7646,
      "▁caused": 7647,
      "▁दिसंबर": 7648,
      ".uk/": 7649,
      "AGE": 7650,
      "cogni": 7651,
      "▁oldest": 7652,
      "▁स्तर": 7653,
      "rajbhasha": 7654,
      "\\_country\\_with\\_": 7655,
      "▁వారసత్వ": 7656,
      "▁ప్రస్తుతం": 7657,
      "▁రోడ్": 7658,
      "a_dynasty": 7659,
      "▁తరువాత": 7660,
      "▁బెంగాల్": 7661,
      "_Lanka": 7662,
      "ంపిక్": 7663,
      "▁Minorities,": 7664,
      "](https://en.wikipedia.org/wiki/Mughal_Empire": 7665,
      "countries_and_dependencies_by_population": 7666,
      "टिबंधीय": 7667,
      "ार्वभौ": 7668,
      "▁व्यापार": 7669,
      "▁[India](https://en.wikipedia.org/wiki/India)": 7670,
      "harmaceutical": 7671,
      "भुटान": 7672,
      "ంస్కృతం": 7673,
      "▁`|": 7674,
      "s.com/": 7675,
      "▁వెబ్": 7676,
      "▁సౌకర్య": 7677,
      "ండీగఢ్": 7678,
      "▁అభివృద్ధి": 7679,
      "▁నడిపించ": 7680,
      "గుప్త": 7681,
      "▁1998](https://hi.wikipedia.org/wiki/भारत#CITEREFStein1998),": 7682,
      "భారతదేశ_రాష్ట్రాలు,_కేంద్రపాలిత_ప్రాంతాలు": 7683,
      "sites/default": 7684,
      "Library_of_Congress2004": 7685,
      "hattisgarh": 7686,
      "Tarlo1996-26": 7687,
      "_and_union_territories_of_India": 7688,
      "onkani": 7689,
      "indicator": 7690,
      "beralisation": 7691,
      "ajasthan": 7692,
      "रुणाचल": 7693,
      "Davidson2014-p": 7694,
      "चेंज": 7695,
      "फगानिस्तान": 7696,
      "वैदिक": 7697,
      "ృష్ణా": 7698,
      "inancial": 7699,
      "▁(भारत)\")": 7700,
      "\\_parameters": 7701,
      "▁Asher,": 7702,
      "berculosis": 7703,
      "geohack": 7704,
      "-7mar2011": 7705,
      "](https://hi.wikipedia.org/wiki/भारत#cite_ref-langoff_128": 7706,
      "120]](https://hi.wikipedia.org/wiki/भारत#cite_note-langoff-128)": 7707,
      "▁(సా.శ.పూ.1200–సా.శ.పూ.": 7708,
      "ohenjo-daro": 7709,
      "▁([help](https://te.wikipedia.org/wiki/వర్గం:Harv_and_Sfn_template_errors": 7710,
      "▁[t](https://te.wikipedia.org/wiki/మూస_చర్చ:": 7711,
      "ోర్చుగ": 7712,
      "ार्वभौम": 7713,
      "sites/default/files/": 7714,
      "\\_parameters#": 7715,
      "\"](https://web.archive.org/web/20": 7716,
      "\";\n": 7717,
      "%,": 7718,
      "*),": 7719,
      "*](https://www.": 7720,
      ",_India": 7721,
      "-h": 7722,
      "-कार": 7723,
      "-se": 7724,
      ".t": 7725,
      ".JPG": 7726,
      "0-0)": 7727,
      "0&s": 7728,
      "1st": 7729,
      "223": 7730,
      "2-7": 7731,
      "3-3": 7732,
      "317": 7733,
      "3-7": 7734,
      "4_": 7735,
      "4-0": 7736,
      "428": 7737,
      "41)": 7738,
      "534": 7739,
      "613": 7740,
      "96": 7741,
      "9-6": 7742,
      ":IN": 7743,
      "=20": 7744,
      "BI": 7745,
      "Bangalore": 7746,
      "CA": 7747,
      "DR": 7748,
      "Ge": 7749,
      "Gum": 7750,
      "HQ": 7751,
      "K:": 7752,
      "Mon": 7753,
      "PT": 7754,
      "Pe": 7755,
      "Political_": 7756,
      "Raj": 7757,
      "Sanchi": 7758,
      "VII": 7759,
      "Yum": 7760,
      "Zor": 7761,
      "_201": 7762,
      "_28": 7763,
      "_con": 7764,
      "_di": 7765,
      "_2008": 7766,
      "_history": 7767,
      "aur": 7768,
      "aver": 7769,
      "a](https://en.wikipedia.org/wiki/A": 7770,
      "audi": 7771,
      "bd": 7772,
      "bird": 7773,
      "cutt": 7774,
      "dministrative": 7775,
      "digenous": 7776,
      "ful": 7777,
      "fos": 7778,
      "gration": 7779,
      "ize": 7780,
      "jha": 7781,
      "jayan": 7782,
      "lé": 7783,
      "mand": 7784,
      "ocal": 7785,
      "pi": 7786,
      "p.org/": 7787,
      "put": 7788,
      "pper": 7789,
      "post": 7790,
      "rang": 7791,
      "rance": 7792,
      "sc": 7793,
      "sol": 7794,
      "spect": 7795,
      "wat": 7796,
      "water": 7797,
      "ypr": 7798,
      "ंश": 7799,
      "ंस": 7800,
      "इटे": 7801,
      "उद्": 7802,
      "ऍथ": 7803,
      "ऑक्सफोर्ड": 7804,
      "क\")": 7805,
      "कृति": 7806,
      "ख़": 7807,
      "ख्": 7808,
      "गध": 7809,
      "जपुरी": 7810,
      "जिस्ट": 7811,
      "टिका": 7812,
      "तार": 7813,
      "ताल": 7814,
      "तंत्र": 7815,
      "थम": 7816,
      "थाली": 7817,
      "दल": 7818,
      "दान": 7819,
      "नो": 7820,
      "नोल": 7821,
      "पीय": 7822,
      "फिल": 7823,
      "फ्रां": 7824,
      "बू": 7825,
      "बे": 7826,
      "मत": 7827,
      "मृत": 7828,
      "मिर": 7829,
      "रि": 7830,
      "लक": 7831,
      "लिम": 7832,
      "वत": 7833,
      "शत": 7834,
      "शोक": 7835,
      "हें": 7836,
      "ाबा": 7837,
      "िड़": 7838,
      "ुरा": 7839,
      "ूबर": 7840,
      "ेद": 7841,
      "ेघालय": 7842,
      "ैली": 7843,
      "ॉग": 7844,
      "ोण": 7845,
      "ोडिया": 7846,
      "–10": 7847,
      "–11": 7848,
      "–18": 7849,
      "–17": 7850,
      "–Pakistan": 7851,
      "▁रा": 7852,
      "▁ter": 7853,
      "▁ना": 7854,
      "▁35": 7855,
      "▁4.": 7856,
      "▁5.": 7857,
      "▁8.": 7858,
      "▁times": 7859,
      "▁establish": 7860,
      "ora": 7861,
      "oria": 7862,
      "orary": 7863,
      "orne": 7864,
      "tte": 7865,
      "tten": 7866,
      "](https://www": 7867,
      "▁[श": 7868,
      "▁[28": 7869,
      "▁[चीन": 7870,
      "▁[Harle": 7871,
      "teri": 7872,
      "▁\"साँच": 7873,
      "▁\"साँचा:": 7874,
      "\")1": 7875,
      "inal_": 7876,
      "in-O": 7877,
      "anch": 7878,
      "onal": 7879,
      "Infos": 7880,
      "tives": 7881,
      "though": 7882,
      "](https://en.wikipedia.org/wiki/19": 7883,
      "Indian_": 7884,
      "ers,": 7885,
      "ardian": 7886,
      "2022": 7887,
      "alcutt": 7888,
      "hili": 7889,
      "reet": 7890,
      "is.": 7891,
      "isa": 7892,
      "istic": 7893,
      "isak": 7894,
      "istered": 7895,
      "tion,": 7896,
      "्रार": 7897,
      "](https://hi.wikipedia.org/wiki/ग": 7898,
      "](https://hi.wikipedia.org/wiki/द": 7899,
      "](https://hi.wikipedia.org/wiki/न": 7900,
      "](https://hi.wikipedia.org/wiki/ह": 7901,
      "](https://hi.wikipedia.org/wiki/साँच": 7902,
      "](https://hi.wikipedia.org/wiki/साँचा:": 7903,
      "ed\\_": 7904,
      "anding": 7905,
      "ito": 7906,
      "itor": 7907,
      "itchi": 7908,
      "▁(J": 7909,
      "▁(union": 7910,
      "▁(a)": 7911,
      "▁(1):": 7912,
      "ought": 7913,
      "asian": 7914,
      "](https://en.wikipedia.org/wiki/Indian": 7915,
      "▁सक": 7916,
      "▁सूच": 7917,
      "▁सम्प": 7918,
      "▁सीमा": 7919,
      "ica": 7920,
      "▁India](https://en.wikipedia.org/wiki/P": 7921,
      "▁India\"](https://": 7922,
      "let": 7923,
      "19)": 7924,
      "▁ins": 7925,
      "▁inequality": 7926,
      "rame": 7927,
      "▁so": 7928,
      "▁sim": 7929,
      "▁sultanate": 7930,
      "▁small": 7931,
      "▁size": 7932,
      "्यूरो": 7933,
      "▁मन्दिर": 7934,
      "▁pur": 7935,
      "▁plate": 7936,
      "▁policy": 7937,
      "-05": 7938,
      "-026": 7939,
      "riy": 7940,
      "ricity": 7941,
      "ritten": 7942,
      "etnam": 7943,
      "▁char": 7944,
      "▁cap": 7945,
      "रात": 7946,
      "uscript": 7947,
      "▁पड़": 7948,
      "▁प्लेट": 7949,
      "aten": 7950,
      "atri": 7951,
      "atch": 7952,
      "\\_c": 7953,
      "\\_Wiki": 7954,
      "▁Am": 7955,
      "▁Summit": 7956,
      "▁Singh": 7957,
      "▁Social": 7958,
      "▁Schwartzberg": 7959,
      "▁Schedule": 7960,
      "▁fl": 7961,
      "▁trib": 7962,
      "▁turn": 7963,
      "urg": 7964,
      "uran": 7965,
      "urasia": 7966,
      "urasian": 7967,
      "istorical": 7968,
      "▁Portal": 7969,
      "▁Prin": 7970,
      "▁हाला": 7971,
      "▁हथियार": 7972,
      "▁12.": 7973,
      "_of_N": 7974,
      "chol": 7975,
      "ially": 7976,
      "rotected": 7977,
      "▁mark": 7978,
      "ilt": 7979,
      "ilar": 7980,
      "stat": 7981,
      "िकी": 7982,
      "िकिस्तान": 7983,
      "▁data": 7984,
      "▁2016.": 7985,
      "]](https://en.wikipedia.org/wiki/India#cite_note-Dyson2018": 7986,
      "▁Te": 7987,
      "▁Tim": 7988,
      "olice": 7989,
      "▁Ram": 7990,
      "▁Modi": 7991,
      "▁Movement": 7992,
      "?action=edit&redlink=1#": 7993,
      "mentin-O": 7994,
      "▁air": 7995,
      "results": 7996,
      "ालर": 7997,
      "▁Bharat": 7998,
      "▁Bengali": 7999,
      "igni": 8000,
      "emi": 8001,
      "▁ज़": 8002,
      "▁Dyson": 8003,
      "▁Desert": 8004,
      "नाइटे": 8005,
      "1016": 8006,
      "_(union_territory": 8007,
      "261": 8008,
      "▁India\").[[": 8009,
      "▁India\")*.": 8010,
      "24_A7C": 8011,
      "▁[↑](https://en.wikipedia.org/wiki/India#cite_ref-Combined": 8012,
      "▁E.": 8013,
      "▁*A": 8014,
      "1999": 8015,
      "▁बार": 8016,
      "▁बने": 8017,
      "▁ब्रिटिश": 8018,
      "▁बड़ा": 8019,
      "तिब्बत": 8020,
      "्टॉक": 8021,
      "▁eaten": 8022,
      "_सागर": 8023,
      "▁नौसेना": 8024,
      "forest": 8025,
      "_in_T": 8026,
      "113": 8027,
      "ell": 8028,
      "elated": 8029,
      "elug": 8030,
      "508": 8031,
      "_Army": 8032,
      "▁remain": 8033,
      "▁three": 8034,
      "](https://en.wikipedia.org/wiki/India#CITEREFCraven1997": 8035,
      "abin": 8036,
      "abour": 8037,
      "▁2009.": 8038,
      "▁आधुनिक": 8039,
      "aks": 8040,
      "akes": 8041,
      "2221": 8042,
      "▁वे": 8043,
      "▁वृद्ध": 8044,
      "308": 8045,
      "क्षण": 8046,
      "क्षद्वीप": 8047,
      "▁[Sri": 8048,
      "▁Journal": 8049,
      "▁1970": 8050,
      "▁1980": 8051,
      "epali": 8052,
      "15)": 8053,
      "▁[\"H": 8054,
      "स्‍": 8055,
      "स्लिम": 8056,
      "ained": 8057,
      "▁around": 8058,
      "ension": 8059,
      "16]](https://en.wikipedia.org/wiki/India#cite_note-": 8060,
      "▁गान": 8061,
      "_and_T": 8062,
      "थाईल": 8063,
      "▁Organisation": 8064,
      "▁Olymp": 8065,
      "_Census": 8066,
      "▁L.": 8067,
      "▁London": 8068,
      "-9\").\n": 8069,
      "-981": 8070,
      "▁[978-0-19-9": 8071,
      "](https://en.wikipedia.org/wiki/Climate_": 8072,
      "uccess": 8073,
      "काउ": 8074,
      "कांक": 8075,
      "▁[महाराष्ट्र": 8076,
      "]](https://hi.wikipedia.org/wiki/भारत#cite_note-10": 8077,
      "नेई": 8078,
      "▁[*H": 8079,
      "▁[*M": 8080,
      "िलि": 8081,
      "ongol": 8082,
      "▁[↑](https://en.wikipedia.org/wiki/India#cite_ref-FOOTNOTEM": 8083,
      "▁[↑](https://en.wikipedia.org/wiki/India#cite_ref-FOOTNOTECraven1997": 8084,
      "▁[Mughal": 8085,
      "ummary": 8086,
      "लेब": 8087,
      "लेस": 8088,
      "-2\").\n": 8089,
      "-2](Special:BookSources/978-1": 8090,
      "▁विज्ञान": 8091,
      "laci": 8092,
      ")[[3": 8093,
      "ysHQ": 8094,
      "▁[BRICS": 8095,
      "alled": 8096,
      "▁\"Special:BookSources/978-0-19-9": 8097,
      "](Special:BookSources/978-0-19-9": 8098,
      "a_1": 8099,
      "▁\"BRICS": 8100,
      "▁original](http://": 8101,
      "सां": 8102,
      "artial": 8103,
      "Harvard": 8104,
      "384": 8105,
      "_Modi": 8106,
      "▁\"महाराष्ट्र": 8107,
      "ी](https://hi.wikipedia.org/wiki/प": 8108,
      "_Tamil_Nadu": 8109,
      "2006),": 8110,
      "temporary": 8111,
      "irectorate": 8112,
      "ंडमान": 8113,
      "▁\"East": 8114,
      "▁\"Economic": 8115,
      "▁लिया": 8116,
      "sey": 8117,
      "](https://en.wikipedia.org/wiki/Economic": 8118,
      "▁क्षेत्र,": 8119,
      "_Games": 8120,
      "परेशन": 8121,
      "▁\"New": 8122,
      "_National_P": 8123,
      "_Bank": 8124,
      "किर्ग": 8125,
      "ible": 8126,
      "ibli": 8127,
      "▁करना": 8128,
      "▁करता": 8129,
      "▁\"Russia": 8130,
      "](https://hi.wikipedia.org/wiki/महाराष्ट्र": 8131,
      "](https://en.wikipedia.org/wiki/Russia": 8132,
      "ultur": 8133,
      "ultures": 8134,
      "49-0": 8135,
      "▁[2](https://hi.wikipedia.org/wiki/भारत#cite_ref-FOOTNOTE": 8136,
      "▁[1](https://hi.wikipedia.org/wiki/भारत#cite_ref-FOOTNOTE": 8137,
      "ublications/": 8138,
      "▁[Russia": 8139,
      "neworld": 8140,
      "▁भाषा\")[[": 8141,
      "ंदोल": 8142,
      "मीरात": 8143,
      "मेनि": 8144,
      "economy": 8145,
      "मान्य": 8146,
      "times.indiatimes.com/": 8147,
      "%E0%A5%": 8148,
      "](https://en.wikipedia.org/wiki/International_": 8149,
      "ohan": 8150,
      "रबै": 8151,
      "ोकोस": 8152,
      "▁(2016).": 8153,
      "राष्ट्रीय_स": 8154,
      "alaya": 8155,
      "atis": 8156,
      "हारजिस्ट": 8157,
      "▁subject": 8158,
      "Stein201011": 8159,
      "▁सूची\"))": 8160,
      "_भारतीय_": 8161,
      "ervice": 8162,
      "▁वर्षा": 8163,
      "/profile": 8164,
      "_capita": 8165,
      "ा_वार्ता:": 8166,
      "▁घरेलू": 8167,
      "-in-india": 8168,
      "ोरम": 8169,
      "▁2007\n": 8170,
      "_Indian_subcontinent": 8171,
      "▁./Category:Articles\\_contain": 8172,
      "समूह": 8173,
      "oriz": 8174,
      "▁निभाई": 8175,
      "](https://hi.wikipedia.org/wiki/पूर्व": 8176,
      "2_22": 8177,
      "data.worldbank.org/": 8178,
      "_relations": 8179,
      "ोर्नो": 8180,
      "▁2023.": 8181,
      "▁2023](https://en.wikipedia.org/wiki/India#CITEREF": 8182,
      "दाख": 8183,
      "िपि": 8184,
      "तिहासिक": 8185,
      "▁regional": 8186,
      "▁[संस्कृत": 8187,
      "▁Religion": 8188,
      "230-345": 8189,
      "ppines": 8190,
      "oastrian": 8191,
      "▁था,": 8192,
      "ortality": 8193,
      "crimin": 8194,
      "place": 8195,
      "▁across": 8196,
      "ujarati": 8197,
      "▁music\")": 8198,
      "-107-026": 8199,
      "▁diversity": 8200,
      "जयनगर": 8201,
      "ेर-": 8202,
      "▁common": 8203,
      "▁about": 8204,
      "ID-19": 8205,
      "Vijayan": 8206,
      "Vietnam": 8207,
      "▁अपने": 8208,
      "ंपन": 8209,
      "ंपरा": 8210,
      "▁28.": 8211,
      "▁[↑](https://hi.wikipedia.org/wiki/भारत#cite_ref-10": 8212,
      "▁election\"),": 8213,
      "▁[*An": 8214,
      "pib.nic.in/": 8215,
      "▁Talbot,": 8216,
      "▁traditional": 8217,
      "▁well": 8218,
      "▁तटीय": 8219,
      "AsherTalbot2008),": 8220,
      "cat.org/": 8221,
      "al_Pradesh": 8222,
      "Harle1994),": 8223,
      "aharasht": 8224,
      "▁सदस": 8225,
      "Articles\\_with\\_": 8226,
      "ause": 8227,
      "▁ईस्ट": 8228,
      "▁highest": 8229,
      "▁पार्टी": 8230,
      "▁longer": 8231,
      "_Shankar": 8232,
      "_News": 8233,
      "▁सुरक्षा": 8234,
      "resident_of_India": 8235,
      "्रांति": 8236,
      "िज़ोरम": 8237,
      "ताजिकिस्तान": 8238,
      ".svg/40px-": 8239,
      "▁player": 8240,
      "Robb2011": 8241,
      "ilies": 8242,
      "पातकाल": 8243,
      "anoram": 8244,
      "▁जलवायु": 8245,
      "rishnan": 8246,
      "izor": 8247,
      "वासी": 8248,
      "▁Publishing\").": 8249,
      "▁texts": 8250,
      "timesofindia.indiatimes.com/india/": 8251,
      "ksai": 8252,
      "भोजपुरी": 8253,
      ".svg.png)](File:": 8254,
      "फाएं": 8255,
      "ार्कटिका": 8256,
      "economictimes.indiatimes.com/": 8257,
      "hristianity": 8258,
      "Ministry_of_Home_Affairs": 8259,
      "hanghai": 8260,
      "▁mathematic": 8261,
      "▁राजनीतिक": 8262,
      "▁[पंजाब](https://hi.wikipedia.org/wiki/पंजाब": 8263,
      "b/b": 8264,
      "hutan": 8265,
      "▁historical": 8266,
      "▁colleges": 8267,
      "67733-7": 8268,
      "Zealand": 8269,
      "_राजवंश": 8270,
      "kbar": 8271,
      "ichell2000": 8272,
      "▁popular": 8273,
      "atabase": 8274,
      "▁जयते": 8275,
      "▁शुरू": 8276,
      "▁लगभग": 8277,
      "FrontView": 8278,
      "OVID-19": 8279,
      "खनऊ": 8280,
      "▁kingdoms": 8281,
      "▁following": 8282,
      "▁\"China\")": 8283,
      "do-Gangetic": 8284,
      "हरियाणा": 8285,
      "ataraja": 8286,
      "▁emerged": 8287,
      "▁approxim": 8288,
      "IFTY": 8289,
      "_तथा": 8290,
      "्रुनेई": 8291,
      "▁(b)": 8292,
      "▁[↑](https://en.wikipedia.org/wiki/India#cite_ref-1": 8293,
      "▁divisions": 8294,
      "_के_अनुसार_देश": 8295,
      "▁adopted": 8296,
      "तुर्कमेनि": 8297,
      "▁1994](https://en.wikipedia.org/wiki/India#CITEREFHarle1994),": 8298,
      "touchability": 8299,
      "-language\\_sources\\_(en": 8300,
      "rincely": 8301,
      "wait": 8302,
      "wenty": 8303,
      "तुल्य": 8304,
      "ृषि": 8305,
      "▁festival": 8306,
      "▁दोनों": 8307,
      "हिमालय": 8308,
      "▁developed": 8309,
      "▁1997](https://en.wikipedia.org/wiki/India#CITEREFCraven1997": 8310,
      "_पार्टी": 8311,
      "-काराबा": 8312,
      "Gumpa": 8313,
      "Sanchi2": 8314,
      "Yumthang": 8315,
      "Zoroastrian": 8316,
      "lémentin-O": 8317,
      "yprus": 8318,
      "ऍथनोल": 8319,
      "बेकिस्तान": 8320,
      "िड़ला": 8321,
      "▁\"साँचा": 8322,
      "InfosysHQ": 8323,
      "alcutta": 8324,
      "hilippines": 8325,
      "](https://hi.wikipedia.org/wiki/साँचा_वार्ता:": 8326,
      "itchison": 8327,
      "▁similar": 8328,
      "ignific": 8329,
      "▁Dyson,": 8330,
      "नाइटेड": 8331,
      "_(union_territory)": 8332,
      "▁वृद्धि": 8333,
      "▁[महाराष्ट्र](https://hi.wikipedia.org/wiki/महाराष्ट्र": 8334,
      "▁\"महाराष्ट्र\")": 8335,
      "_National_Park": 8336,
      "हारजिस्ट्रार": 8337,
      "data.worldbank.org/indicator": 8338,
      "ोर्नो-काराबा": 8339,
      "230-34549-2": 8340,
      "-107-02649-0": 8341,
      "Vijayanagar": 8342,
      "aharashtra": 8343,
      "Ministry_of_Home_Affairs_1960": 8344,
      "▁1997](https://en.wikipedia.org/wiki/India#CITEREFCraven1997),": 8345,
      "lémentin-Ojha": 8346,
      "ऍथनोलॉग": 8347,
      "InfosysHQFrontView": 8348,
      "\"](http://www.": 8349,
      "#S": 8350,
      "-Y": 8351,
      "-i": 8352,
      "-ve": 8353,
      "-for": 8354,
      "-news/": 8355,
      "-गंगा": 8356,
      "-national-language": 8357,
      ".208": 8358,
      "/in": 8359,
      "/hind": 8360,
      "/C-0": 8361,
      "1b": 8362,
      "1)\n": 8363,
      "1-9": 8364,
      "2-1": 8365,
      "2-5": 8366,
      "2%29": 8367,
      "2]](https://te.wikipedia.org/wiki/భారతదేశం#cite_note-india.gov.in": 8368,
      "319": 8369,
      "32)": 8370,
      "425": 8371,
      "410": 8372,
      "6-1": 8373,
      "6-9": 8374,
      "728": 8375,
      "8%": 8376,
      "96)": 8377,
      "9857": 8378,
      "AL": 8379,
      "AQAAQBAJ&pg=PA": 8380,
      "BRICS": 8381,
      "Co": 8382,
      "Col": 8383,
      "DS": 8384,
      "English": 8385,
      "Garg": 8386,
      "HDR": 8387,
      "Island": 8388,
      "Kumar": 8389,
      "L.": 8390,
      "LD": 8391,
      "LS": 8392,
      "MDD": 8393,
      "NI": 8394,
      "OL": 8395,
      "OLA": 8396,
      "RA": 8397,
      "SE": 8398,
      "Special:": 8399,
      "Search": 8400,
      "SYS": 8401,
      "Tab": 8402,
      "Tritsch": 8403,
      "US": 8404,
      "W00": 8405,
      "XLS": 8406,
      "[https": 8407,
      "_7": 8408,
      "_ఇ": 8409,
      "_ఫ": 8410,
      "_శ": 8411,
      "_te": 8412,
      "_స్": 8413,
      "_he": 8414,
      "_21": 8415,
      "_india": 8416,
      "_30": 8417,
      "_1.": 8418,
      "_39": 8419,
      "_ex": 8420,
      "_2009": 8421,
      "_2007": 8422,
      "_val": 8423,
      "_शासित": 8424,
      "_గాంధీ": 8425,
      "_द्वीप": 8426,
      "aidy": 8427,
      "bu": 8428,
      "business": 8429,
      "culture": 8430,
      "ees": 8431,
      "gi": 8432,
      "gions": 8433,
      "hl": 8434,
      "iN": 8435,
      "io": 8436,
      "iosphere": 8437,
      "jol": 8438,
      "jana": 8439,
      "k-e": 8440,
      "lc": 8441,
      "mc": 8442,
      "nus": 8443,
      "nised": 8444,
      "nins": 8445,
      "nathura": 8446,
      "ochi": 8447,
      "pro": 8448,
      "pub": 8449,
      "pts": 8450,
      "run": 8451,
      "ride": 8452,
      "sci": 8453,
      "tats": 8454,
      "uff": 8455,
      "via": 8456,
      "yr": 8457,
      "zard": 8458,
      "ædia": 8459,
      "ँकि": 8460,
      "ंथ": 8461,
      "आर": 8462,
      "ऊर्जा": 8463,
      "ऋतु": 8464,
      "ऑपरेशन": 8465,
      "क्": 8466,
      "ख्य": 8467,
      "त्या": 8468,
      "दु": 8469,
      "द्रा": 8470,
      "दरण": 8471,
      "नत": 8472,
      "पूर्ण": 8473,
      "भरत": 8474,
      "मय": 8475,
      "ल्त": 8476,
      "विक": 8477,
      "वली": 8478,
      "वर्ष": 8479,
      "शील": 8480,
      "सत": 8481,
      "सङ्": 8482,
      "सैन": 8483,
      "ाय": 8484,
      "ीए": 8485,
      "ीर": 8486,
      "ुक": 8487,
      "ूस": 8488,
      "ोब": 8489,
      "्म": 8490,
      "१८५७": 8491,
      "२.": 8492,
      "४.": 8493,
      "ం.\n": 8494,
      "ం\")\n": 8495,
      "ఎల": 8496,
      "ఏప్రిల్": 8497,
      "జిల్": 8498,
      "డీ": 8499,
      "ఢా": 8500,
      "తై": 8501,
      "థారిటీ": 8502,
      "ధు": 8503,
      "పై": 8504,
      "పార": 8505,
      "ఫి": 8506,
      "బీ": 8507,
      "బై": 8508,
      "మల": 8509,
      "మంత": 8510,
      "యం": 8511,
      "యూ": 8512,
      "యి.": 8513,
      "రల్": 8514,
      "వో": 8515,
      "వి.": 8516,
      "విక": 8517,
      "వార్": 8518,
      "వాల్": 8519,
      "వలస": 8520,
      "వలం": 8521,
      "వత్రిక": 8522,
      "శక": 8523,
      "శి": 8524,
      "శకు": 8525,
      "సై": 8526,
      "సార్": 8527,
      "హిత": 8528,
      "హోర్": 8529,
      "ితి": 8530,
      "ిటన్": 8531,
      "ీం": 8532,
      "ీర": 8533,
      "ుప్ర": 8534,
      "ుతున్న": 8535,
      "ృత్య": 8536,
      "ెర్": 8537,
      "ే,": 8538,
      "ైల్": 8539,
      "ైథి": 8540,
      "ోత్తర": 8541,
      "ౌర": 8542,
      "–19": 8543,
      "–29": 8544,
      "–13": 8545,
      "–70": 8546,
      "′′": 8547,
      "▁<": 8548,
      "▁x": 8549,
      "▁y": 8550,
      "▁झ": 8551,
      "▁७": 8552,
      "▁ధ": 8553,
      "▁er": 8554,
      "▁enti": 8555,
      "▁go": 8556,
      "▁op": 8557,
      "▁తి": 8558,
      "▁vers": 8559,
      "▁rit": 8560,
      "▁ద్": 8561,
      "▁గా": 8562,
      "▁70": 8563,
      "▁3.": 8564,
      "▁భూ": 8565,
      "▁దీవ": 8566,
      "▁దక్షిణాసియా": 8567,
      "▁own": 8568,
      "▁ద్వీ": 8569,
      "▁గుర్": 8570,
      "▁దినోత్సవం": 8571,
      "▁very": 8572,
      "▁టై": 8573,
      "▁డామన్": 8574,
      "win": 8575,
      "or\\_": 8576,
      "orbe": 8577,
      "ttac": 8578,
      "people": 8579,
      "](https://catal": 8580,
      "▁[ర": 8581,
      "▁[1947": 8582,
      "▁[लोक": 8583,
      "▁[హిందీ": 8584,
      "▁[భూటాన్": 8585,
      "▁[ఉత్తర": 8586,
      "▁[ఒడి": 8587,
      "▁[తూర్పు": 8588,
      "▁[రాష్ట్రపతి": 8589,
      "▁[తమిళనాడు": 8590,
      "▁[గణతంత్ర": 8591,
      "▁[శ్రీలంక": 8592,
      "▁[నేపాల్": 8593,
      "▁[...]": 8594,
      "en:": 8595,
      "enced": 8596,
      "tesv": 8597,
      "▁\"Y": 8598,
      "▁\"ची": 8599,
      "▁\"కు": 8600,
      "▁\"प्र": 8601,
      "▁\"హిందీ": 8602,
      "▁\"భూటాన్": 8603,
      "▁\"ఉత్తర": 8604,
      "▁\"ఒడి": 8605,
      "▁\"తూర్పు": 8606,
      "▁\"తమిళనాడు": 8607,
      "▁\"ప్రధానమంత్రి": 8608,
      "▁\"గణతంత్ర": 8609,
      "▁\"శ్రీలంక": 8610,
      "▁\"నేపాల్": 8611,
      "▁\"యునైటెడ్": 8612,
      "▁\"ISO": 8613,
      "▁\"विशेष:EditPage/साँचा:": 8614,
      "anal": 8615,
      "Ins": 8616,
      "til": 8617,
      "thme": 8618,
      "th_East_Asia_Summit": 8619,
      "erce": 8620,
      "arc": 8621,
      "arak": 8622,
      "2020": 8623,
      "alak": 8624,
      "algh": 8625,
      "hic": 8626,
      "hip": 8627,
      "ison": 8628,
      "isni": 8629,
      "ispu": 8630,
      "islative": 8631,
      "▁कर्ज": 8632,
      "▁कएल": 8633,
      "](https://hi.wikipedia.org/wiki/य": 8634,
      "](https://hi.wikipedia.org/wiki/विशेष:EditPage/साँचा:": 8635,
      "edary": 8636,
      "omic": 8637,
      "andy": 8638,
      "andoor": 8639,
      "andemic": 8640,
      "▁-15": 8641,
      "ital": 8642,
      "](https://te.wikipedia.org/wiki/D": 8643,
      "](https://te.wikipedia.org/wiki/హ": 8644,
      "](https://te.wikipedia.org/wiki/పా": 8645,
      "](https://te.wikipedia.org/wiki/హిందూ": 8646,
      "](https://te.wikipedia.org/wiki/పాకిస్తాన్": 8647,
      "](https://te.wikipedia.org/wiki/హిందీ": 8648,
      "](https://te.wikipedia.org/wiki/ముంబై": 8649,
      "](https://te.wikipedia.org/wiki/భారతదేశ_": 8650,
      "](https://te.wikipedia.org/wiki/భూటాన్": 8651,
      "](https://te.wikipedia.org/wiki/ఒడి": 8652,
      "](https://te.wikipedia.org/wiki/తమిళనాడు": 8653,
      "](https://te.wikipedia.org/wiki/ప్రధానమంత్రి": 8654,
      "](https://te.wikipedia.org/wiki/శ్రీలంక": 8655,
      "](https://te.wikipedia.org/wiki/నేపాల్": 8656,
      "▁(2010": 8657,
      "▁(2003": 8658,
      "asu": 8659,
      "ases": 8660,
      "asp?": 8661,
      "▁सूर": 8662,
      "▁सङ्": 8663,
      "▁India](https://en.wikipedia.org/wiki/E": 8664,
      "▁India](https://en.wikipedia.org/wiki/D": 8665,
      "▁India\".": 8666,
      "lease": 8667,
      "1967": 8668,
      "▁institu": 8669,
      "ooking": 8670,
      "nold": 8671,
      "entin": 8672,
      "ently": 8673,
      "▁sur": 8674,
      "▁sec": 8675,
      "▁shar": 8676,
      "▁science": 8677,
      "▁series": 8678,
      "▁signific": 8679,
      "▁महा": 8680,
      "▁मील": 8681,
      "▁मिला": 8682,
      "ateway": 8683,
      "ాలకు": 8684,
      "ాలతో": 8685,
      "▁pred": 8686,
      "▁poli": 8687,
      "20085": 8688,
      "ation)": 8689,
      "acter": 8690,
      "ing)": 8691,
      "ingle": 8692,
      "ing\\_S": 8693,
      "▁che": 8694,
      "▁constitution": 8695,
      "▁cricket": 8696,
      "▁cultural": 8697,
      "▁coral": 8698,
      "్యాయ": 8699,
      "amaj": 8700,
      "ush": 8701,
      "usion": 8702,
      "atpura": 8703,
      "\\_or\\_": 8704,
      "▁Ag": 8705,
      "▁Age": 8706,
      "▁Amb": 8707,
      "▁Cup": 8708,
      "▁Court": 8709,
      "▁Caves": 8710,
      "▁Century": 8711,
      "▁Cather": 8712,
      "▁Council": 8713,
      "ago": 8714,
      "agle": 8715,
      "agogue": 8716,
      "agola": 8717,
      "-100": 8718,
      "ानी": 8719,
      "స్?action=edit&redlink=1": 8720,
      "స్ట్": 8721,
      ").svg": 8722,
      "▁Ste": 8723,
      "▁Some": 8724,
      "▁SCO": 8725,
      "▁Sikh": 8726,
      "▁Studies": 8727,
      "▁ful": 8728,
      "▁flow": 8729,
      "▁feat": 8730,
      "▁పద": 8731,
      "▁పో": 8732,
      "▁పీఠ": 8733,
      "angra": 8734,
      "angla": 8735,
      "angrove": 8736,
      "ads": 8737,
      "adav": 8738,
      "▁bas": 8739,
      "▁bord": 8740,
      "▁bread": 8741,
      "▁border": 8742,
      "▁bott": 8743,
      "▁birth": 8744,
      "▁tril": 8745,
      "ర్కొ": 8746,
      "ర్జె": 8747,
      "ర్నేషనల్": 8748,
      "78)": 8749,
      "urther": 8750,
      "urmu": 8751,
      "న్క": 8752,
      "న్మ": 8753,
      "న్](https://te.wikipedia.org/wiki/": 8754,
      "maint:": 8755,
      "istrib": 8756,
      "uler": 8757,
      "▁11.": 8758,
      "_of_L": 8759,
      "chae": 8760,
      "heel": 8761,
      "roti": 8762,
      "roban": 8763,
      "▁mo": 8764,
      "▁met": 8765,
      "లుపు": 8766,
      "▁won": 8767,
      "▁dances": 8768,
      "▁dynast": 8769,
      "uns": 8770,
      "unbird": 8771,
      "00%20A": 8772,
      "▁2015.": 8773,
      "]](https://en.wikipedia.org/wiki/India#cite_note-4": 8774,
      "▁Time": 8775,
      "213": 8776,
      "tices": 8777,
      "▁Mani": 8778,
      "▁Mughal": 8779,
      ".శ.)": 8780,
      "లోన్": 8781,
      "లోమీ": 8782,
      "▁today": 8783,
      "▁కల్": 8784,
      "▁కంట": 8785,
      "▁కనుమ": 8786,
      "▁క్యాలె": 8787,
      "rested": 8788,
      "▁Britannica": 8789,
      "▁Bangladesh": 8790,
      "▁Barb": 8791,
      "ందిన": 8792,
      "विद्यालय": 8793,
      "s.jpg": 8794,
      "నిడ్": 8795,
      "నియన్": 8796,
      "▁వు": 8797,
      "▁వంటి": 8798,
      "▁వహించ": 8799,
      "▁Dec": 8800,
      "108": 8801,
      "_(orthographic_projection": 8802,
      "▁lists": 8803,
      "▁\"Sri": 8804,
      "iris": 8805,
      "266": 8806,
      "त्रुट": 8807,
      "independ": 8808,
      "240": 8809,
      "247": 8810,
      "ల్లో": 8811,
      "राजनी": 8812,
      "▁[↑](https://en.wikipedia.org/wiki/India#cite_ref-3": 8813,
      "▁[↑](https://en.wikipedia.org/wiki/India#cite_ref-35": 8814,
      "▁Emi": 8815,
      "▁సార్": 8816,
      "▁సమాఖ్య": 8817,
      "▁సమర": 8818,
      "▁సైనిక": 8819,
      "▁సంబంధ": 8820,
      "▁మతం\")": 8821,
      "▁*2011": 8822,
      "लावा": 8823,
      "▁प्रण": 8824,
      "▁प्रभा": 8825,
      "▁प्रकार": 8826,
      "▁प्रशास": 8827,
      "▁प्रमाण": 8828,
      "▁प्रारम्भ": 8829,
      "్రాన్": 8830,
      "▁however,": 8831,
      "▁बनी": 8832,
      "▁बड़ी": 8833,
      "▁epic": 8834,
      "▁earliest": 8835,
      "_सभा": 8836,
      "_सिनेमा": 8837,
      "romedary": 8838,
      "▁निय": 8839,
      "▁नृत्य": 8840,
      "](https://mai.wikipedia.org/wiki/इ": 8841,
      "](https://mai.wikipedia.org/wiki/उ": 8842,
      "former": 8843,
      "_SCO": 8844,
      "-49857": 8845,
      "rynus": 8846,
      "ellion": 8847,
      "50)": 8848,
      "_Ag": 8849,
      "_Arab": 8850,
      "स्ता": 8851,
      "ముఖ్య": 8852,
      "▁reach": 8853,
      "ित्व": 8854,
      "ables": 8855,
      "abhad": 8856,
      "సింగ్": 8857,
      "▁2000": 8858,
      "▁2002": 8859,
      "▁आक": 8860,
      "▁आय": 8861,
      "akar": 8862,
      "ishes": 8863,
      "18)": 8864,
[...]
